#version: 0.2
으 로</w>
에 서</w>
니 다</w>
하 는</w>
했 다</w>
▁있 다</w>
하 고</w>
이 다</w>
▁“ “</w>
습 니다</w>
들 이</w>
▁있 는</w>
다 는</w>
다 고</w>
에 는</w>
지 만</w>
▁한 다</w>
에 게</w>
한 다</w>
하 여</w>
▁및 및</w>
▁것 으로</w>
이 라
까 지</w>
▁경 기
적 으로</w>
부 터</w>
적 인</w>
▁2 0
면 서</w>
었 다</w>
에 서
▁한 국
▁그 그</w>
▁대 한</w>
어 요</w>
하 게</w>
0 0</w>
장 은</w>
▁필 요
들 의</w>
▁위 해</w>
는 데</w>
▁사 람
도 록</w>
장 이</w>
입 니다</w>
▁당 신
▁때 문
들 은</w>
위 원
▁가 능
하 기</w>
리 는</w>
▁할 할</w>
▁따 라</w>
▁것 것</w>
▁더 더</w>
하 지</w>
▁20 1
▁지 난</w>
▁통 해</w>
▁1 0</w>
▁지 원
▁나 는</w>
된 다</w>
▁밝 혔
에서 는</w>
됐 다</w>
되 는</w>
▁밝혔 다</w>
기 를</w>
▁경 우</w>
사 를</w>
자 가</w>
▁위 원
이라 고</w>
▁함 께</w>
▁아 니
▁사 업
▁사 용
사 가</w>
▁하 는</w>
여 야</w>
으 며</w>
▁대 통
장 을</w>
리 가</w>
▁이 번</w>
▁지 역
▁경기 도
▁중 중</w>
▁있 습니다</w>
▁서 울
▁생 각
에 도</w>
지 는</w>
▁문 제
▁지 난
들 을</w>
▁위 한</w>
▁등 을</w>
▁많 은</w>
자 는</w>
▁진 행
▁것 이</w>
하 여야</w>
▁가 장</w>
으 로
합 니다</w>
성 이</w>
▁저 는</w>
▁대통 령
원 이</w>
▁다 른</w>
▁때 때</w>
세 요</w>
하 며</w>
▁관 계
았 다</w>
▁말 했다</w>
▁구 청
보 다</w>
▁경 우
▁것 이다</w>
였 다</w>
하 다</w>
▁했 다</w>
▁운 영
▁시 작
이 나</w>
사 는</w>
리 를</w>
졌 다</w>
▁것 은</w>
▁대 해</w>
▁것 을</w>
▁정 부
거 나</w>
기 가</w>
하 면</w>
▁대 표
지 고</w>
▁같 은</w>
▁교 육
▁또 는</w>
▁기 업
지 를</w>
나 요</w>
▁가 운
▁큰 큰</w>
대 로</w>
해 야</w>
▁참 여
▁게 게</w>
▁시 간
▁각 각</w>
해 서</w>
리 고</w>
다 면</w>
▁확 인
▁한 국</w>
▁그 는</w>
명 이</w>
라 고</w>
▁가운 데</w>
▁상 황
▁필요 한</w>
▁이 용
▁프 로
▁아 이
라 는</w>
화 를</w>
▁다 양
▁발 생
▁때문 에</w>
되 고</w>
▁내 내</w>
▁자 신
▁하 고</w>
▁있 어</w>
이라 는</w>
▁다 음</w>
성 을</w>
▁들 어
▁만 들
서 는</w>
▁등 이</w>
▁경 찰
기 에</w>
▁하 나
정 을</w>
▁있 도록</w>
▁알 려
▁예 정
상 을</w>
▁사 회
▁미 국</w>
▁많 이</w>
▁설 명
▁따 른</w>
력 을</w>
▁특 히</w>
▁미 국
▁안 안</w>
▁우 리</w>
기 도</w>
기 로</w>
으 면</w>
▁관 련</w>
원 을</w>
▁2 0</w>
▁기 대
이 고</w>
▁다양 한</w>
▁있 다는</w>
▁추 진
▁최 근</w>
▁제 가</w>
▁있 었
▁관 련
▁이 날</w>
에 요</w>
▁이 후</w>
▁전 문
▁없 는</w>
▁김 김</w>
▁다 시</w>
▁될 될</w>
▁내 가</w>
하 면서</w>
0 00</w>
▁지난 해</w>
로 운</w>
▁3 0</w>
장 의</w>
▁이 유
▁사 실
▁경 제
의 를</w>
원 은</w>
▁이 어
▁서 울</w>
▁관 심
자 의</w>
▁제 품
들 에게</w>
기 업
▁대 상
르 면</w>
▁구청 장은</w>
니 까</w>
사 업
▁학 생
▁1 2</w>
▁계 획
▁중 국
▁내 용
인 이</w>
▁등 의</w>
▁1 9
▁모 든</w>
▁위 하여</w>
도 가</w>
▁포 함
▁현 재</w>
▁제 공
자 를</w>
▁문 화
회 가</w>
▁1 1</w>
▁직 접</w>
▁모 두</w>
▁어 려
원 의</w>
기 는</w>
▁우 리
▁이 를</w>
회 를</w>
겠 습니다</w>
시 간</w>
스 를</w>
▁국 가
▁국 내</w>
▁모 습
는 지</w>
▁나 타
▁사 항
▁이 상
▁올 해</w>
▁평 가
▁마 련
▁따 르면</w>
이 하</w>
식 을</w>
▁참 석
에서 도</w>
▁공 개
력 이</w>
처 럼</w>
▁좋 은</w>
들 과</w>
어 서</w>
▁서 비
이 라</w>
▁연 구
이 는</w>
부 가</w>
이 에요</w>
▁활 동
▁주 민
▁중 요
기 관
지 가</w>
▁우 리는</w>
수 가</w>
사 의</w>
해 요</w>
▁결 과
▁중 국</w>
▁뒤 뒤</w>
▁「 「</w>
▁있 을</w>
▁이 상</w>
했 다고</w>
회 의</w>
▁경기 도</w>
▁안 전
▁전 망
▁아니 라</w>
▁발 표
▁없 다</w>
▁다 만</w>
▁방 문
▁실 시
▁국 민
▁경우 에는</w>
▁있 다고</w>
되 어</w>
했 던</w>
▁관 한</w>
교 육
장 에서</w>
▁때문 이다</w>
▁사 이
금 을</w>
▁정 보
도 로</w>
인 다</w>
▁결 정
장 에</w>
▁규 정
▁증 가
▁새 로운</w>
▁설 치
▁기 술
▁너 무</w>
▁높 은</w>
▁오 후</w>
▁기 록
인 을</w>
▁시 행
▁된 다</w>
도 를</w>
서 를</w>
▁등 에</w>
스 트
부 를</w>
▁피 해
▁어 떤</w>
▁좋 아
▁만 큼</w>
가 는</w>
▁세 계
특 별
▁합 니다</w>
▁프로 그
▁조 사
▁분 석
▁지 적
▁않 은</w>
▁금 융
▁요 구
▁동 안</w>
▁영 향
▁보 고</w>
▁개 발
▁관 리
료 를</w>
▁준 비
▁이 런</w>
치 를</w>
▁당 시</w>
▁정 상
항 에</w>
겠 다</w>
▁당신 은</w>
이 었
으 나</w>
▁개 최
위원 회</w>
관 이</w>
▁해 당</w>
▁않 았
▁정 책
▁신 청
▁특 별
체 가</w>
▁어 떻
▁당신 이</w>
자 들이</w>
▁보 내
▁북 한
왔 다</w>
▁오 늘</w>
났 다</w>
▁구 성
▁관계 자는</w>
▁첫 첫</w>
했 습니다</w>
▁예 산
▁예 상
레 이
▁친 구
▁트 럼
▁지 금</w>
안 을</w>
가 요</w>
▁있 어요</w>
▁중 심
▁산 업
위 를</w>
▁어떻 게</w>
▁투 자
▁또 또</w>
▁과 정
사 에</w>
문 화
제 로</w>
▁그 러
▁지 방
▁있 었다</w>
▁1 5</w>
회 는</w>
부 는</w>
▁된 된</w>
제 를</w>
시 는</w>
▁판 매
▁일 본
▁이 어</w>
▁데 데</w>
▁오 는</w>
▁환 경
센 터
스 가</w>
관 리
까 요</w>
해 주
▁사 건
▁않 고</w>
▁인 정
▁이 야
상 이</w>
▁인 터
▁1 00</w>
▁있 으며</w>
명 의</w>
인 의</w>
아 요</w>
▁제 출
▁보 인다</w>
▁업 무
명 을</w>
▁있 고</w>
▁마 음
씨 가</w>
장 과</w>
▁사 진
▁트럼 프</w>
▁자 유
▁활 용
▁지 급
▁열 린</w>
해 서는</w>
▁대 학
되 지</w>
▁시 민
▁지 역</w>
▁대통령 이</w>
시 아</w>
▁받 은</w>
▁나 오
▁이 뤄
▁행 정
▁요 청
▁선 정
이 었다</w>
대 가</w>
▁의 견
시 아
▁소 비
▁영 화
▁삼 성
렇 게</w>
▁학 교
▁감 사
▁강 조
▁약 약</w>
▁그 것
렸 다</w>
▁없 이</w>
▁20 0
는 다</w>
▁우 려
시 에</w>
시 설
▁오 전</w>
▁여 러</w>
▁지 속
▁그 녀
하 거나</w>
▁예정 이다</w>
▁설명 했다</w>
▁공 무
다 가</w>
동 안</w>
했 고</w>
▁지 금
▁비 롯
연 구
원 에</w>
▁상 태
▁공 연
▁부 산
대 를</w>
▁감 독
▁주 장
▁국 제
이 며</w>
▁좀 좀</w>
었 습니다</w>
▁가 격
▁보 여
하 다고</w>
▁적 용
▁사 랑
학 교</w>
▁판 단
▁공 공
어 야</w>
전 을</w>
▁부 분
물 을</w>
▁노 동
▁세 계</w>
▁경 쟁
▁가능 성이</w>
▁규 모
▁프로그 램
▁그 리고</w>
▁어 느</w>
▁공 동
▁가 족
▁노 력
전 에</w>
▁개 선
▁해 당
▁고 객
수 를</w>
▁볼 볼</w>
▁도 시
▁같 이</w>
에 게
하 도록</w>
▁검 찰
▁참 가
▁일 본</w>
한 국
▁떨 어
▁이 해
▁건 강
▁정부 가</w>
회 의
어 나
▁효 과
정 이</w>
라 도</w>
▁있 지만</w>
업 을</w>
▁돌 아
▁여 성
▁대 부
▁바 로</w>
▁후 보
▁생 산
▁기 준
▁간 간</w>
▁처 음
▁호 의</w>
▁문제 가</w>
특별 시</w>
이 가</w>
▁무 엇
▁더 욱</w>
▁주 요</w>
제 가</w>
▁의 미
▁대상 으로</w>
▁것 입니다</w>
▁고 려
▁시 설
▁생 활
▁도 지
사 와</w>
▁결 과</w>
▁외 국
2 0
점 을</w>
지 에</w>
회 에</w>
▁매 우</w>
▁사람 이</w>
▁대 한
품 을</w>
고 자</w>
▁방 법
▁확 대
▁말 한다</w>
동 을</w>
움 을</w>
▁일 자
조 에</w>
▁보 고
회 에서</w>
▁청 와
▁때 에는</w>
▁자 동
▁받 고</w>
화 가</w>
리 에</w>
조 제</w>
▁정 말</w>
▁선 수
일 부터</w>
▁성 공
임 을</w>
▁수 준
▁우 리가</w>
트 를</w>
▁이 번
마 다</w>
▁경 험
▁당신 의</w>
▁민 주
▁해 결
▁이 미</w>
네 요</w>
▁이 에</w>
▁관 광
▁드 러
▁일 부</w>
일 까지</w>
▁않 는</w>
진 다</w>
▁해 해</w>
시 면</w>
▁또 한</w>
하 려
▁역 할
치 는</w>
▁방 송
▁5 0</w>
▁이 것
▁건 건</w>
과 의</w>
식 이</w>
비 를</w>
▁제 기
▁분 야
▁자신 의</w>
이 란</w>
▁찾 아
▁난 난</w>
관 은</w>
기 술
▁등 으로</w>
의 가</w>
행 을</w>
선 을</w>
▁크 게</w>
기 업</w>
▁되 는</w>
지 원
▁조 례
서 도</w>
구 청
했 지만</w>
시 가</w>
감 을</w>
되 면</w>
▁스 타
도 의</w>
대 표
▁됐 다</w>
▁최 고
▁먼 저</w>
센 터</w>
▁청 소
▁사항 을</w>
했 어요</w>
▁부 담
▁받 아
▁기 존</w>
원 으로</w>
가 를</w>
▁보 도
▁시간 이</w>
계 를</w>
르 는</w>
▁있 나요</w>
▁어 린
했 다는</w>
▁사 무
시 키
▁글 로
지 역
▁사 고
▁확 보
산 업
세 를</w>
▁집 중
▁지 정
▁스 마
드 는</w>
▁관심 이</w>
▁인 천
▁전 했다</w>
▁신 고
하 다는</w>
주 는</w>
함 을</w>
▁국 내
▁최 대</w>
로 부터</w>
치 가</w>
약 을</w>
▁유 지
▁1 3</w>
소 를</w>
▁그 의</w>
시 간
▁강 화
▁1 6</w>
▁북 한</w>
▁2 5</w>
온 다</w>
▁1 8</w>
▁1 4</w>
▁이 름
지 로</w>
음 을</w>
가 가</w>
▁보 면</w>
▁논 란
원 에서</w>
계 획
▁주 문
▁조 성
▁그 래
▁이 루
) ,</w>
어 를</w>
씨 는</w>
▁활 성
▁중 소
▁추 가
▁아 직</w>
▁선 택
20 1
▁아 닌</w>
▁드 라
▁행 사
일 에</w>
▁다 음
한 다는</w>
복 지
2 0</w>
기 관</w>
움 이</w>
▁장 애
▁하 며</w>
예 요</w>
▁하 지만</w>
인 은</w>
수 는</w>
겠 다는</w>
되 었
구 가</w>
하 였
정 보
▁해 요</w>
량 이</w>
▁부 족
▁중 인</w>
페 이
▁발 견
하 기로</w>
▁경기도 가</w>
▁의 혹
학 교
▁현 대
▁역 시</w>
▁각 종</w>
다 며</w>
▁정 치
▁구 매
▁그 런</w>
대 에</w>
▁그 가</w>
하 지만</w>
▁서울 특별시</w>
인 데</w>
▁성 장
▁사람 들이</w>
▁소 개
▁얼 마
자 로</w>
▁어 렵
▁글로 벌</w>
한 다고</w>
단 이</w>
▁1 7</w>
하 였다</w>
▁그 동안</w>
▁1 9</w>
▁한 다는</w>
▁국 무
5 0</w>
전 히</w>
▁문 재
▁전 에</w>
권 을</w>
스 는</w>
지 의</w>
▁전 시
되 면서</w>
▁아 파
▁못 못</w>
되 었다</w>
▁고 용
스 템
▁비 용
▁가 지고</w>
▁주 목
▁제 작
자 와</w>
▁반 영
▁과정 에서</w>
▁경찰 은</w>
▁수 도</w>
▁경 기</w>
▁나 온다</w>
▁2 4</w>
단 체
▁일 이</w>
▁만 에</w>
▁담 당
인 지</w>
▁한국 의</w>
▁4 0</w>
▁발 전
▁것 도</w>
로 는</w>
나 는</w>
▁처 리
계 가</w>
일 을</w>
▁있 는데</w>
점 이</w>
스 로</w>
▁재 판
당 이</w>
▁영향 을</w>
▁도지 사는</w>
▁이 는</w>
정 은</w>
▁디 자
▁거 래
자 들의</w>
국 의</w>
▁기 간
▁하 지</w>
▁조 례</w>
회 담
▁차 지
▁물 론</w>
▁나타 났다</w>
▁보 호
게 요</w>
▁개 인
환 경
▁이 러
▁받 을</w>
지 도</w>
▁제 외
위 가</w>
▁일 반
▁공 간
▁높 아
▁시 장</w>
드 를</w>
▁상 승
서 의</w>
분 이</w>
▁배 우
▁앞 서</w>
▁광 주
▁정 부</w>
▁전 국</w>
▁있 을
▁실 제</w>
▁대 법
부 의</w>
▁스마 트
시 설</w>
문 을</w>
대 의</w>
▁인 해</w>
▁계획 이다</w>
▁지 원</w>
들 도</w>
의 로</w>
으로 는</w>
립 니다</w>
▁목 적으로</w>
▁있 게</w>
▁교 통
▁구 조
▁중심 으로</w>
▁도 입
억 원</w>
자 에게</w>
▁온 온</w>
시 장</w>
▁수 행
있 는</w>
장 으로</w>
▁위 치
▁지난 달</w>
▁정 확
▁방 식
에 선</w>
▁계 속</w>
▁2 1</w>
▁행 복
) ’</w>
▁기 다
밖 에</w>
▁문재 인</w>
▁해 야</w>
▁공 급
▁올 해
대 한</w>
▁기 능
▁오 늘
이 지만</w>
▁알 고</w>
▁가능 한</w>
소 가</w>
▁제 주
량 을</w>
▁받 았
▁전 달
▁비 판
린 다</w>
▁강조 했다</w>
▁연 락
▁근 로
▁불 가
▁음 식
▁작 성
▁앞 으로</w>
정 책
이 기</w>
▁않 아</w>
▁되 고</w>
물 이</w>
▁문 문</w>
▁회 의
안 이</w>
부 에</w>
이 를</w>
▁이러 한</w>
▁만들 어
▁올 올</w>
▁해당 하는</w>
▁위 험
▁이 렇게</w>
사 업</w>
건 을</w>
지 역</w>
▁마 지
▁사 업</w>
▁왜 왜</w>
▁검 토
▁브 랜
▁수 요
▁분 위
하 던</w>
구 를</w>
▁것 이라는</w>
무 를</w>
▁자 연
▁않 았다</w>
금 이</w>
▁음 악
과 를</w>
민 주
제 는</w>
▁추 가</w>
▁효 율
▁수 출
주 세요</w>
▁역할 을</w>
지 면서</w>
르 게</w>
▁어 디
지 방
▁기 업</w>
▁기 획
▁관심 을</w>
관 을</w>
의 회</w>
▁데 이
▁그 렇
▁제 시
▁사 례
▁2 3</w>
년 부터</w>
체 를</w>
인 들이</w>
▁사업 을</w>
▁공 정
▁두 고</w>
차 를</w>
습 니까</w>
▁않 을</w>
▁2 2</w>
▁알려 졌다</w>
▁있 기</w>
원 들이</w>
▁나 라
▁인 사
구청 장</w>
▁가 까
도 는</w>
안 전
▁2 7</w>
▁우 수
▁이 동
▁적 극
년 간</w>
관 의</w>
▁날 날</w>
국 이</w>
수 의</w>
서 비
개 발
▁목 표
▁우리 나
▁상 당
▁처 음</w>
▁의 료
에게 는</w>
▁경 영
분 의</w>
개 월</w>
년 에</w>
▁점 을</w>
단 체</w>
▁어려 운</w>
▁상 품
▁민 간
▁나 왔다</w>
▁대 하여</w>
▁자 리
▁모습 을</w>
율 이</w>
▁중요 한</w>
▁작 품
3 0</w>
▁201 8</w>
트 가</w>
주 의</w>
▁남 북
장 에게</w>
▁변 경
이 스
▁제 대로</w>
▁선 보
▁전 체</w>
없 이</w>
▁도 내</w>
▁국 회</w>
▁매 년</w>
▁네 가</w>
감 이</w>
조 의</w>
▁별 지</w>
▁더 불
▁전문 가
증 을</w>
▁위 촉
▁정 도</w>
▁언 론
경 제
사 에서</w>
▁공 유
▁일 을</w>
▁협 력
위 에</w>
▁법 법</w>
▁같 다</w>
원 과</w>
▁올 라
▁비 핵
▁중 앙
▁베 트
▁2 8</w>
차 가</w>
리 스
▁소 방
▁부 모
두 고</w>
▁현 실
자 치
겠 다고</w>
▁도 착
▁건 설
▁본 본</w>
▁201 6</w>
세 먼
▁미 래
▁온 라
▁받 는</w>
▁기 본
▁얼마 나</w>
▁해 외
▁됩 니다</w>
와 의</w>
려 고</w>
▁무 역
▁2 6</w>
랍 니다</w>
만 원</w>
▁전 해
▁정 도로</w>
성 과</w>
적 이</w>
▁최 저
▁위 탁
▁배 우</w>
▁수 사
▁들 어</w>
▁거 예요</w>
▁이 내
▁선 거
지 지</w>
▁갖 고</w>
▁수 가</w>
▁업 체
이 지</w>
▁아 무
▁여 행
▁저 희
▁지 나
식 에</w>
▁목 소
▁합 의
▁가 는</w>
운 영
▁구 축
▁거 쳐</w>
▁감 소
섰 다</w>
더 라도</w>
▁책 임
▁기 념
1 0</w>
화 에</w>
상 에</w>
▁문제 를</w>
▁바 랍니다</w>
정 에</w>
어 난</w>
▁전 통
▁이 곳
▁전 국
으 니</w>
▁대한 민
▁제 안
▁청 년
▁부 탁
▁부 동
▁자유 한국
광 역
▁계 약
항 의</w>
▁충 분
▁대통령 은</w>
▁번 번</w>
▁것 이라고</w>
냈 다</w>
▁누 구
▁연 결
세 가</w>
으로 써</w>
▁없 었
드 리
겠 어요</w>
개 의</w>
하 고자</w>
▁우 선</w>
▁시간 을</w>
적 을</w>
▁상황 에서</w>
하 는데</w>
▁추 천
▁대 응
명 한</w>
▁말 씀
아 서</w>
▁표 현
사 로</w>
▁가 지</w>
▁내 려
▁이상 의</w>
▁바 이
▁대 표</w>
위 에서</w>
별 로</w>
▁안 정
▁알 알</w>
▁있 던</w>
라 이
보 고</w>
▁같 아</w>
받 은</w>
▁거 야</w>
교 통
도 에</w>
▁새 새</w>
▁보 유
상 의</w>
스 의</w>
▁가 진</w>
▁구 체
▁자신 이</w>
▁청와 대</w>
▁의견 을</w>
▁관련 해</w>
▁계 속
▁어린 이
% )</w>
은 행
▁같 아요</w>
스 타
롭 게</w>
고 를</w>
▁영 화</w>
기 의</w>
▁현 재
▁정부 의</w>
은 데</w>
▁소 속</w>
바 이
▁필요 가</w>
단 을</w>
▁기 자
르 고</w>
▁비 해</w>
▁내용 을</w>
▁조 금</w>
▁이 제</w>
▁홍 보
▁가 져
▁세 세</w>
▁논 의
수 록</w>
▁콘 텐
▁근 무
▁하 면</w>
분 을</w>
▁지원 을</w>
▁사실 을</w>
▁등 록
▁대 해서는</w>
▁있 어서</w>
▁없 어</w>
▁삼성 전
치 고</w>
여 명이</w>
▁교 육</w>
공 무
▁그 럼</w>
▁여 기
터 를</w>
▁시 간</w>
▁아 름
▁거 거</w>
구 의</w>
▁결과 를</w>
생 활
현 지
▁받 아</w>
▁혹 시</w>
▁정 신
▁내 년</w>
▁관 리</w>
▁방 침
▁국 토
로 를</w>
▁전망 이다</w>
▁만 나
▁케 이
▁경기도 는</w>
▁필요 하다고</w>
▁해 외</w>
▁파 악
▁2 9</w>
▁인 도
▁갈 갈</w>
▁받 았다</w>
▁입 장
▁제 한
▁쉽 게</w>
▁진 출
▁없 습니다</w>
정 한</w>
▁설 치</w>
스 러
서 에</w>
▁종 합
▁많 다</w>
전 이</w>
▁못 한</w>
▁바 람
로 서</w>
▁비 교
▁한 다고</w>
▁출 연
▁학 교</w>
부 와</w>
▁혁 신
▁강 원
호 서
업 이</w>
▁3 1</w>
▁에 너
비 가</w>
머 니
▁주 세요</w>
▁불 편
▁조 직
▁운 영</w>
▁최 초
는 데
▁비롯 해</w>
▁운 동
▁도 는</w>
▁설 립
상 은</w>
통 신
▁자 료
▁201 7</w>
▁대 중
▁미 세먼
성 에</w>
▁정보 를</w>
▁개 정
▁체 험
▁안 에</w>
책 을</w>
리 의</w>
▁6 0</w>
▁활동 을</w>
격 을</w>
▁상 대
▁만 든</w>
▁하 락
▁본 격
위 는</w>
기 간
▁심 의
’ (</w>
▁시 스템
했 으며</w>
▁시 험
인 과</w>
▁규정 에</w>
▁번 째</w>
▁주 택
▁희 망
▁유 치
어 도</w>
▁프로 젝
▁201 5</w>
▁제품 을</w>
했 을</w>
일 이</w>
▁소 속
▁대통령 의</w>
▁대 비</w>
▁노 래
▁걸 걸</w>
▁방 향
른 다</w>
하 겠다</w>
▁보 험
▁여 성</w>
▁보도 했다</w>
▁단 체
▁현 지</w>
으로 부터</w>
스 트</w>
들 에</w>
류 를</w>
▁적 이</w>
▁항 공
사 회
되 며</w>
▁발생 한</w>
▁예 술
주 택
▁언 급
자 에</w>
▁수 입
▁경 제</w>
실 을</w>
드 가</w>
경 찰
▁적 극</w>
▁수 익
▁조 사</w>
▁주 변
▁도 움이</w>
▁문 화</w>
자 들은</w>
▁채 채</w>
노 동
▁혐 의로</w>
▁시 청
▁중소 기업
▁19 9
▁변 호
▁하 는데</w>
▁앞 두고</w>
▁것 에</w>
▁거 의</w>
▁미국 의</w>
▁작 은</w>
▁향 후</w>
▁형 태
▁내 일</w>
▁주 관
▁움 직
진 이</w>
기 와</w>
▁모습 이</w>
▁그녀 는</w>
스 럽
학 생
▁모 두
이라 며</w>
▁논란 이</w>
▁기 억
▁위 해서는</w>
▁중 에서</w>
▁전 략
규 모</w>
하 자</w>
단 의</w>
▁힘 들
▁항 상</w>
▁운 전
▁강 남
업 체
▁나 의</w>
보 는</w>
▁여 전히</w>
월 부터</w>
구 하고</w>
▁사 망
▁이유 로</w>
▁말 말</w>
▁사 유
▁기 간</w>
▁구청 장이</w>
리 아</w>
산 을</w>
이 자</w>
▁협 의
▁최저 임
▁동 시에</w>
금 의</w>
▁존 재
▁시 장
▁경우 가</w>
▁점 검
하 기도</w>
▁명 이</w>
간 의</w>
률 이</w>
▁제 조
▁모 델
▁언 제
▁기 여
▁이루 어
▁건 축
▁달 리</w>
▁서비 스를</w>
▁서비 스</w>
▁사회 적</w>
했 는데</w>
시 를</w>
▁실 제로</w>
으로 도</w>
건 이</w>
▁청소 년
▁이 사
▁화 장
▁지 도
▁수 도
인 으로</w>
▁마 을
▁사 람</w>
▁모 르
물 의</w>
▁통 한</w>
▁의 원이</w>
▁한 반
▁기 관
지 와</w>
▁최 종</w>
▁이 후
▁원 내
▁가능 하다</w>
진 을</w>
▁보 조
하 세요</w>
▁괜 찮
님 이</w>
▁대통 령</w>
▁확 정
▁말 을</w>
화 와</w>
▁살 아
현지 시간</w>
▁예산 의</w>
▁되 어</w>
▁프 랑
▁비롯 한</w>
고 는</w>
▁참석 한</w>
▁특 징
어 가</w>
▁의 원은</w>
터 는</w>
▁위원 장은</w>
대 는</w>
▁지 하
▁등 장
▁지원 할</w>
▁사람 은</w>
진 흥
▁수 상
널 드</w>
▁궁 금
드 립니다</w>
▁이것 은</w>
청 은</w>
▁줄 어
▁싶 습니다</w>
▁서 로</w>
▁그래 서</w>
▁드라 마
▁일자 리</w>
심 을</w>
▁보 다</w>
▁소 득
민 이</w>
거 래
▁사 고</w>
▁기 반
▁거 주
행 정
어 민주
▁인 한</w>
▁과 거</w>
▁필요 하다</w>
▁되 었
▁발 언
▁특별 한</w>
▁완 료
▁평 균</w>
▁예 방
겼 다</w>
한 테</w>
▁보 는</w>
▁영 업
안 에</w>
▁원 하는</w>
▁과 학
▁소 송
▁구 속
▁사진 을</w>
▁게 임
관 리</w>
▁않 다</w>
▁반 응
단 은</w>
▁취 업
가 고</w>
▁정상 회담
▁접 수
▁이 들이</w>
문 이</w>
됩 니다</w>
▁체 결
동 이</w>
▁하 루</w>
▁취 소
시 고</w>
▁의 한</w>
▁도 로
▁없 다는</w>
▁넘 어
▁나 섰다</w>
▁도 널드</w>
▁때 는</w>
▁주 는</w>
▁이유 는</w>
▁통 신
리 와</w>
▁국 방
▁장 기
장 애
▁남 북</w>
▁열 리는</w>
보 다는</w>
▁기업 이</w>
▁해 서</w>
▁지적 했다</w>
▁상 담
▁전 환
항 을</w>
▁금 액
면 서도</w>
민 의</w>
▁범 위에서</w>
▁해 도</w>
▁비 슷
▁벌 어
▁그 렇게</w>
리 아
▁은 행
▁만들 어</w>
▁넘 는</w>
상 으로</w>
▁매 출
▁공 부
▁차 량
▁약 속
▁주 로</w>
▁이 미
길 을</w>
▁20 0</w>
▁돼 돼</w>
서 가</w>
▁조 선
▁제 품</w>
▁주 차
▁부 산</w>
리 지</w>
재 를</w>
▁내 놓
▁치 료
▁수 밖에</w>
식 의</w>
▁타 고</w>
▁우려 가</w>
스 크
▁우리 의</w>
▁위원 장이</w>
서 울
개 월
계 의</w>
▁결 국</w>
% ,</w>
▁더불 어민주
▁맞 아</w>
관 광
▁기 준</w>
▁7 0</w>
구 는</w>
▁여 러
만 큼</w>
▁독 립
▁대 신</w>
년 을</w>
▁유 럽
▁문 제</w>
오 는</w>
▁호 텔
▁중 에</w>
그 룹</w>
▁같 습니다</w>
▁펼 쳐
▁창 업
▁입 장을</w>
▁전 자
▁조례 는</w>
▁마 이
▁내용 이</w>
▁학생 들이</w>
전 문
계 획</w>
▁통 합
▁수 립
▁관련 된</w>
▁있 는지</w>
재 가</w>
▁아름 다
셔 서</w>
자 인</w>
구 에</w>
▁경 찰</w>
▁전 화
▁이 끌
▁관 람
▁돈 을</w>
▁빨 리</w>
이 야</w>
▁집 에</w>
체 육
▁촬 영
▁덧 붙
▁따 로</w>
국 은</w>
었 던</w>
▁스 스로</w>
▁주장 했다</w>
거 운</w>
쳤 다</w>
▁김 정은</w>
▁죄 송
만 의</w>
▁토 론
정 부</w>
선 이</w>
문 에</w>
▁알 아
▁가 입
▁않 도록</w>
▁메 시
금 은</w>
▁마 무
▁이야 기
▁자 주</w>
▁나 서
에서 의</w>
씨 의</w>
▁불 구하고</w>
▁경찰 이</w>
▁통 과
▁처음 으로</w>
예 술
▁마지 막</w>
▁러 시아</w>
▁이번 에</w>
▁결 혼
▁관 객
고 가</w>
▁전 기
▁함 께
▁바 라
역 을</w>
투 자
트 는</w>
▁없 을</w>
▁점 에서</w>
케 이
주 가</w>
▁공 격
▁기 존
명 으로</w>
하 겠습니다</w>
소 에</w>
만 이</w>
데 이
내 는</w>
▁너 는</w>
▁않 습니다</w>
▁따 라
▁스 트
▁보 건
▁201 4</w>
해 도</w>
▁지 지
▁방 안을</w>
▁나 온</w>
▁의 원
▁하나 에</w>
주 시
가 지</w>
▁갈 등
▁예 약
▁이 재
▁느 끼
▁그 림
▁긍 정
▁아 버
▁아 니다</w>
▁현 지
▁비 중
1 9</w>
▁원 원</w>
▁못 하고</w>
▁좋아 하는</w>
▁포함 한</w>
▁아 주</w>
가 의</w>
▁효과 가</w>
▁미 리</w>
▁기 회를</w>
▁평 화
▁지역 의</w>
▁대표 가</w>
리 로</w>
▁되 면</w>
▁온라 인</w>
스 에</w>
▁확 산
관 에서</w>
등 학교</w>
▁스 포
▁의 해</w>
일 로</w>
년 이</w>
▁롯 데
인 가요</w>
개 를</w>
▁복 지
▁둘 러
▁접 근
▁늘 어
프 로
▁블 록
▁그 들은</w>
해 보
▁중 이다</w>
▁대 출
▁한국 에</w>
회 담</w>
대 표</w>
▁자유한국 당</w>
▁추 정
▁이 벤
▁그것 은</w>
▁투 입
▁자동 차</w>
사 들이</w>
권 이</w>
금 융
▁심 각
산 업</w>
▁한 번</w>
▁지 켜
▁외 교
o p</w>
▁이 들</w>
▁선 발
▁사실 이</w>
▁사 는</w>
▁있 으면</w>
▁과 거
므 로</w>
▁상황 을</w>
성 은</w>
석 이</w>
▁반 도
용 을</w>
▁시 장은</w>
▁선 생
▁배 경
▁소 통
정 상
▁밖 에</w>
교 육</w>
고 도</w>
▁이야 기를</w>
▁위 반
▁사 진</w>
▁전 반
▁재 미
계 에</w>
▁바 탕
도 시
랐 다</w>
▁등 은</w>
대 상
▁상 대로</w>
▁조 정
▁공 식</w>
과 는</w>
사 이
▁어 제</w>
▁대부 분</w>
▁홈 페이
▁대 형</w>
▁정 도
▁얘 기
▁도 와
▁덧붙 였다</w>
화 된</w>
트 에</w>
▁주 도
소 득
중 앙
▁반 대
▁인터 넷
함 으로써</w>
▁발표 한</w>
▁201 9</w>
▁회 사</w>
1 2</w>
류 가</w>
▁사 건</w>
▁현 장
▁인 근</w>
호 를</w>
▁규 칙
갔 다</w>
▁예상 된다</w>
적 이고</w>
▁아파 트</w>
▁만 드는</w>
T V</w>
▁직 원
▁정부 는</w>
▁얼 굴
▁라 이
▁비핵 화</w>
▁것 과</w>
▁업무 를</w>
▁있 으
▁부 정
▁없 었다</w>
▁진 행</w>
▁있었 던</w>
▁플 랫
▁중 단
였 던</w>
과 학
위 로</w>
▁싶 은</w>
’ ,</w>
▁판 결
▁최 고</w>
당 의</w>
▁싶 어요</w>
이 면</w>
▁대표 는</w>
▁고 양
▁배 출
▁출 석
▁조 치를</w>
으로 서</w>
▁감독 이</w>
공 사</w>
▁하 기</w>
리 그</w>
▁부동 산</w>
▁점 이</w>
▁만 족
실 에서</w>
▁수 탁
▁사 라
조 사</w>
스 와</w>
경 기
심 히</w>
▁역 사
▁부 과
▁신 규</w>
▁일 반</w>
1 8</w>
▁사 실</w>
▁대 체
▁힘 을</w>
▁프 리
은 행</w>
▁입 주
▁보 니</w>
냐 는</w>
▁불가 능
▁낮 은</w>
1 3</w>
▁전 체
법 을</w>
▁작 업
▁국 회의
에 만</w>
국 제
▁통 보
▁위치 한</w>
▁장 면
▁고 민
▁높 다</w>
반 기</w>
▁비 행
▁베트 남</w>
히 려</w>
▁외국 인</w>
▁늘 어나
▁전 문</w>
▁운영 에</w>
▁않 는다</w>
기관 의</w>
미 래
당 은</w>
▁한국 에서</w>
지 원</w>
려 면</w>
▁인터 넷</w>
▁꾸 준
▁위원 은</w>
▁곳 이</w>
▁운영 하는</w>
▁당 연
2 5</w>
B S</w>
▁이 전
사 무
▁개 발</w>
▁출 시
▁문제 는</w>
N S</w>
격 이</w>
▁비 상
▁끝 나
▁콘텐 츠
▁것 이에요</w>
▁하 루
▁되 지</w>
▁경찰 에</w>
▁명 의</w>
▁국 가</w>
겠 지만</w>
▁대 학</w>
환 경</w>
▁자 녀
운 동
▁당신 에게</w>
▁사실 상</w>
▁했 습니다</w>
▁유 통
년 도</w>
▁사항 은</w>
상 공
▁새 로</w>
▁인 기를</w>
형 을</w>
▁그 대로</w>
▁강 력
▁자 치
▁오 히려</w>
월 에</w>
어 로</w>
하려 는</w>
▁최 근
가 포
▁사람 을</w>
▁정확 한</w>
▁만 나</w>
▁소 유
분 에</w>
▁조 치
기 준
▁신 뢰
과 가</w>
스 템</w>
소 년
발 전
▁지 자
▁대 해
▁상황 이</w>
▁방침 이다</w>
자 동
▁불 법
▁시 즌</w>
▁개 인</w>
리 기</w>
되 기</w>
▁그 룹</w>
▁원내 대표
▁보 이는</w>
▁규모 의</w>
▁가 정
▁가 수</w>
▁가격 이</w>
▁크 다</w>
▁공 동</w>
▁5 00</w>
청 이</w>
▁참여 하는</w>
▁강 한</w>
▁하 여야</w>
▁나 도</w>
점 에서</w>
▁여 름
▁검찰 은</w>
4 0</w>
그 룹
▁아 시
▁의 원</w>
▁사용 할</w>
로 가</w>
▁보 이
▁도 서
▁지난 해
려 는</w>
▁놓 고</w>
▁나 누
하 겠다는</w>
터 가</w>
▁브 라
▁나 와</w>
8 0</w>
▁중국 의</w>
▁공 모
B C</w>
▁건 가요</w>
해 를</w>
▁나 가
▁받아 들
▁전 혀</w>
▁재 정
▁잘 못
▁주 최
만 을</w>
▁최초 로</w>
▁위원 회의</w>
▁아 래
▁정 책</w>
▁여 론
▁맞 는</w>
▁다 가
▁북한 이</w>
▁혜 택
▁대 구
년 까지</w>
회 와</w>
▁청 구
▁심 사
▁바 란
기 간</w>
▁걱 정
중 에</w>
▁자 료를</w>
▁201 3</w>
리 한</w>
당 한</w>
▁피해 를</w>
일 은</w>
▁안 내
▁채 용
▁아 동
인 들의</w>
▁피 해</w>
까 지는</w>
1 1</w>
▁실 무
▁기 초
었 어요</w>
관 과</w>
▁핵 심
▁차 량</w>
지 사</w>
우 는</w>
▁여 기</w>
▁수 사</w>
▁수 수
▁시 도
목 을</w>
▁열 심히</w>
트 워
▁성 폭
▁여 부를</w>
▁마음 을</w>
▁나 아
▁대 변
▁당 신</w>
▁정 하는</w>
▁확 인</w>
▁기 회가</w>
▁우 승
▁회 복
한 다면</w>
드 시</w>
▁했 어요</w>
▁T V</w>
▁국 립
▁중 구</w>
께 서</w>
▁없 다고</w>
활 동
료 로</w>
▁여 기에</w>
▁싱 가포
▁바탕 으로</w>
▁찾 는</w>
▁3 00</w>
▁후 에</w>
▁8 0</w>
▁있을 까요</w>
▁빠 르게</w>
▁신 용
▁사용 하는</w>
주 고</w>
▁창 출
▁블록 체
▁미국 이</w>
명 과</w>
▁반 드시</w>
하 여
상 과</w>
대 에서</w>
▁주 제로</w>
제 의</w>
▁적극 적으로</w>
선 거
▁아 시아
▁도 움을</w>
평 가
▁대 규모</w>
▁나 에게</w>
▁이 와</w>
▁휴 대
▁겁 니다</w>
부 한</w>
▁받 지</w>
테 이
▁사 용</w>
인 에</w>
▁콘 서
▁않 는
▁자 율
▁쏟 아
▁것 처럼</w>
았 던</w>
▁더불어민주 당</w>
해주 세요</w>
▁이 들은</w>
▁시 장이</w>
주 의
▁완 성
도 와</w>
▁바 뀌
▁근 거
▁측 은</w>
▁지속 적으로</w>
▁한 류</w>
▁학 생</w>
▁변 화
▁담 긴</w>
보 호
▁최고 의</w>
▁임 대
▁배 송
▁방식 으로</w>
▁국무 위원
같 이</w>
▁요 즘</w>
▁스 페
▁독 일</w>
▁자 리를</w>
제 에</w>
요 일</w>
▁프로그램 을</w>
▁인도 네
▁이 하
질 이</w>
보 험
▁월 드
스러 운</w>
▁러 시아
▁관광 객
▁못 하는</w>
▁마 케
▁나오 는</w>
▁원 칙
▁현 장</w>
▁불 법</w>
▁달 라
당 을</w>
광역 시</w>
▁경험 이</w>
6 0</w>
▁자 원
조 를</w>
대 학교</w>
▁되 었다</w>
업 체</w>
▁기 술</w>
들 로</w>
프 라
문 화</w>
▁관 측
▁눈 에</w>
됐 다고</w>
▁하 나</w>
▁인터 뷰
▁살 펴
2 1</w>
▁교 수
▁앞 에서</w>
▁국 정
▁범 죄
조 사
력 과</w>
▁수 는</w>
받 고</w>
관 에</w>
▁학 부
▁학 습
경 을</w>
▁의 결
▁모 여</w>
▁엄 마
▁나 를</w>
님 의</w>
▁투 자</w>
기 술</w>
▁조 사를</w>
▁부 위원
▁보 였다</w>
▁있 다면</w>
기 에는</w>
▁출 발
▁그러 나</w>
2 2</w>
내 고</w>
있 다</w>
▁않 으면</w>
표 를</w>
도 시</w>
▁디 지
▁확 실
▁젊 은</w>
▁일 으
▁장 소
▁저 희</w>
▁오늘 은</w>
▁매 일</w>
관 계
▁겨 울
▁제출 하여야</w>
▁바란 다</w>
▁교육 을</w>
팀 이</w>
호 가</w>
시 의</w>
▁통 일
▁업 무</w>
감 독
군 이</w>
▁우리나 라
씨 를</w>
실 이</w>
▁당신 을</w>
위원 회의</w>
▁저 저</w>
▁아 직
▁쉽 지</w>
▁북한 의</w>
▁사 법
1 5</w>
▁유 일
달 러
▁이상 이</w>
▁가 서</w>
▁201 2</w>
▁속 속</w>
▁사람 의</w>
▁대 비
▁검 찰</w>
랜 드</w>
▁주 변</w>
▁무 슨</w>
경 제</w>
▁사람 들은</w>
▁기업 의</w>
5 00</w>
▁선 고
▁회 계
▁컴 퓨
▁싶 어</w>
함 에</w>
▁영 어</w>
▁초 초</w>
▁그 룹
율 을</w>
▁우 선
▁만 약</w>
보 가</w>
▁보 장
▁법 률</w>
▁관 계</w>
▁일 어
방 을</w>
했 으나</w>
증 이</w>
▁형 성
주 택</w>
점 으로</w>
▁캐 나
▁셈 이다</w>
점 에</w>
기 고</w>
▁없 어요</w>
▁언 제</w>
류 의</w>
▁핵 심</w>
▁연 간</w>
산 이</w>
▁찾 아</w>
▁브랜 드</w>
▁그 냥</w>
▁사고 가</w>
▁눈 길을</w>
개 발</w>
▁페 이스
공 동
▁출 신
▁반 발
▁해 석
▁공무 원</w>
▁제 일</w>
협 의
신 청
수 로</w>
▁공 연</w>
자 기</w>
▁카 메
담 당
계획 을</w>
▁대한민 국</w>
▁추가 로</w>
▁불 안
▁바 른
▁폐 기
▁생각 이</w>
▁빠 른</w>
▁결과 가</w>
▁주 인
으 면서</w>
▁훈 련
적 이다</w>
위 원</w>
▁전해 졌다</w>
▁모 바
지 면</w>
단 에</w>
▁최 소
▁비 가</w>
이 어서</w>
명 에</w>
대 와</w>
▁음 식을</w>
▁곳 곳
▁건 물
호 의</w>
았 습니다</w>
▁타 이
▁편 의
▁지원 하는</w>
▁대통령 과</w>
▁동 물
▁잇 따
트 의</w>
▁활 발
▁여 자
하 되</w>
지 에서</w>
세 대</w>
▁어려 움을</w>
대 회</w>
학 과</w>
▁영 국</w>
▁모 양
료 가</w>
받 는</w>
▁자 체
▁곧 곧</w>
▁다 니
▁프로그 램</w>
▁차 이가</w>
▁교 수는</w>
황 을</w>
▁아 침
▁신 속
▁속 에서</w>
▁아이 디
▁미세먼 지</w>
▁답 변
션 을</w>
▁지금 까지</w>
▁아 프
▁대 상</w>
▁느 낌
지 게</w>
▁단 순
▁S NS</w>
하려 고</w>
하 신</w>
▁참여 한</w>
▁이름 을</w>
▁기준 으로</w>
▁없 고</w>
▁본 다</w>
행 이</w>
▁내 부
시키 는</w>
▁이내 에</w>
▁성 과를</w>
▁측 면
▁때 까지</w>
▁제공 하는</w>
로 의</w>
견 을</w>
사업 을</w>
▁대 책
▁충분 히</w>
▁증 거
웠 다</w>
▁단 계
▁회 장이</w>
▁연 기
▁인 상
▁훨 씬</w>
용 이</w>
▁왔 다</w>
▁위 해
▁의미 가</w>
▁정 의
었 고</w>
▁조 금
▁너 의</w>
▁과 정을</w>
액 이</w>
신 을</w>
▁인 식
▁등 에서</w>
라 며</w>
▁열 고</w>
▁혐 의를</w>
▁지금 은</w>
▁즐 길</w>
▁인 공
▁밝 힌</w>
▁기자 회
▁지역 에</w>
▁대 해서</w>
▁행 사</w>
협 회</w>
생 을</w>
상 에서</w>
건 의</w>
▁주 거
▁마무 리
▁행 사를</w>
▁문 을</w>
▁계획 을</w>
▁했 지만</w>
▁앞 에</w>
▁사이 에</w>
▁반도 체</w>
▁모 집
▁해 소
▁있 지</w>
▁기술 을</w>
▁못 했다</w>
술 을</w>
일 에는</w>
뿐 만</w>
▁농 업
준 다</w>
▁게 시
▁다 르
▁캐 릭
▁먹 고</w>
드 로</w>
▁지적 이</w>
▁의 하여</w>
호 에</w>
병 원</w>
▁정책 을</w>
▁자 세
사 인</w>
▁최저임 금</w>
▁하 다</w>
▁멤 버
실 에</w>
대 책
▁주 말
▁밝 혀
드 의</w>
이었 던</w>
분 기</w>
리 며</w>
▁보 이고</w>
▁낸 낸</w>
명 은</w>
▁안 에서</w>
▁다 소</w>
▁출 신</w>
▁그 런
억 원을</w>
▁끝 난</w>
▁김 영
▁멕 시
절 한</w>
▁발 굴
▁확 대</w>
▁평가 를</w>
▁주 시
▁L G</w>
전 에서</w>
▁검찰 이</w>
자 들을</w>
▁위 해서</w>
다 른</w>
▁연 계
지 사가</w>
서비 스</w>
이라 도</w>
▁정 기
▁베 이
유 치
▁일 어나
▁사 회</w>
▁나 왔
안 은</w>
▁그것 을</w>
권 의</w>
▁가 격</w>
▁지 키
정 으로</w>
마 을
▁아름다 운</w>
만 원을</w>
▁시작 한</w>
함 이</w>
년 에는</w>
▁한반 도</w>
성 의</w>
▁행 동
▁위 에</w>
▁때 마다</w>
▁의 무
▁S K</w>
주 를</w>
▁최 대한</w>
▁인 기가</w>
▁이 탈
▁연 장
스 토
▁제 도
▁연 연</w>
▁따 뜻
▁행 사가</w>
▁생각 합니다</w>
▁생 태
201 8</w>
▁기 재
▁감 안
▁체 육
▁저 녁</w>
인 에게</w>
▁취 약
▁가 족</w>
재 로</w>
익 을</w>
라 면</w>
▁차 별
▁추 진</w>
▁밤 밤</w>
하 시
▁특 정</w>
▁의 심
▁속 에</w>
질 을</w>
많 은</w>
하 우
▁집 행
▁응 답
전 한</w>
▁경 남
협 력
▁했 던</w>
7 0</w>
뮤 니
▁시 각
▁분 야</w>
하 겠다고</w>
▁그 들의</w>
▁게 임</w>
▁첨 부
▁시작 했다</w>
▁선 언
▁참석 했다</w>
▁북 미
히 는</w>
▁연 속</w>
▁나 서</w>
위원 회가</w>
▁주 민</w>
▁장 은</w>
▁정 리
▁내 에</w>
▁가까 운</w>
스럽 게</w>
군 요</w>
▁들 고</w>
해 온</w>
조 가</w>
▁전문 가</w>
▁있었 습니다</w>
▁원 활
▁판 매</w>
▁동 일
▁나 머
▁규정 함을</w>
▁재 난
▁뛰 어
▁단 체</w>
▁비슷 한</w>
▁드라 마</w>
개 가</w>
▁꾸준 히</w>
가 족
▁장 관이</w>
▁갖 추
수 수
▁바 꾸
▁책 을</w>
▁암 호
▁효과 를</w>
▁뿐 뿐</w>
▁모두 가</w>
▁기대 하고</w>
보 면</w>
▁위 원</w>
▁아 마
▁규 제
가 에</w>
▁사건 을</w>
▁이용 할</w>
▁세 종
▁달 러
연 합
면 에</w>
됐 고</w>
▁상황 이다</w>
이 기도</w>
식 과</w>
목 이</w>
▁나 선</w>
점 은</w>
▁최 선을</w>
▁기대 된다</w>
▁법 무
i n
종 합
▁단 단</w>
아 야</w>
화 로</w>
▁진행 된</w>
▁때문 입니다</w>
▁반 복
▁부 여
▁배 치
▁자동 차
▁유 명한</w>
▁가 르
위원 회는</w>
성 도</w>
률 을</w>
같 은</w>
시 켰
▁확인 할</w>
▁실 질
▁바른 미래
정 의</w>
거 리</w>
▁사업 에</w>
▁기 관</w>
▁금 지
제 도</w>
부 서의</w>
시 부터</w>
▁규모 가</w>
즈 니
시 와</w>
활 동을</w>
▁집 집</w>
▁이 행
보 를</w>
▁이 들의</w>
▁동 영
▁초 과
▁이용 해</w>
▁아 시아</w>
▁느 껴
음 이</w>
▁중 간
▁인 간
▁아 래</w>
▁시 설</w>
학 을</w>
▁즉 시</w>
▁일 부를</w>
▁회 담
▁의혹 을</w>
스 에서</w>
▁많 아</w>
어 진</w>
▁그 곳
계 는</w>
▁실 패
▁그 들이</w>
지 자</w>
▁허 용
▁씨 가</w>
▁있 습니까</w>
▁많 았다</w>
식 으로</w>
▁임 시
▁수요 가</w>
▁사업 이</w>
이 번</w>
▁하 겠습니다</w>
이 의</w>
▁번 째
▁등 과</w>
▁9 0</w>
▁자 체가</w>
▁선 물
▁구청 장에게</w>
문 은</w>
안 의</w>
▁갑 자기</w>
액 을</w>
소 는</w>
▁분 명
▁마음 이</w>
▁쇼 핑
▁나오 고</w>
▁사 태
▁선 호
봉 사
▁축 구
릴 게요</w>
▁카 카
▁가 고</w>
▁방문 해</w>
▁맞 춰</w>
▁1 0
▁명 예
▁길 을</w>
▁미국 과</w>
했 기</w>
임 이</w>
미 가</w>
▁삶 의</w>
달 러</w>
▁특 수
▁무엇 보다</w>
화 의</w>
▁아시 안
▁사건 이</w>
▁발 생</w>
해 진</w>
부 했다</w>
▁임 명
▁수 사를</w>
▁산 업</w>
▁기 상
▁국 제</w>
▁하 면서</w>
▁자 전
▁유 럽</w>
▁상대 적으로</w>
▁따 른다</w>
우 고</w>
었 는데</w>
▁스마트 폰</w>
▁광 고
▁소 요
사 한</w>
베 이
▁드 리
처 리
▁부 회
처 가</w>
연 을</w>
생 이</w>
▁손 을</w>
▁처음 이다</w>
▁위 협
부 터는</w>
비 는</w>
▁흐 름
▁분 양
▁목소 리가</w>
▁적 발
▁센 터
1 6</w>
▁참석 해</w>
▁다 이
학 생</w>
의 료
▁중국 이</w>
▁혼 자</w>
▁관 하여</w>
▁저 렴
▁우리나 라</w>
▁군 사
▁말 이</w>
▁말 고</w>
▁인 천</w>
▁예 측
▁서비 스
▁뉴 욕
▁공연 을</w>
겠 어</w>
▁마지 막
지 며</w>
▁촉 구
▁주 고</w>
1 4</w>
▁작 용
▁미 안
항 공
▁어 머니
▁내 에서</w>
군 의</w>
조 사를</w>
▁시 장에</w>
▁수 원
▁수 출</w>
크 를</w>
▁설명 이다</w>
▁전 날</w>
시 행
▁실 현
▁식 품
▁남 자
▁구체 적인</w>
▁수 업
▁블록체 인</w>
▁발생 하는</w>
▁않 아요</w>
▁수 용
▁새 롭게</w>
▁커 지고</w>
식 품
위 의</w>
▁커 뮤니
▁암호 화
▁차 례</w>
▁직 원</w>
일 과</w>
이 에</w>
단 지</w>
▁듣 고</w>
▁네 트워
시 스템
▁크 리스
▁영 화를</w>
▁하 나요</w>
▁적 은</w>
▁대 기
자 들에게</w>
▁졸 업
▁베트 남
▁공개 된</w>
▁뜻 을</w>
▁남 편
▁연 구</w>
자 원
▁기능 을</w>
▁일 단</w>
▁대 전
▁메 이
▁국토 교통
요 일에</w>
▁지방 자치
▁나 올</w>
심 이</w>
스 티
▁광 역
▁건 물</w>
2 4</w>
일 의</w>
▁부분 이</w>
▁대 로</w>
▁남 은</w>
▁철 저
신 이</w>
드 에</w>
▁필 리
▁대 회</w>
▁처 벌
▁의견 이</w>
▁민주 당</w>
▁반 면</w>
▁공 감
스 터
▁부탁 드립니다</w>
▁겸 겸</w>
건 설
▁집 에서</w>
▁장애 인</w>
▁삶 을</w>
▁살 고</w>
대 문
는데 요</w>
▁자 랑
▁비용 을</w>
▁걸 쳐</w>
▁담 은</w>
면 을</w>
기 까지</w>
▁하나 의</w>
▁시작 된</w>
▁메 뉴
주 민
이라 면</w>
권 에</w>
▁피해 가</w>
▁201 0</w>
사 회</w>
▁프랑 스</w>
▁들어 가
트 로</w>
▁현 현</w>
▁코 스
▁이 달</w>
▁예 고
▁생각 한다</w>
선 다</w>
▁저 녁
▁자 기</w>
▁미 디
. ”</w>
본 부
▁불 과
데 요</w>
▁여기 서</w>
▁납 부
▁좋 다</w>
▁수 정
건 에</w>
▁표 시
▁완 전히</w>
만 에</w>
▁회 원
2 3</w>
드리 겠습니다</w>
▁활 동</w>
로 잡
▁생각 을</w>
▁부족 한</w>
시 오</w>
▁수 많은</w>
▁끌 어
▁영 상
▁상 징
시설 을</w>
▁열 린다</w>
주 로</w>
재 정
▁흔 들
▁구 입
지 기</w>
연 이</w>
▁미 술
1 7</w>
▁드러 났다</w>
▁시 절</w>
▁방 문</w>
▁정상 회담</w>
▁201 1</w>
▁여 행</w>
▁이번 이</w>
▁참여 해</w>
▁수 립</w>
쟁 이</w>
이 던</w>
았 고</w>
▁먹 는</w>
등 학교
월 까지</w>
▁우수 한</w>
▁스트 레
▁관련 한</w>
▁개 혁
▁구성 된</w>
스 코
국 에</w>
▁김 문
당 과</w>
감 은</w>
▁이 용</w>
체 의</w>
▁이유 가</w>
▁소 상공
▁사 전</w>
▁계 산
▁폭 염
▁대표 적인</w>
▁되 나요</w>
에 너
법 인</w>
▁점 점</w>
▁인 근
▁에너 지</w>
▁만 한</w>
치 지</w>
▁자 체</w>
▁에 어
▁권 한
▁20 00</w>
법 이</w>
▁자신 을</w>
▁하 게</w>
▁의 뢰
▁오 래
▁너 너</w>
대 학
▁갖 춘</w>
▁대법 원
▁주민 들이</w>
▁남 아</w>
▁그 를</w>
▁스타 트
▁말 레이
▁의 사
▁아 르
받 을</w>
▁저희 가</w>
▁알 게</w>
▁기대 한다</w>
식 은</w>
버 스</w>
▁지급 할</w>
▁설 계
▁누구 나</w>
▁계 획</w>
▁진 입
▁북 미</w>
▁목 적
▁정 한</w>
▁직 무
▁오 른
아 도</w>
▁이 메
▁운영 을</w>
▁가능 성을</w>
P op</w>
근 로
건 으로</w>
▁규 제</w>
되 었습니다</w>
▁책 임을</w>
▁유 튜
▁선 수</w>
▁발 급
▁내 부</w>
2 7</w>
었 어</w>
▁징 수
▁일 정</w>
어 는</w>
▁아 쉬
▁동 아
▁변 화가</w>
▁오 랜</w>
도 서
▁참여 할</w>
▁활성 화를</w>
▁진행 된다</w>
시 킬</w>
▁했 는데</w>
▁일 주
▁압 박
▁보 통</w>
한 데</w>
▁힘 든</w>
▁이 슈
▁적 합
트 에서</w>
▁물 어
년 대</w>
▁특징 이다</w>
▁점 이다</w>
▁포 기
▁좋 지</w>
▁보 수
▁맞 춤
▁노력 하여야</w>
차 례</w>
▁밝 히
구 역
▁필요 하다는</w>
▁지 시
▁있 어야</w>
▁나머 지</w>
었 지만</w>
▁한국 과</w>
▁지역 에서</w>
▁1 8
음 에도</w>
▁개 선</w>
▁최 종
활 동</w>
소 로</w>
▁추진 하는</w>
▁방법 을</w>
▁그러 면</w>
석 을</w>
▁민 원
▁해 양
▁스마트 폰
스 포
▁장 관은</w>
▁누 가</w>
▁폭 발
▁치 열
▁청소 년</w>
▁제외 한</w>
▁자 본
▁오 래</w>
▁달 러</w>
▁기 울
▁시 장의</w>
▁여 행을</w>
▁알려 진</w>
서울 특별시</w>
▁경기도 와</w>
향 을</w>
▁인 증
▁오 르
정 보</w>
되 자</w>
▁자 격
분 쯤</w>
▁만들 기</w>
단 과</w>
국 을</w>
▁예 산</w>
▁받아 야</w>
▁강 제
품 이</w>
처 를</w>
▁사 우
셔 야</w>
금 으로</w>
건 강
▁청 년</w>
▁사회 적
▁모바 일</w>
페이 오</w>
▁이어 질</w>
▁보 관
법 에</w>
▁안 타
▁대부 분의</w>
▁도 민
온 이</w>
▁해 주
▁될 까요</w>
졌 고</w>
▁현 장에서</w>
▁19 8
▁완 벽
경 영
▁인 수
▁이 외
▁의혹 이</w>
▁여 의
▁깊 은</w>
사 고</w>
번 에</w>
▁달 성
▁강원 도</w>
메 이
▁적극 적인</w>
▁유 명
▁선수 들이</w>
▁만 난</w>
종 의</w>
▁여 자</w>
▁도 시</w>
▁다 녀
▁강력 한</w>
론 을</w>
▁홍 콩
▁조 합
▁생 산</w>
▁사 전에</w>
▁개 편
됐 던</w>
▁학부 모
▁저 에게</w>
항 이</w>
▁활성 화
▁남 아
▁아 닌
▁불 거
▁도 전
▁교 체
레 이</w>
▁출 입
▁곳 에</w>
▁혹 은</w>
▁팀 팀</w>
▁기 소
해 가</w>
▁비중 이</w>
▁분 분</w>
▁노 원
시 장
드 라
▁대 형
▁개 막
▁향 해</w>
▁플랫 폼
▁쓴 쓴</w>
▁남 자</w>
졌 습니다</w>
▁명 확
▁거 부
▁커 피
▁종 사
▁인 기</w>
▁심 의를</w>
▁있 음을</w>
▁시 장에서</w>
▁끝 에</w>
▁김문 수</w>
쪽 으로</w>
▁연 출
▁만 만</w>
▁외 에</w>
▁공 직
▁공 사
▁일 은</w>
봤 다</w>
▁되 었습니다</w>
▁결 제
스 터</w>
▁중요 하다</w>
▁디지 털</w>
▁그녀 의</w>
▁호 텔</w>
▁정 비
▁김 성
▁고 령
기관 이</w>
▁제품 은</w>
▁이 란
▁시작 으로</w>
을 까</w>
▁부담 이</w>
▁국 민</w>
보 건
▁풀 이
▁부 총
▁긴 급
▁3 5</w>
주 에</w>
▁쓰 레
▁불 이</w>
▁동 의
▁프리 미
▁시행 령</w>
▁김 정
공 간
▁보유 한</w>
▁자 리</w>
정 책</w>
▁인 상</w>
▁아 침</w>
▁발 행
▁문 화를</w>
▁넘 어</w>
▁발생 할</w>
▁음 악</w>
▁발표 했다</w>
▁서울 시
▁간 의</w>
중 한</w>
▁직 업
▁지 배
▁아니 냐는</w>
▁사 이</w>
▁행 사는</w>
보 고
공 원</w>
▁손 흥
▁노 출
하여 는</w>
▁체 계
▁겪 고</w>
▁친구 가</w>
▁축 하
▁정 한다</w>
▁정 보</w>
▁전 부</w>
▁고 위
리 에서</w>
▁위 반</w>
▁열 렸다</w>
▁사랑 을</w>
서 다</w>
▁사 전
▁그래 도</w>
심 의
디 오</w>
▁아이 들이</w>
▁알려 져</w>
▁간 담
라 우
▁사업 은</w>
▁만들 고</w>
▁굉 장
▁광 주</w>
a n
▁한국 을</w>
디 오
▁비 밀
▁폼 페이오</w>
▁포함 된</w>
▁전 까지</w>
▁국민 연
미 를</w>
▁수도 권</w>
▁기록 했다</w>
▁어 울
▁별 표</w>
▁200 9</w>
십 시오</w>
▁글 을</w>
정 부
▁재 무
▁얼 마</w>
▁느 낄</w>
든 지</w>
고 요</w>
▁주목 된다</w>
▁상황 에</w>
▁유 명</w>
▁노 인
▁대 화
해 야
통 을</w>
▁카카 오
▁만 들</w>
에게 도</w>
▁경기 를</w>
없 는</w>
소 의</w>
▁제품 이</w>
▁자 는</w>
▁수 강
▁기 금
라 운
▁재 산
▁순 간
회 사</w>
그 램
▁그 리
▁그 려
▁검 사
▁감독 은</w>
재 단</w>
게 임</w>
▁만 날</w>
▁확인 됐다</w>
▁바 다
▁대 구</w>
혔 다</w>
▁참 고
▁레 이
▁관계 자</w>
었 다고</w>
▁예 비
▁알려 주
유 의</w>
방 이</w>
▁초 청
a r
료 는</w>
▁올해 는</w>
▁심각 한</w>
▁인 권
▁연 습
▁감사 합니다</w>
▁가 야</w>
됐 지만</w>
▁가 치를</w>
선 에</w>
▁이 하</w>
구 와</w>
▁후 원
▁성 과
▁보 여</w>
▁미 래</w>
됐 다는</w>
▁조 선</w>
▁환 경</w>
▁자 기
▁업 체</w>
▁보 낸</w>
산 물</w>
▁한 편</w>
▁다 행
사 항을</w>
▁전 세
▁작 업을</w>
▁월 월</w>
▁심 의</w>
▁불 러
▁늘 고</w>
▁문제 로</w>
비 의</w>
기 구</w>
▁위원 회</w>
▁대해 서도</w>
난 다</w>
▁카 페
▁외 부
▁경 북</w>
▁인정 하는</w>
▁분석 했다</w>
수 와</w>
▁소 재
시 켜</w>
▁저 의</w>
▁회 의</w>
령 을</w>
▁전 통</w>
▁경험 을</w>
▁시민 들이</w>
▁공 시
회 로</w>
경 이</w>
가 로</w>
▁일 상
▁연 예
▁나 갈</w>
▁고 발
역 에서</w>
소 에서</w>
▁정 규
▁영 어
▁본격 적인</w>
▁건 립
▁어렵 다</w>
e r
조 합
조 차</w>
▁이 른
▁당 사
향 이</w>
선 의</w>
▁평 양
▁모 으
▁노 력을</w>
▁나타 나
물 로</w>
▁곳 은</w>
운 용
▁기업 들이</w>
▁경제 적</w>
정 과</w>
▁당 선
▁경기 가</w>
▁교 수</w>
▁못 해</w>
▁먹 을</w>
2 8</w>
량 의</w>
가 능
▁직 후</w>
▁포 인
▁실 천
▁상 품을</w>
약 이</w>
기관 에</w>
국 에서</w>
▁디자 인</w>
▁누 군
▁불가 피
입 니까</w>
여 서</w>
▁향 상
▁거 론
역 이</w>
▁차 례
▁영 상을</w>
바이 오
▁정치 적</w>
▁사례 가</w>
▁무엇 을</w>
▁뜨 거운</w>
▁발생 했다</w>
진 은</w>
▁그 간</w>
▁계 기로</w>
▁활용 해</w>
▁기 부
▁개 의</w>
하려 면</w>
아 이
▁화 재</w>
▁참 여</w>
▁선 수가</w>
▁비 즈니
▁국내 외</w>
▁완 화
▁일 찍</w>
▁비 난
▁오 른</w>
▁보 완
▁급 격
▁고객 이</w>
▁경 북
돼 야</w>
▁최 우
▁일 정을</w>
▁당 부했다</w>
▁구 분
▁치 료를</w>
율 은</w>
▁지원 에</w>
여 명의</w>
▁방 송</w>
객 이</w>
▁애 플
▁이어 지고</w>
차 는</w>
▁화 려
▁있 는
▁이 건</w>
▁가 맹
진 에</w>
영 업
▁효율 적인</w>
▁이 르
판 을</w>
이 한</w>
▁1 50</w>
력 에</w>
등 록
▁무 너
▁홍 콩</w>
▁정 착
▁스 토
▁발 달
▁뮤 지
▁200 8</w>
팅 을</w>
서 와</w>
▁포함 해</w>
▁금 감
2 6</w>
▁사 로잡
▁보 냈
형 이</w>
항 제</w>
▁저희 는</w>
▁입 고</w>
▁어린 이</w>
▁최 소</w>
▁있 으나</w>
▁육 성
▁인 지
▁듯 듯</w>
▁내 다
처 에</w>
▁활성 화</w>
▁20 20</w>
됨 에</w>
▁이 전</w>
▁모 니
▁꿈 을</w>
연구 원</w>
시 험
▁혜택 을</w>
▁한국 은</w>
▁에 이
▁무역 전
즈 를</w>
▁임 직
▁와 서</w>
▁계 약을</w>
▁올 림
▁법 률
▁많 아
평 화
▁운 행
본 부</w>
▁스포 츠
구 역</w>
▁점 도</w>
▁싶 다</w>
▁실시 한</w>
▁할 인
▁교 환
대 상</w>
▁투 표
시설 의</w>
산 의</w>
는데 도</w>
▁주 택</w>
▁민 간</w>
▁메시 지를</w>
▁A I</w>
▁진 술
이 랑</w>
▁준 준</w>
▁잡 고</w>
o r
방 송
개 로</w>
당 에서</w>
책 임
▁회 장</w>
▁회 사
▁백 악
▁내 고</w>
▁봉 사
▁대 기업
▁단 지</w>
운 동</w>
우 가</w>
시 민
받 아</w>
물 에</w>
▁보 내</w>
▁기 독
회 에는</w>
▁상 임
▁나 선다</w>
▁굉장 히</w>
▁시 상
▁수 여
▁못 할</w>
▁눈 이</w>
▁증 권
▁공연 이</w>
직 을</w>
▁우 수</w>
▁극 복
▁역 대</w>
▁복 잡
▁가 면</w>
장 인</w>
▁위원 회는</w>
▁상 품</w>
▁삼성전 자</w>
▁선 임
▁네 이
시 로</w>
만 원
급 을</w>
결 과</w>
▁주 요
▁개 입
시 다</w>
▁마 을</w>
력 으로</w>
▁통 화
▁시 장을</w>
조 정
▁챔 피
▁종 교
▁변 화를</w>
▁통 계
▁당 장</w>
▁사람 들의</w>
제 품</w>
▁가능 합니다</w>
탄 소년
력 은</w>
▁평 생
▁주인 공
▁운 용
▁예산 을</w>
▁서울 시</w>
▁이 끄
▁떠 나
▁그런 데</w>
해주 는</w>
▁쓰 는</w>
▁공무 원
센터 가</w>
▁전문가 들은</w>
▁사유 가</w>
▁단 속
트 와</w>
더 니</w>
▁호 소
▁점 은</w>
▁박 물
카 드</w>
성 장
▁좋 을</w>
▁보 기</w>
▁일본 의</w>
▁방법 으로</w>
▁맞춤 형</w>
▁공개 했다</w>
▁그것 이</w>
▁고 객</w>
평 가</w>
상 담
만 한</w>
▁집 을</w>
▁길 이</w>
황 이</w>
▁입 은</w>
▁의 원의</w>
▁늘 늘</w>
▁골 프
▁일 부
▁이 제는</w>
제 와</w>
▁학교 에</w>
▁삼 성</w>
수 사
▁왜 냐
▁손 손</w>
협 의회</w>
선 언
▁있 으니</w>
▁반 려
고 에</w>
▁차 를</w>
▁경 남</w>
▁한국 이</w>
▁끌 고</w>
▁그녀 가</w>
유 가</w>
▁지 연
▁범 위</w>
▁공 익
교 회</w>
▁팬 들이</w>
▁여 성이</w>
▁대 폭</w>
▁확인 하고</w>
▁총 괄
▁지 출
▁재 활
차 에</w>
재 판
일 간</w>
됐 으며</w>
공 단</w>
▁통 하여</w>
▁이끄 는</w>
▁이유 를</w>
▁아니 면</w>
▁시 범
▁생 기
▁바른미래 당</w>
▁계 기가</w>
▁하 였다</w>
▁평 소</w>
▁시설 을</w>
▁간 단
▁팀 이</w>
호서 식의</w>
▁힘 이</w>
▁후보 가</w>
▁입 을</w>
산 에</w>
배 를</w>
드 러
▁외 부</w>
▁앞 둔</w>
▁싶 은데</w>
▁그 만큼</w>
▁공 식
▁가까 이</w>
▁올 린</w>
▁빠 져
위원 회를</w>
분 은</w>
부 장
▁승 인을</w>
▁1 3
▁핸 드
▁집 계
▁급 증
팀 은</w>
의 원</w>
▁더불 어</w>
▁가 치
▁하나 로</w>
▁하 이
진 의</w>
▁지 휘
▁정부 와</w>
▁김 동
▁경기도 의</w>
농 업
▁찾 은</w>
▁요구 하는</w>
▁어 린</w>
님 을</w>
▁했 다고</w>
▁검 색
시키 고</w>
번 째</w>
▁토 대로</w>
▁교 수가</w>
▁수 업을</w>
▁마 찬
▁강남 구</w>
▁시 스템</w>
말 로</w>
▁주 어
▁전망 된다</w>
▁위원 장의</w>
▁체 크
라 가</w>
이 익
역 에</w>
리 게</w>
▁지속 적인</w>
회 장</w>
▁우리 에게</w>
▁시간 에</w>
▁과 태
센터 에서</w>
년 의</w>
▁평 가</w>
▁지역 은</w>
▁이른 바</w>
▁관계 를</w>
▁사 상</w>
▁떨어 진</w>
▁가 치가</w>
▁1 000</w>
승 을</w>
미 디
▁편 리
▁실 험
▁부 문
▁협 약
▁떠 오
호서 식에</w>
수 에</w>
▁풀이 된다</w>
▁제 주</w>
▁공 항
였 습니다</w>
기 본
거 래</w>
▁페이스 북
▁그 건</w>
력 의</w>
▁콘텐 츠</w>
▁엄 청
▁분석 이</w>
▁방 탄소년
영 이</w>
▁자 극
▁않 게</w>
▁돌 파
▁같 은데</w>
▁제 거
▁의미 를</w>
▁악 화
▁서 류를</w>
▁리 더
▁둔 둔</w>
▁전 쟁
▁전 부터</w>
▁소 재</w>
▁보여 주
▁보 안
▁곳 으로</w>
2 9</w>
훈 련
▁음 식</w>
▁밖 의</w>
▁높아 지고</w>
▁사업 의</w>
▁구속 영
▁중소 기업</w>
진 과</w>
▁유 도
▁예정 입니다</w>
군 은</w>
▁성 장</w>
▁미 치는</w>
영 화
▁개 설
▁한국 어</w>
▁융 자
▁당신 과</w>
▁구 성</w>
개 혁
▁위원 장</w>
▁올 랐다</w>
▁만 남
▁당 초</w>
▁경 상
o n
하 셨
▁향 한</w>
▁진 단
▁우 즈
▁박 근
▁C C
크 가</w>
리 카
▁늘 어난</w>
▁㈜ ㈜</w>
한 지</w>
물 은</w>
▁수 술
▁세 월
점 검
▁숨 진</w>
▁사 과
▁목표 로</w>
소 와</w>
소 득</w>
▁하 되</w>
▁직 접
▁이용 하는</w>
▁집 중</w>
▁부담 을</w>
드 와</w>
▁인도네 시아</w>
▁도 로</w>
▁가능 성도</w>
되 도록</w>
▁증 명
▁있을 지</w>
▁보여 주는</w>
▁버 스</w>
관 계</w>
공무 원</w>
▁자 문
▁상 반기</w>
▁비 율이</w>
태 를</w>
▁하 여</w>
▁전망 이</w>
▁어 떠
▁뿐 만</w>
▁마찬 가
허 가</w>
전 의</w>
서 요</w>
▁외 에도</w>
▁결 정을</w>
만 으로</w>
구 로</w>
▁옷 을</w>
▁수준 의</w>
▁부 장
a t
▁환경 을</w>
▁절 차를</w>
▁반 환
▁모 색
201 9</w>
로 구</w>
▁테 이
▁환 불
▁가 이
테 인
▁고려 해</w>
된 다고</w>
▁태 양
▁컨 설
▁지 불
▁원 래</w>
▁버 스
▁1 6
세 로</w>
▁활용 한</w>
▁블 랙
▁서 초
▁맞 추
스 플
된 다는</w>
▁회 의를</w>
▁있었 지만</w>
▁신 설
1 9
복 을</w>
▁체 험</w>
▁담 당</w>
동 의</w>
▁유 기
▁소 식을</w>
▁분위 기를</w>
▁발 전을</w>
절 을</w>
와 는</w>
씨 와</w>
▁오 후
하였 습니다</w>
▁원 을</w>
▁경우 에</w>
▁훼 손
▁결과 에</w>
▁점 차</w>
▁보 이지</w>
▁나 무
▁김 치</w>
▁찾 고</w>
▁지 정</w>
▁구 민
어 버
▁회 장은</w>
▁친 구</w>
▁생각 해요</w>
▁사 립
e r</w>
어 의</w>
▁직 원이</w>
▁대 행
▁그 에</w>
학 년</w>
가 스</w>
▁풍 부한</w>
▁영향 으로</w>
▁신청 을</w>
▁가 로
▁트 위
▁음 주
▁보 육
▁개 념
▁세 부
▁무 료로</w>
▁달 하는</w>
집 을</w>
▁작 품을</w>
▁그 게</w>
하 시면</w>
정상 회담
론 이</w>
▁하 늘
▁찾 을</w>
▁차 원에서</w>
▁불 리는</w>
▁보내 주
하 이
▁채 택
▁비용 이</w>
▁비 서
폐 기
망 을</w>
리 면</w>
▁페 이
▁주 장이</w>
▁저 도</w>
▁응 급
▁때 도</w>
▁들 었다</w>
▁내용 의</w>
하 면서도</w>
동 에</w>
▁지원 이</w>
▁전 용
▁개 방
사업 에</w>
▁측 이</w>
▁이것 이</w>
▁받 게</w>
▁관련 하여</w>
▁확 장
▁진행 되는</w>
▁전 년</w>
▁세계 적인</w>
▁인공 지
▁아 내
▁시스템 을</w>
▁강 하게</w>
정 에서</w>
▁울 산
단 으로</w>
달 을</w>
리 적</w>
주 년을</w>
전 은</w>
마 을</w>
▁플 레이
▁종 료
▁대 거</w>
경 기</w>
▁장애 인
해 지고</w>
▁보 존
▁계 열
▁창 의
▁이용 한</w>
▁이 같이</w>
여 성
▁학생 이</w>
▁비 용</w>
▁따뜻 한</w>
▁긍정 적인</w>
▁경우 는</w>
▁싱가포 르</w>
▁둘러 싼</w>
▁기 본</w>
▁과 도
혁 신
▁증가 한</w>
▁제 재</w>
▁제 작</w>
▁이유 다</w>
▁연 령
▁기존 의</w>
하 시는</w>
면 으로</w>
▁설치 된</w>
▁마음 에</w>
▁구 매</w>
층 의</w>
되 어야</w>
▁안 팎
▁신 분
▁바 에</w>
▁거 듭
길 이</w>
▁양 성
▁보 상
▁I T</w>
쪽 에</w>
▁사 항</w>
▁긴 장
▁검 토</w>
▁합 격
▁응 원
▁병 원</w>
▁대 만</w>
▁넘 게</w>
센터 를</w>
▁지역 을</w>
▁유 리
▁분야 에서</w>
▁문제 에</w>
해 질</w>
▁필요 합니다</w>
▁평 택
▁전 남
▁이 민
▁스 티
▁데이 터</w>
계 약
▁훌 륭
▁학생 들의</w>
성 장</w>
가 와</w>
▁안전 한</w>
▁대 북</w>
▁필 수
▁질 문
▁인 도</w>
▁업 계</w>
▁국 회에서</w>
란 히</w>
▁여성 의</w>
름 이</w>
년 으로</w>
▁파 트
▁상 영
▁상 관
▁계 약</w>
질 의</w>
소 방
권 은</w>
▁행복 한</w>
▁카 드
▁실 적</w>
▁생각 하는</w>
▁대 신
▁남 성이</w>
비 와</w>
▁진 짜</w>
겨 진</w>
▁전 개
▁이름 이</w>
▁기 타</w>
▁1 4
각 을</w>
▁프로그램 이</w>
▁투 자를</w>
▁외국 인
▁부분 을</w>
▁대 리
▁관 광</w>
▁감 염
관 련</w>
▁잠 시</w>
▁일자 리를</w>
▁소비 자</w>
▁동 남
▁교 류
금 과</w>
▁돈 이</w>
리 면서</w>
님 은</w>
하 기
션 이</w>
▁이어 졌다</w>
▁시 험</w>
▁놀 라
풍 이</w>
량 은</w>
구 에서</w>
▁특 성
▁영 어를</w>
▁공동 으로</w>
▁검찰 에</w>
e n
▁남 성</w>
▁편 안
▁바 닥
일 자
▁작 년</w>
▁없 지만</w>
나 마</w>
▁제품 의</w>
▁맛 있
▁준 용
▁전 공
▁소 화
체 에</w>
시 장이</w>
▁캠 페
▁알려 주세요</w>
▁둔 다</w>
보 니</w>
건 축
▁효율 적으로</w>
▁표 준
▁추진 할</w>
▁자 리에</w>
▁분 석</w>
시간 이</w>
▁선정 된</w>
▁목소 리를</w>
▁마 치고</w>
▁줄어 들
▁장 관</w>
▁업 체가</w>
▁물 건을</w>
▁공 장</w>
▁행 정</w>
▁취 재
▁않았 습니다</w>
▁북 부
▁대변 인은</w>
▁과학 기술
3 2</w>
▁희 생
▁혐 의
▁차 단
▁아직 도</w>
▁방법 이</w>
▁뒤 에</w>
을 까요</w>
올 림
받 았다</w>
▁영 상</w>
▁안 전</w>
▁시 즌
▁기대 를</w>
업 무
▁제출 한</w>
▁덕 분에</w>
닙 니다</w>
▁회 사의</w>
▁출 범
▁초 기</w>
▁어려 워
▁부 적
▁슈 퍼
▁뛰 어난</w>
▁아 는</w>
▁기술 이</w>
▁전망 했다</w>
▁있 어
▁운영 할</w>
▁복 합
▁구 간
질 환
▁법 원
프 트
분 야</w>
대 학</w>
▁쓸 쓸</w>
관 으로</w>
▁자원 봉사
▁여 름</w>
▁매 출</w>
▁대 하여는</w>
집 니다</w>
실 로</w>
▁체 포
▁유 입
▁아 티
▁나 중에</w>
졌 다는</w>
당 에</w>
규 칙</w>
▁요 리
회의 에서</w>
분 간</w>
기업 의</w>
▁적 지</w>
▁분야 의</w>
달 라고</w>
한 이</w>
어 나</w>
▁한 정
▁추 세
시켰 다</w>
▁위원 의</w>
3 1</w>
▁할 머니
▁생 명
▁부 인
▁수 영
▁많 고</w>
▁검 증
▁전 남</w>
▁소비 자
▁계 좌
학 습
님 께서</w>
규 모
▁마 친</w>
주 차
▁형태 로</w>
▁챔피 언
▁아 마</w>
▁분위 기가</w>
▁질 문에</w>
▁물 을</w>
▁금 융</w>
1 00</w>
등 을</w>
▁정 치</w>
▁입 학
▁유 출
억 원의</w>
아 가</w>
▁쓰 고</w>
▁권 고
과 장은</w>
▁정 도의</w>
▁가 게
▁손 해
▁보 급
▁배 제
▁대 화를</w>
▁개발 한</w>
▁캐나 다</w>
▁주 의
▁유 니
▁생 활</w>
▁곳 에서</w>
테인 먼
져 야</w>
▁왜냐 하면</w>
▁발 송
▁낼 낼</w>
▁추진 하고</w>
▁자리 에서</w>
힌 다</w>
회 의를</w>
렸 습니다</w>
▁소 식이</w>
▁방문 한</w>
▁년 년</w>
▁공무 원이</w>
어 와</w>
▁후 반</w>
▁평가 했다</w>
▁입 증
▁고 속
▁CC TV</w>
위원 장</w>
시 까지</w>
기 기</w>
▁절 반
▁대 책을</w>
하 니</w>
▁이 승
▁의 지를</w>
▁신 청</w>
▁남 성
었 다는</w>
이 니</w>
▁화 웨
▁통 지
▁젊 은
▁없 어서</w>
▁동 원
구 나</w>
▁진행 됐다</w>
▁상태 다</w>
하 려</w>
지 구</w>
▁후 보</w>
▁한국 당</w>
▁지하 철
▁녹 색
▁샘 플
사 진</w>
교육 을</w>
▁홍 보</w>
▁본격 적으로</w>
▁민 족
▁맡 은</w>
▁마케 팅</w>
즈 가</w>
▁실시 할</w>
▁사회 복지
▁마 치</w>
▁내 린</w>
스 탄
▁않았 지만</w>
▁방 지
▁대 북
시 스템</w>
▁피 의
▁떠 올
▁거 에요</w>
▁감 독</w>
▁4 5</w>
▁않 아도</w>
▁복 귀
위원 은</w>
▁없 도록</w>
표 가</w>
▁회 사가</w>
▁전 용</w>
▁이뤄 질</w>
▁비교 적</w>
▁별 도의</w>
▁도 모
▁노 조
▁촉 진
▁앞 앞</w>
▁발 휘
▁기준 을</w>
▁것 이란</w>
주 시</w>
오 고</w>
▁것 인지</w>
도 에서</w>
▁했 다는</w>
해 왔다</w>
▁협 상</w>
▁진행 하고</w>
▁설 정
청 에</w>
이 와</w>
능 을</w>
▁선 진
▁관계 가</w>
▁곳 이다</w>
층 이</w>
세 기</w>
▁전 면</w>
▁연 합
▁가 을
▁가 득
▁조 언
▁운 동을</w>
겁 게</w>
▁초 대
▁시 민</w>
▁결 합
생 의</w>
사 령
료 의</w>
▁어 르
▁배 터
인 들은</w>
도 로
국 민
▁팬 들의</w>
▁스페 인</w>
▁산 산</w>
▁산 림
시 킨</w>
▁충 남
▁잘 못</w>
▁돼 요</w>
▁거 래</w>
행 에</w>
▁취 득
▁연 주
▁받 으
▁박 람
2 00</w>
▁진행 하는</w>
나 무
기 금</w>
▁법 인</w>
▁강 강</w>
▁가족 이</w>
▁특 허
▁증가 하고</w>
▁아이 가</w>
▁논 의가</w>
▁경 고
체 험
수 한</w>
건 은</w>
▁호 응
▁서 류
▁물 품
▁국민 의</w>
▁구 현
▁감독 의</w>
▁한국 인</w>
▁교육 감은</w>
▁일자 리
▁소 식
▁규 모</w>
▁강 서
▁200 7</w>
E O</w>
층 에</w>
▁의 사를</w>
▁신고 를</w>
▁따라 서</w>
▁행 사에</w>
▁인 사</w>
▁부 서
▁법 적</w>
▁공간 을</w>
행 한</w>
보 조
단 체가</w>
간 다</w>
▁탓 에</w>
▁압 수수
호 는</w>
치 게</w>
심 에서</w>
신 가요</w>
▁거주 하는</w>
았 지만</w>
겠 습니까</w>
▁최 최</w>
▁좋 아</w>
▁작 동
▁이 상을</w>
▁양 국</w>
▁대 단
▁고 마
목 으로</w>
가 들이</w>
▁선 출
▁포 장
▁옮 겨
▁기간 이</w>
▁K T</w>
금 리</w>
개 국</w>
▁잇따 라</w>
▁열 어</w>
▁여 야</w>
▁분 리
▁깨 끗
▁경기 에서</w>
국 장</w>
▁성 남
▁머 물
o n</w>
기업 이</w>
▁출 근
▁경기 북
▁3 3</w>
체 는</w>
성 으로</w>
▁포 착
▁질 병
▁임 기는</w>
▁건강 한</w>
터 테인먼
바 로</w>
포 구</w>
예 산
▁결 승
▁활용 할</w>
▁했 고</w>
▁차지 하는</w>
▁지원 한다</w>
▁생 겼
▁기반 으로</w>
확 실
▁혼 란
▁인 물
▁그 때</w>
적 의</w>
▁주 주
▁이재 명</w>
▁운영 하고</w>
▁수 석
▁데 다</w>
게 도</w>
▁허 가
▁평 균
▁이 웃
▁상당 히</w>
시간 을</w>
대 학교
▁음악 을</w>
제 품
렀 다</w>
▁택 시
▁출 전
▁재 개
▁상 황</w>
▁반응 을</w>
▁된 다는</w>
▁눈 을</w>
3 5</w>
로 도</w>
▁협 조
이 로</w>
참 여
▁재판 에</w>
▁산 하</w>
▁방향 으로</w>
▁갈 수록</w>
▁3 2</w>
사업 의</w>
▁출 동
▁징 역</w>
▁제공 하고</w>
▁옆 에</w>
하 실</w>
▁축 구</w>
▁조 성</w>
▁저 지
▁시 리
지 다</w>
설 을</w>
벤 처
▁충 돌
▁맞 이
▁말 하는</w>
직 한</w>
▁친 환경</w>
▁아 닙니다</w>
▁스 크
▁이 란</w>
▁새 벽</w>
▁노래 를</w>
억 원
드 릴게요</w>
▁제 도</w>
▁관 리를</w>
소 한</w>
사 에게</w>
▁행사 에는</w>
▁이어 지는</w>
▁수 사에</w>
▁보 호</w>
▁기자회 견을</w>
% ),</w>
았 어요</w>
리 카</w>
▁준 비</w>
▁조사 됐다</w>
▁선 사
▁되 어
내 에</w>
▁아 니</w>
▁산업 혁
▁가 동
모 델
구 조
▁지 도</w>
▁정확 히</w>
아 의</w>
▁프 레
▁트 렌
▁의 혹</w>
생 활</w>
▁재미 있
▁오 염
▁돌아 가
▁과 연</w>
▁1 5
하 는지</w>
경 기도</w>
▁자 료</w>
자 유
식 에는</w>
▁하 여
▁연 방
▁여러 분
▁4 00</w>
회 에서는</w>
협 력</w>
어 에</w>
게 임
▁현 상이</w>
전 으로</w>
▁피해 자</w>
▁잠 재
▁유 유</w>
▁암호화 폐</w>
▁시 는</w>
▁경기도 지사가</w>
조 원</w>
▁차지 했다</w>
▁이야 기가</w>
▁모 르는</w>
▁담 겨</w>
센터 는</w>
▁예 를</w>
▁6 5</w>
라 서</w>
▁환 영
▁절 대</w>
▁워 싱
▁오 픈
▁어 우
▁서비 스가</w>
지 인</w>
월 에는</w>
경 쟁
결 을</w>
▁플 라
▁통 해서</w>
▁충분 한</w>
▁않 지만</w>
▁스포 츠</w>
▁수준 으로</w>
▁떨어 져</w>
프 가</w>
포 를</w>
수 산
분 야
기 록
▁스 케
▁명 시
▁공개 한</w>
▁한 류
▁일 각
▁상 장
▁돌 려
▁하 노
▁프로젝 트</w>
▁채 널
▁승 인
▁기 분이</w>
무 역
▁앨 범
▁시 급
▁수 소
▁비판 했다</w>
▁공 개</w>
▁가 수
자 금</w>
▁호 흡
▁선 거</w>
▁모니 터
▁고 용</w>
법 은</w>
▁제공 할</w>
▁유치 원</w>
▁문 의
▁공 사</w>
세 계
▁짧 은</w>
▁일 하는</w>
▁시 절
▁때 가</w>
▁대표 이
▁경우 도</w>
판 매
액 은</w>
▁지 급</w>
▁조례 에</w>
▁은 행</w>
▁상당 한</w>
▁독 특
▁대표 하는</w>
▁김 경
▁자유 롭게</w>
▁반 대</w>
▁날 짜
▁기다 려
▁관 내</w>
할 지</w>
▁있었 고</w>
▁내 세
▁강 화</w>
▁가 졌다</w>
▁지 식
▁어려 울</w>
▁내 는</w>
▁낮 아
연 합</w>
연 맹</w>
에 이
까 지의</w>
▁출 산
▁어우 러
였 고</w>
서비 스를</w>
국 과</w>
▁요청 할</w>
▁얻 고</w>
▁실시 한다</w>
▁불 확실
▁동 작
▁금 리</w>
▁때 부터</w>
스 타</w>
▁면 접
▁검 사</w>
▁가격 을</w>
적 으로는</w>
▁휴대 전
▁원활 한</w>
▁사고 로</w>
▁분야 에</w>
▁멤 버</w>
▁현재 까지</w>
▁추 억
▁주 식
▁인천 광역시</w>
▁씨 는</w>
▁생각 해</w>
▁미래 를</w>
▁즐 거
▁작 품</w>
▁빠 진</w>
▁나 라</w>
했 어</w>
지 도
라 의</w>
▁앞 으로도</w>
폰 을</w>
만 원의</w>
릅 니다</w>
▁친구 들과</w>
▁지 사는</w>
▁여의 도</w>
리 그
광역 시
▁헌 법
▁신 한
▁방 안
▁당 일</w>
▁김 태
E D</w>
종 을</w>
▁수 비
▁속 도를</w>
▁사람 들을</w>
▁뚜 렷
▁놀 이
▁갈등 이</w>
하 라고</w>
안 보
▁축 제</w>
▁진행 할</w>
▁적 절한</w>
▁월드 컵</w>
▁매출 이</w>
▁능 력을</w>
자 고</w>
▁이것 을</w>
▁이 전에</w>
▁단 축
▁고려 하여</w>
추 진
▁사랑 하는</w>
▁별 로</w>
기 지</w>
▁직 원들이</w>
▁자연 스럽게</w>
▁사용 한</w>
▁백 화
▁만들 었다</w>
화 하는</w>
실 은</w>
▁진행 될</w>
▁세 미
▁브라 질</w>
▁댓 글
졌 다고</w>
발 을</w>
▁올 렸다</w>
▁보 입니다</w>
▁벌 써</w>
▁감 정
방 에</w>
듯 이</w>
들 에게는</w>
▁않 다는</w>
▁싱가포 르
▁세 상을</w>
▁경쟁 력을</w>
감 과</w>
▁별 도로</w>
▁미 사
▁기록 한</w>
▁최 창
▁일 이다</w>
▁신 고</w>
▁하 거나</w>
형 의</w>
부 로</w>
▁하 반기</w>
▁즐 거운</w>
▁조사 하고</w>
▁분 류
▁규 정을</w>
▁1 7
환 으로</w>
러 스</w>
▁화 재
▁처 리</w>
▁바람 이</w>
▁능 력이</w>
▁공공 기관</w>
인 가</w>
세 에</w>
기 준</w>
▁플랫 폼</w>
▁주 에</w>
▁브 리
▁대법 원</w>
▁감 사</w>
인 천
▁디자 인
k m</w>
업 무</w>
권 과</w>
▁현 장을</w>
▁멋 진</w>
지 요</w>
전 략
▁아이 를</w>
▁노 력이</w>
▁가 득</w>
사 들의</w>
▁함께 하는</w>
▁한 층</w>
▁정상회담 을</w>
▁흥 미
▁착 용
▁보건 복지
▁맞 게</w>
보 험</w>
되 거나</w>
▁추 구
▁위험 이</w>
▁세 워
▁생 존
▁상 호</w>
▁강 원</w>
해 졌다</w>
관 계가</w>
▁도 입</w>
터 에</w>
선 거</w>
▁회 사에</w>
▁자 아
▁수 집
▁말 한</w>
▁공 을</w>
▁19 7
▁확인 해</w>
▁매 니
해 져</w>
하 는
▁역 사를</w>
▁아무 리</w>
▁동 반
장애 인
되었 고</w>
▁평가 가</w>
▁이번 에는</w>
▁이 르는</w>
▁선 발</w>
▁미국 은</w>
중 소
범 죄
감 한</w>
▁장 학
▁자 발
▁없 어
통 신</w>
▁판단 했다</w>
▁사이 에서</w>
▁사람 에게</w>
판 에</w>
▁참여 를</w>
▁정 체
▁자 산
▁유 전
▁연 말
▁막 기</w>
▁거 짓
학 의</w>
▁현 장에</w>
▁직 장
▁제품 에</w>
잖 아</w>
에서 만</w>
박 물
▁죄송 합니다</w>
줍 니다</w>
▁승 용
▁C C</w>
느 냐
▁부 당
▁맛 이</w>
▁나 설</w>
▁구체 적으로</w>
해 왔
지 어</w>
국 가
▁최 초</w>
▁중심 의</w>
▁일 정
▁에너 지
▁분 들이</w>
▁가 시
한 가요</w>
▁편 성
▁심 사를</w>
▁파 티
▁전 화를</w>
▁전 화</w>
▁자 영업
▁순 간</w>
▁분석 이다</w>
▁봤 다</w>
▁다음 달</w>
데 다</w>
▁좋 습니다</w>
이 트</w>
▁인 사를</w>
▁무 료</w>
▁동일 한</w>
▁관 악
▁건 설</w>
업 에</w>
아 버
스 코</w>
▁페 스티
▁서울 중앙
▁박근 혜</w>
▁꽤 꽤</w>
스 탄</w>
만 명</w>
능 이</w>
▁차 량을</w>
▁인도네 시아
▁무 게
▁모으 고</w>
▁기다 리고</w>
항 공</w>
인 권
심 사
▁조사 한</w>
▁대상 이</w>
6 5</w>
화 는</w>
카 르
스트 를</w>
로 에</w>
당 국은</w>
▁탑 승
▁인 구</w>
▁이 정
▁높 이고</w>
▁너 무
▁너 를</w>
▁기능 이</w>
주 년</w>
▁포 상
▁청와 대가</w>
▁인 하
▁어려 움이</w>
위 와</w>
월 드
▁투 명
▁진행 되고</w>
목 의</w>
▁합 리
▁하 겠다</w>
▁저 를</w>
▁소 녀
▁본 격</w>
▁멕시 코
▁내다 봤다</w>
▁날 이</w>
▁나 섰
원 장</w>
▁선 정</w>
▁마련 됐다</w>
▁농 촌
▁내용 은</w>
▁고 등
비 로</w>
▁직 무를</w>
▁때문 이에요</w>
▁공 부를</w>
▁품 질
▁죄송 하지만</w>
▁이하 의</w>
▁열 었다</w>
▁돋 보
▁독 일
▁고용 노동
▁호 에</w>
▁부 진
▁매 주</w>
▁기 반</w>
▁조 용
서 로</w>
머 니</w>
▁생 긴</w>
▁번째 로</w>
마 를</w>
▁행 위를</w>
▁시 원
센터 의</w>
▁폐 쇄
▁통 제
사 용
▁카 드</w>
▁정책 이</w>
▁접 촉
▁자전 거
▁사항 에</w>
▁목 숨
▁것 보다</w>
랫 동안</w>
▁최창 식</w>
▁전 시</w>
▁장 르
▁방향 을</w>
화 하고</w>
하였 고</w>
▁예 술</w>
▁얻 을</w>
▁술 을</w>
▁보 수</w>
▁게 임을</w>
판 이</w>
트 리
기 념
▁태 국</w>
▁유 발
▁몸 을</w>
▁들어 간</w>
▁높 아</w>
▁잘못 된</w>
▁일 정이</w>
▁두 려
▁강 릉
미 술
그 램</w>
▁상태 에서</w>
▁사건 의</w>
▁무 더
축 구
양 이</w>
▁환 자가</w>
▁택 시</w>
▁총 리가</w>
▁설 득
▁사항 이</w>
▁물 러
▁기 도
▁5 2</w>
▁3 8</w>
재 생
운 영</w>
망 이</w>
과 에</w>
▁활동 에</w>
▁의 존
▁건 의
시설 이</w>
면 이</w>
▁회 장의</w>
▁연구 원은</w>
▁스 웨
▁번 역
물 과</w>
문 의</w>
▁협 력</w>
▁지 목
▁준비 를</w>
▁주민 의</w>
▁점 유
▁오 랫동안</w>
▁영향 이</w>
▁않 으
▁실 행
▁부분 에</w>
▁대부 분이</w>
▁긴 급</w>
▁작성 하여</w>
▁멕시 코</w>
▁마지막 으로</w>
▁그 린</w>
유 를</w>
령 이</w>
▁활동 이</w>
▁태 풍</w>
▁옛 옛</w>
▁없 으면</w>
▁상태 로</w>
▁사진 이</w>
▁면 세
봐 야</w>
▁풀 어
▁최초 의</w>
▁쪽 으로</w>
▁소 집
▁붙 잡
▁기 온이</w>
나 무</w>
▁특별 히</w>
▁아 동</w>
▁신 선
▁소 득</w>
▁세 무
군 에</w>
공 항</w>
▁존 중
▁스마 트</w>
▁다 루
▁날 씨가</w>
▁크리스 마
▁스 튜
▁교 부
▁3 4</w>
하 고는</w>
줬 다</w>
주 와</w>
▁혐 의</w>
▁위원 으로</w>
▁요 즘
▁시 행</w>
▁부 상
▁국무위원 장이</w>
▁결 제</w>
함 과</w>
전 과</w>
야 만</w>
▁하나 가</w>
▁영화 가</w>
▁고 등학교</w>
조 합</w>
▁제기 됐다</w>
▁수 입</w>
▁비판 이</w>
사 고
▁활 약
▁착 수
▁위 임
▁뉴 욕</w>
▁기업 을</w>
▁관 해</w>
선 은</w>
▁행정 안전
▁예상 되는</w>
▁엘 리
▁발 표</w>
재 난
▁주민 들의</w>
▁인터뷰 에서</w>
▁이내 로</w>
▁설 립</w>
▁선 교
▁담 겼다</w>
▁단순 히</w>
▁패 션
▁에 스
▁부동 산
콘 텐
마 저</w>
▁포 함</w>
▁김 종
자동 차</w>
선 수
나 가</w>
가 족</w>
▁서울 의</w>
▁답 했다</w>
▁너 에게</w>
▁가 해
자 도</w>
리 도</w>
▁호 와</w>
▁주관 하는</w>
▁이 익
▁워 크
▁대 출</w>
▁개선 을</w>
았 는데</w>
사 랑
▁해 제
▁학생 들은</w>
▁인 용
▁않 기</w>
▁고 통
이 어</w>
▁진행 한</w>
▁정보 가</w>
▁국내 에서</w>
▁고 정
▁필리 핀
▁작 성</w>
▁김 씨는</w>
▁공정 거래
워 요</w>
▁있 다며</w>
▁만 나는</w>
치 의</w>
느 냐</w>
▁현 행</w>
▁테 니</w>
▁않는 다는</w>
▁소 프트
▁내 렸다</w>
은행 이</w>
▁이상 으로</w>
▁분석 한</w>
▁높 이는</w>
하 길</w>
중 인</w>
이었 습니다</w>
▁티 켓
▁충 족
▁제공 한다</w>
▁온라 인
▁문화 가</w>
▁건 조
정 부가</w>
▁좋 겠다</w>
▁시 선을</w>
▁겪 는</w>
인 터
려 서</w>
▁탄 생
▁측 정
▁초 등
▁위 기
▁외 국</w>
▁아 무</w>
▁발 의
종 이</w>
스 크</w>
상 황
겠 네요</w>
▁준용 한다</w>
▁종 전
▁제 재
▁부분 은</w>
▁내 용</w>
▁기 각
억 원이</w>
▁되 며</w>
4 5</w>
▁화려 한</w>
▁안 보
▁바이 오
▁미국 에서</w>
▁그렇 지</w>
공 사가</w>
▁좋아 요</w>
▁살 해
▁들어 서
금 에</w>
▁흘 러
▁선 도
▁가 슴
렸 던</w>
▁포함 하여</w>
▁중국 에서</w>
▁조 작
▁저 소득
▁수 업</w>
▁낮 낮</w>
▁국회의 원</w>
▁경쟁 이</w>
▁크 고</w>
▁저 장
▁유 해
▁상 상
▁미 중</w>
3 3</w>
생활 을</w>
▁환 자</w>
▁재 배
▁상 승</w>
▁상 대</w>
화 할</w>
오 염
급 이</w>
▁최근 에는</w>
▁주 문</w>
▁일 제
▁분명 히</w>
식 에서</w>
래 요</w>
▁입장 이다</w>
▁음주 운
모 를</w>
▁용 산
▁안정 적인</w>
▁생활 을</w>
▁마련 된</w>
▁강 동
져 서</w>
정보 를</w>
정 규
산업 의</w>
려 요</w>
▁호 주</w>
▁합 동
▁피 부</w>
▁이끌 어
▁상 호
▁발 전</w>
낸 다</w>
▁클 래
▁장 이</w>
▁이뤄 진</w>
▁위원 이</w>
▁머 리를</w>
▁기 원
▁근 본
환 이</w>
하 라</w>
도 지사</w>
▁위 안
▁시 내
▁미국 에</w>
% (</w>
포 먼
었 을</w>
공 항
▁터 키
▁추 락
▁창 업</w>
▁지하 철</w>
▁원내대표 는</w>
▁어디 에</w>
▁금액 을</w>
▁갤 럭
▁『 『</w>
설 이</w>
▁찍 은</w>
▁열 릴</w>
▁업 계
▁세계 에서</w>
▁보유 하고</w>
▁기준 에</w>
▁폐 지
▁조 절
▁위촉 한다</w>
▁원 의</w>
▁노원 구</w>
▁검 사를</w>
억 원으로</w>
액 의</w>
드 에서</w>
▁판 문
▁조 심
▁입 법
▁역 사</w>
선 에서</w>
▁저렴 한</w>
▁부 작
▁되 기</w>
▁내 리
▁기 관의</w>
▁구청 장의</w>
i t
터 의</w>
차 로</w>
골 을</w>
▁확인 한</w>
▁필요 할</w>
▁태 권
▁외 외</w>
증 권</w>
졌 지만</w>
▁초 등학교</w>
▁유 엔
▁영 양
▁영 수
▁메 르
▁김 현
해 양
테 크
기간 이</w>
▁협 상이</w>
▁익 숙
▁이 명
▁송 파
▁상 용
▁목 격
3 7</w>
치 로</w>
워 서</w>
사업 이</w>
되 기도</w>
▁파트 너
▁좋 겠어요</w>
▁조 기</w>
▁장 관
▁일 에</w>
▁와 이
▁차 량이</w>
▁성 실
▁보 낼</w>
▁기간 을</w>
자 들과</w>
시 켜
▁최 대
▁진행 한다</w>
▁이 들을</w>
▁없었 던</w>
▁만 났
▁데이 터를</w>
토 록</w>
말 을</w>
들 로부터</w>
▁관측 이</w>
▁검 출
▁간 편
현 이</w>
요 일
사 항
님 께</w>
감 사
▁준 공
▁신 규
▁보 증
▁들 을</w>
과 장</w>
▁파 견
▁적 응
▁성 장을</w>
▁맛 있는</w>
▁종 로구</w>
▁사 장
▁널 리</w>
▁곳 을</w>
▁간 호
측 이</w>
이 용
▁정 당
▁원 인을</w>
▁사고 를</w>
▁격 려
▁개 별</w>
하 기를</w>
▁들어 가</w>
▁노 후
▁공 급</w>
주 도
색 을</w>
▁하 던</w>
▁충 격
▁채 용</w>
▁자 리가</w>
▁용 인
▁다음 과</w>
▁기 후
▁강 남</w>
청 소년
방 송</w>
▁자 살
▁교육 과
치 에</w>
복 지</w>
▁취 임
▁지 구
▁즉 즉</w>
▁주변 에</w>
▁예 방</w>
▁관람 객
▁게 재
3 4</w>
▁학교 에서</w>
▁주목 을</w>
▁국민 이</w>
수 요
공 공
▁촬 영</w>
▁집 으로</w>
▁증 상이</w>
▁원칙 으로</w>
▁사람 들에게</w>
▁발언 을</w>
▁마이 크</w>
▁마 감
▁듯 한</w>
▁대 사
▁경제 가</w>
▁간 사는</w>
a l</w>
3 00</w>
화 될</w>
선 과</w>
나 게</w>
▁커뮤니 티
▁제 도를</w>
▁상 반
▁늦 게</w>
▁남 양
크 로
점 과</w>
▁캐나 다
▁카메 라
▁증 가</w>
▁유 관
▁성 성</w>
▁K BS</w>
화 한</w>
매 를</w>
▁이 렇
▁보 좌
음 악
기 획
▁하 는지</w>
▁전 력
투 자</w>
처 리</w>
조 례</w>
어 린
▁참 참</w>
▁자 금
▁그렇 다면</w>
심 으로</w>
락 을</w>
▁콘텐츠 를</w>
▁적 절
▁생 겨
▁상태 가</w>
한 의</w>
▁법 인
▁노 노</w>
만 은</w>
▁즐 기는</w>
▁원 인
▁실시 하고</w>
▁무 시
▁동 참
▁그 때
▁광 고</w>
에너 지</w>
렉 시
▁유일 한</w>
▁물 이</w>
▁드리 겠습니다</w>
▁높 게</w>
▁국방 부</w>
차 이
였 지만</w>
구 조</w>
▁실 종
▁빅 데이
▁변 동
▁구 축</w>
▁교 회</w>
놨 다</w>
관 계를</w>
결 과를</w>
▁비즈니 스</w>
▁매 각
▁마 세요</w>
▁대 전</w>
▁늘어 날</w>
▁공 통
차 와</w>
▁필 요</w>
▁젊은 이
▁맡 고</w>
▁많 아서</w>
▁느 꼈
출 을</w>
▁인공지 능</w>
▁올 바
▁방 치
▁뒤 를</w>
▁경 영</w>
한 을</w>
하 러</w>
소 비
▁유 력
▁연락 을</w>
목 에</w>
▁내놓 은</w>
호 선</w>
점 의</w>
▁특 별</w>
▁지정 된</w>
▁삼성 바이오
▁바 꿔
▁관리 에</w>
선 으로</w>
▁핵 핵</w>
▁정 도가</w>
▁실 시간</w>
▁손해 배
▁사용 자가</w>
▁받 는다</w>
▁매 월</w>
지역 의</w>
▁실 적이</w>
▁부 르
▁금 메
▁구 글
견 이</w>
▁퍼 포먼
▁적 적</w>
하 기가</w>
률 은</w>
▁현 대</w>
▁조례 에서</w>
▁전 북
▁입 력
▁업 데이
▁아이 돌</w>
▁수 사가</w>
▁건 강</w>
▁합 류
▁하 반
▁시 기
▁성 격
▁생각 하고</w>
▁부장 판
▁부 분</w>
▁무 대에</w>
▁냈 다</w>
▁김 지
T A</w>
렸 고</w>
▁영화 는</w>
▁아시안 게임</w>
▁시 사
▁배 려
▁돌 입
▁당 한</w>
▁공 고
적 한</w>
부 지
▁정책 에</w>
▁대 책</w>
▁노 사
▁나아 가</w>
진 다는</w>
자 마
위원 회에</w>
밀 한</w>
▁치 료</w>
▁이 게</w>
▁된 다고</w>
▁M BC</w>
석 의</w>
▁참여 했다</w>
▁등 도</w>
▁공 기
▁곧 바로</w>
브 를</w>
▁포 항
▁떨어 지는</w>
▁대학 교
▁다 수</w>
▁인 력</w>
▁신 경
▁서울 특별
▁법원 행정
▁반응 이</w>
I C
창 업
느 라</w>
▁패 스트
▁토 지
▁있었 는데</w>
▁산 불
짜 리</w>
상 품
사 항</w>
디 자
▁훌륭 한</w>
▁신 흥
▁본 인이</w>
지방 자치
이었 지만</w>
고 용
▁한 글
▁축 제
▁자 카르
▁선정 됐다</w>
▁변 경</w>
▁배 달
▁몰 랐
▁모 델</w>
청 의</w>
졌 던</w>
됐 습니다</w>
고 기</w>
▁협 력을</w>
▁절 반</w>
▁독특 한</w>
▁가 계
해 지는</w>
서 에서</w>
▁집 단
▁지 내
▁자 금을</w>
▁무 려</w>
▁공간 이</w>
▁취 임</w>
▁인 프라
▁성 적을</w>
▁대 화</w>
▁담당 하는</w>
▁기업 에</w>
▁기록 을</w>
▁과정 에</w>
▁개 별
▁3 6</w>
화 되고</w>
점 이다</w>
리 오
▁실질 적인</w>
▁성공 적으로</w>
▁기 록</w>
▁그 에게</w>
프로 그램
어 져</w>
미 는</w>
니 아
곳 이</w>
▁회 사는</w>
▁치열 한</w>
▁충 남</w>
▁증가 했다</w>
▁이 틀</w>
▁시간 은</w>
▁스 위
▁수 리
▁기대 가</w>
▁강 경
a l
적 은</w>
가 며</w>
▁이야 기</w>
▁오 피
▁소송 을</w>
▁법 령
▁목숨 을</w>
▁맞 지</w>
▁경쟁 력</w>
▁가능 할</w>
▁가격 은</w>
프 라</w>
시 기</w>
다 니
▁성폭 력</w>
▁넘 치는</w>
▁고 조
회 관</w>
▁언 론</w>
▁대통령 을</w>
▁광 진
심 한</w>
시 장의</w>
부 에서</w>
보 증
▁할 인</w>
▁프리미 엄</w>
▁없 기</w>
▁사유 로</w>
▁말 해</w>
▁I C
님 과</w>
간 에</w>
▁평 양</w>
▁지원 하고</w>
▁종 종</w>
▁어린이 집</w>
▁모 아
주 기</w>
공 개</w>
▁하나 님의</w>
▁아 울
▁동 해
▁다 르게</w>
▁것 이라</w>
▁가 끔</w>
▁진 흥
▁어떠 한</w>
▁만들어 진</w>
▁국가 가</w>
▁교 통</w>
팀 을</w>
매 가</w>
드 릴</w>
가 격
▁단 일
▁걸 어
파 가</w>
팀 의</w>
▁측 측</w>
▁국무 총
▁클 라우
▁중국 과</w>
▁아니 지만</w>
▁설 문
▁발생 해</w>
▁관 심</w>
▁충 청
▁얘기 다</w>
▁아침 에</w>
▁실 태
▁수 급
▁3 7</w>
▁올 랐
▁안 산
▁아 빠
▁상 생
▁복 지</w>
▁맞 은</w>
▁달 려
▁네 티
9 0</w>
다 시</w>
▁항 소
▁일 방
▁발견 된</w>
▁무 대를</w>
▁과정 이</w>
던 데</w>
▁통보 하여야</w>
▁연 극
▁벌 이고</w>
▁무 역</w>
▁말레이 시아
▁데 뷔
▁개 최</w>
▁강 아
회 계
놓 고</w>
관 리를</w>
▁친 환경
▁주 력
▁이곳 은</w>
▁아 베</w>
▁분 노
▁매 입
▁개 봉
p op</w>
▁임 금
▁서울중앙 지
▁받았 습니다</w>
▁관 할</w>
배 가</w>
▁폭 행
▁장 식
▁속 도가</w>
▁몸 이</w>
▁달 라고</w>
▁1 20</w>
하 기에</w>
▁인정 되는</w>
▁역 량을</w>
▁병 원에</w>
▁달 라</w>
▁내 지</w>
▁그 린
하 다가</w>
천 만</w>
으로 의</w>
▁현재 의</w>
▁전 담
▁재판 부는</w>
▁예 수
▁쓰 러
▁승 리
▁보내 는</w>
4 8</w>
자 료를</w>
례 를</w>
▁지 사가</w>
▁운 송
▁기 무
T X</w>
지원 센터</w>
▁한 계가</w>
▁특 정
▁작 업</w>
▁스 피
▁들어 오
▁김 진
재 는</w>
▁작 업이</w>
▁이 같은</w>
▁올 려
▁오 면</w>
▁실시 하는</w>
▁수 료
▁분위 기
▁방 안이</w>
색 이</w>
▁엄청 난</w>
▁아무 런</w>
▁시 정
▁수준 을</w>
▁보내 고</w>
▁되 도록</w>
했 다가</w>
정책 을</w>
이 거나</w>
용 으로</w>
▁표 창
▁책 책</w>
▁보 인</w>
▁방 법</w>
▁되 길</w>
호 텔
할 게요</w>
하 지는</w>
▁협 상을</w>
▁클 럽
▁대 응</w>
3 6</w>
친 다</w>
자마 자</w>
▁화장 품</w>
▁피 부
▁아티 스트
▁다음 에</w>
▁나오 지</w>
처 는</w>
값 이</w>
▁찾 기</w>
▁중 장
▁장 비</w>
▁서 명
▁삭 제
▁사건 에</w>
▁되 면서</w>
인 들에게</w>
다 니</w>
국 으로</w>
가 구</w>
▁이 래</w>
▁어렵 다는</w>
▁솔 루
▁사업 이다</w>
▁부 문</w>
▁방 안</w>
▁뒷 받
▁대 다
▁김 용
▁국무 장
피 해
연구 소</w>
시 장에서</w>
거 리
가 량</w>
▁피 곤
▁촉구 했다</w>
▁반 박
▁들 여
프 를</w>
▁테 마
▁취 업</w>
▁아 예</w>
▁사용 을</w>
▁마련 한</w>
임 대
석 은</w>
▁홈페이 지</w>
▁투 자가</w>
▁주민 이</w>
▁아 쉽
▁수 준</w>
통 상
이 상</w>
연 한</w>
검 사</w>
▁한국 전
▁철 거
▁정 상</w>
▁예산 이</w>
▁상 위</w>
▁문화 체육
▁늘 었다</w>
▁경우 를</w>
는 지를</w>
▁형태 의</w>
▁시 대
▁끌 었다</w>
▁과 반
이었 어요</w>
기관 과</w>
▁이 주
▁위 축
▁많 지</w>
▁지 닌</w>
▁준 수
▁미 얀
▁몰 려
▁노 무
차 의</w>
다 만</w>
▁하여 금</w>
▁전략 을</w>
▁의 미</w>
▁유 엔</w>
▁성 추
▁방 식을</w>
가 격</w>
▁피 아
▁제시 한</w>
▁신 임</w>
▁많 습니다</w>
영 을</w>
에서 부터</w>
상 태
▁충 전
▁지적 이다</w>
▁심 사</w>
편 이</w>
층 을</w>
안 과</w>
방 안을</w>
▁치 러
▁위원 회에</w>
▁선 선</w>
▁넓 은</w>
O P</w>
학 적</w>
적 에</w>
웨 어</w>
▁홍 홍</w>
▁한 마
▁않 을까</w>
▁아 우
▁세계 적으로</w>
▁디 스플
이 도</w>
사 장</w>
보 세요</w>
년 과</w>
고 속
▁준비 한</w>
▁이 유</w>
▁원내대표 가</w>
▁쏠 리고</w>
▁들 려
▁규모 로</w>
4 9</w>
3 8</w>
로 서의</w>
▁충 북</w>
▁제외 하고는</w>
▁막 을</w>
▁계속 해서</w>
성 한</w>
▁퇴 직
▁요청 한</w>
▁사무 를</w>
▁받 기</w>
▁강 화를</w>
e s
세 한</w>
▁후 에는</w>
▁징 계
▁사건 은</w>
▁벤 처
▁배 송</w>
▁관 여
▁200 6</w>
5 2</w>
호 로</w>
준 이</w>
생 들이</w>
기간 을</w>
▁중국 에</w>
▁올 라</w>
▁얻 은</w>
▁사업 으로</w>
▁문화 예술
▁늘어나 고</w>
▁객 관
체 로</w>
사 회의</w>
▁주최 하고</w>
▁자 가</w>
▁외 무
▁쉬 운</w>
▁나 와
▁기독 교
▁개최 했다</w>
▁함 은</w>
▁자료 에</w>
▁여 야
▁소 외
▁범 죄</w>
▁방법 은</w>
▁공 간</w>
모 가</w>
마 트</w>
▁텐 데</w>
▁잡 아
▁운 동</w>
▁무엇 인지</w>
▁로 봇
▁김 상
림 을</w>
▁안 녕
▁세월 호</w>
▁상 업
▁사용 하고</w>
▁사례 를</w>
▁계획 이</w>
에 겐</w>
시키 기</w>
▁탑 재
▁종 류
▁조 치가</w>
▁오 리
▁시 에</w>
▁시 대</w>
▁부 대
▁보고 서를</w>
▁기 계
체 계</w>
등 이</w>
▁한국 어를</w>
▁기상 청은</w>
회 계</w>
체 계를</w>
수 도</w>
▁조 직</w>
▁요구 할</w>
▁서울 시가</w>
▁당 분간</w>
▁P C</w>
체 와</w>
시 대</w>
사 법
되었 으며</w>
▁커 피</w>
▁로 이
▁가 질</w>
▁20 22</w>
늦 게</w>
▁회의 에</w>
▁컸 다</w>
▁중 입니다</w>
▁아니 고</w>
▁수행 할</w>
▁불편 을</w>
▁발 전에</w>
▁높 았다</w>
▁납 세
심 의</w>
▁창 원
▁인 기
▁부위원 장은</w>
▁밖 으로</w>
하 자는</w>
▁진 료
▁나타 났
하 나요</w>
시 장은</w>
달 아</w>
▁회 사에서</w>
▁천 안
▁지금 도</w>
▁지 방</w>
▁의 지가</w>
▁영 등
▁사립 유치
▁매 력
▁다 채
조 건</w>
비 에</w>
릴 까요</w>
▁현재 는</w>
▁한국 문화
▁참가 한</w>
▁이미 지를</w>
▁위탁 할</w>
▁모 아</w>
웠 던</w>
▁참여 하고</w>
▁여 부</w>
▁업 종
▁브랜 드
▁보 안</w>
▁모 았다</w>
▁대 처
▁느끼 는</w>
▁공 인
▁개최 한다</w>
▁200 5</w>
하였 으며</w>
실 한</w>
베 키
▁추진 한다</w>
▁추진 을</w>
▁의 장은</w>
▁우 울
▁마찬가 지로</w>
▁공 화
했 는지</w>
이 면서</w>
소 송
된 다면</w>
▁요청 했다</w>
▁언제 나</w>
▁아니 라는</w>
들 과의</w>
데 도</w>
단체 의</w>
남 도</w>
▁임 임</w>
▁배우 고</w>
홀 에서</w>
패 를</w>
업 계</w>
실 과</w>
시 장을</w>
세 의</w>
사 들은</w>
▁팀 을</w>
▁증 언
▁위촉 직</w>
▁기업 과</w>
▁근 처에</w>
재 의</w>
산 화
든 다</w>
▁지 명
▁인정 할</w>
▁심 지어</w>
▁끝나 고</w>
헨 티
원 에게</w>
리 케이
▁최 악
▁이곳 에서</w>
▁깊 이</w>
타 를</w>
아 시아
단 계</w>
▁일주 일</w>
▁마련 했다</w>
▁다 문화
▁끈 다</w>
▁경기도 내</w>
▁감 면
지역 에</w>
보 장
계 약을</w>
▁준 다</w>
▁비 대
▁보여 준다</w>
▁기 관이</w>
았 다고</w>
사업 은</w>
되 어
내 가</w>
▁잠 을</w>
▁이곳 에</w>
▁않았 던</w>
▁구 직
하 더라도</w>
▁확인 했다</w>
▁혁 신</w>
▁아이 템
▁레 스토
5 5</w>
키 로</w>
▁이 처럼</w>
▁이 익을</w>
▁유 동
▁왔 습니다</w>
▁미 칠</w>
▁드 립니다</w>
▁냄 새
▁고 소
▁건 너
환 을</w>
▁주 말</w>
▁이뤄 지지</w>
▁이 집
▁선 물을</w>
양 을</w>
▁획 득
▁측면 에서</w>
▁중 에는</w>
▁있었 다고</w>
▁숙 박
3 9</w>
퍼 런
신 의</w>
비 서
▁조 정</w>
▁있었 어요</w>
▁이탈 리아</w>
▁알 리는</w>
▁생각 에</w>
▁무 관
▁다 수의</w>
▁걸 릴</w>
산 은</w>
발 전</w>
▁침 해
▁조 현
▁시민 들의</w>
▁브 렉시
▁보 면서</w>
▁당연 히</w>
▁끊 임
▁규칙 은</w>
▁관 세
▁갖추 고</w>
F C</w>
터 로</w>
쟁 을</w>
양 의</w>
까 지도</w>
군 을</w>
▁차 가</w>
▁제 공</w>
▁이어 진</w>
▁예 정</w>
▁상 담</w>
▁결 정</w>
이라 서</w>
이 든</w>
목 은</w>
기 만</w>
그룹 이</w>
교육 청</w>
각 의</w>
▁전 라
▁이 때</w>
▁올 리
▁시 기에</w>
▁대체 로</w>
자 나</w>
▁진행 했다</w>
▁압 도
▁않 아서</w>
▁아름 답
▁씨 의</w>
▁말 까지</w>
해 줄</w>
타 임
은 데요</w>
▁파 이
▁이 내</w>
▁부 천
▁말 할</w>
▁기 회
▁공 포
여 개</w>
▁확실 히</w>
▁해 수
▁조 건
▁전 파
▁작품 이</w>
▁일 고</w>
▁이 중</w>
▁육 아
▁된 다면</w>
▁높 이기</w>
재 정부</w>
다 운</w>
국 인</w>
과 도</w>
▁회 담</w>
▁컴퓨 터</w>
▁전 투
▁든 든</w>
▁뒷받 침
▁1 19</w>
크 는</w>
▁터 키</w>
▁채 권
▁의 료</w>
▁위 기에</w>
▁사회 의</w>
▁벗 어나</w>
▁법 원이</w>
▁발 주
▁맞 춰
▁디자 이
▁대 우
▁과도 한</w>
▁카 드를</w>
▁창 조
▁대 여
▁눈 눈</w>
▁김 재
행 위</w>
셨 다</w>
▁비 영
▁들어 가는</w>
▁단 독</w>
▁네티 즌
▁기업 들의</w>
▁그 럴</w>
▁개 정</w>
탄 을</w>
▁적 정
▁요구 가</w>
▁관련 이</w>
▁강 의
i c
폭 력</w>
▁여자 친
▁승 리를</w>
▁수 원</w>
▁상 무
▁그 랬
▁개 성
▁E U</w>
▁6 00</w>
▁5 5</w>
역 으로</w>
▁작성 한</w>
▁임 금</w>
▁목표 를</w>
▁모 인</w>
원 도</w>
보 에</w>
▁취 소</w>
▁자율 주
▁인 하여</w>
▁원 장은</w>
▁색 깔
▁내 게</w>
▁곳곳 에</w>
in g</w>
시 즌</w>
비 아</w>
▁하 더라도</w>
▁추 석</w>
▁차 원의</w>
▁이내 의</w>
▁시작 됐다</w>
▁소비 자가</w>
▁김 씨가</w>
지 원을</w>
▁통 합</w>
▁인 간의</w>
▁언급 한</w>
▁상태 를</w>
▁병 역
▁나라 의</w>
▁구 속</w>
교 류
▁증가 하는</w>
▁이 날
▁윤 윤</w>
▁예 약</w>
▁수 십
▁방 북
▁답변 을</w>
▁기획 재정부</w>
▁금융 당
▁그림 을</w>
▁그 만
학 이</w>
▁형 사
▁자전 거</w>
▁자 금</w>
▁일 환으로</w>
▁양 승
▁앞 장
▁심 한</w>
▁스타트 업</w>
▁소 셜
담 을</w>
▁협 의를</w>
▁장면 이</w>
▁시 작</w>
▁시 너
▁부 과</w>
▁노 인</w>
정상 회담</w>
▁오 랜
▁수 시로</w>
▁발생 하지</w>
▁경찰 의</w>
운 이</w>
▁지 속</w>
▁장 난
▁대 기업</w>
▁노 래</w>
▁구 제
대 한
▁화 성
▁앉 아</w>
▁서 민
▁불 러</w>
▁마 주
▁그 리스
▁관리 하는</w>
M W</w>
음 에</w>
예 술</w>
▁할 지</w>
▁프로그램 은</w>
▁진 정한</w>
▁준비 가</w>
▁정부 에</w>
▁인 구가</w>
▁무 기
▁드러 나
▁높 고</w>
▁계 절
C C</w>
키 는</w>
주 민</w>
공 장</w>
▁이상 인</w>
▁빠져 나
▁민주 노
▁달 에</w>
결 이</w>
▁체 납
▁올림 픽
▁시행 규칙</w>
▁논란 을</w>
▁기자회 견
▁관심 과</w>
▁관 리가</w>
▁갤럭 시</w>
▁3 9</w>
o u
시 티</w>
들 어</w>
▁특 검
▁유 족
▁사이 의</w>
▁비 례
▁들어 갔다</w>
▁대표 의</w>
4 4</w>
호서 식</w>
치 며</w>
전 시
장 도</w>
안 으로</w>
악 한</w>
▁정 식</w>
▁작 가
▁영화 의</w>
▁백악 관</w>
▁또 다시</w>
▁등 록</w>
▁갖 는</w>
▁전반 에</w>
▁일본 이</w>
▁의 견</w>
▁도서 관</w>
▁김 병
호 와</w>
본 을</w>
물 질</w>
▁협 약을</w>
▁향 상을</w>
▁특 성을</w>
▁크 로
▁인 재
조 선
스 틱</w>
▁출 판
▁지원 하기</w>
▁연락 이</w>
▁얼굴 을</w>
▁아르 헨티
▁서 해
▁살펴 보면</w>
▁버 스를</w>
▁꼽 힌다</w>
▁신 경</w>
▁방 사
▁동 료
박 람
리 포
경 은</w>
▁회 원</w>
▁확 대를</w>
▁특 유의</w>
▁주 지</w>
▁종 류의</w>
▁재 판</w>
▁일 시
▁우즈 베키
▁신 입
▁선 박
▁법 원</w>
▁무역 협
씨 에게</w>
개 선
▁소 리가</w>
▁생 길</w>
▁비 치
▁부 득
▁동영 상</w>
▁가족 과</w>
▁S BS</w>
장 에는</w>
로 로</w>
대 출</w>
▁행 동을</w>
▁소 중한</w>
▁성 사
▁발 령
▁반 대로</w>
▁개 인의</w>
하 다면</w>
중 공
영 의</w>
비 용</w>
별 로는</w>
▁하나 인</w>
▁패 키
▁진 상
▁지 하</w>
▁음 식이</w>
▁월드 컵
▁어디 서</w>
▁시 달
▁매 력을</w>
▁도 쿄
▁데 는</w>
▁대 피
▁김 민
▁가능 하도록</w>
M Z</w>
한국 시간</w>
식 품</w>
방 에서</w>
면 의</w>
▁적합 한</w>
▁일본 에서</w>
▁사용 이</w>
▁비 정규
▁보조 금</w>
▁보 행
▁방 해
▁말레이 시아</w>
▁단 독
▁남자 친
▁곳곳 에서</w>
5 3</w>
받 지</w>
▁축 소
▁주문 한</w>
▁인 스타
▁이 슬
▁서울 대</w>
▁부 착
▁문화체육 관광
▁무 료
▁금융 감독
▁규 정</w>
▁가 구
보 다
가 야</w>
▁전 직</w>
▁이 스
▁어 깨
▁삼성전 자가</w>
▁별 다른</w>
4 2</w>
히 고</w>
유 통
▁수 렴
▁기 아
▁거 리
▁가능 한가요</w>
평 을</w>
연 히</w>
리 스</w>
▁한 화
▁조금 만</w>
▁제기 한</w>
▁사실 이다</w>
▁마케 팅
▁거 세
▁가능 하며</w>
근 무
▁초 래
▁손 님
▁세 대
▁당 직
▁활 용</w>
▁협 상
▁해 마다</w>
▁키 워
▁체 감
▁이 영
▁이 수
▁실 내
▁사 정이</w>
▁보 며</w>
▁대해 선</w>
▁기존 에</w>
▁고려 하면</w>
▁것 이고</w>
본 다</w>
▁조금 씩</w>
▁전 북</w>
▁시설 의</w>
▁명 칭
▁담 고</w>
▁기여 할</w>
▁거 리가</w>
희 가</w>
▁학 술
▁패 션</w>
▁여 겨
▁시 군</w>
▁소 규모</w>
▁마 시
▁다이 어
▁남 녀
▁끝 까지</w>
업 체가</w>
▁하 자</w>
▁탄 력
▁출 시</w>
▁전기 차</w>
▁전 기</w>
▁유 사한</w>
▁원 자
▁역사 적</w>
▁부 품
▁돕 는</w>
▁관계 자들이</w>
임 금</w>
위원 회에서</w>
▁참 가</w>
▁실 정
▁보 지</w>
▁규 제를</w>
평 균</w>
재 산</w>
농 단</w>
▁확 충
▁유 통</w>
▁시 공
▁드러 냈다</w>
시 티
법 상</w>
기술 을</w>
▁잡 은</w>
▁시 대에</w>
▁상담 을</w>
▁페이스 북</w>
▁통 상
▁클 럽</w>
▁정상 이</w>
▁여 기는</w>
▁수익 을</w>
▁수 집</w>
▁매 장</w>
▁딸 딸</w>
정보 통신
장 한</w>
만 간</w>
다 면서</w>
것 도</w>
▁타 당
▁취약 계
▁있 거나</w>
▁아니 한</w>
▁메 모
▁대 답
▁누 리
▁난 민
▁경 계
십 니다</w>
비 용
백 을</w>
▁추 모
▁좋 겠습니다</w>
▁정상회담 이</w>
▁데 려
▁4 2</w>
하 라는</w>
어린 이
▁아울 러</w>
▁아니 한다</w>
▁비 싸
▁부정 적인</w>
▁도 가</w>
▁나 한테</w>
▁기준 이</w>
▁국가 의</w>
기 부터</w>
관 에게</w>
▁해 명
▁상품 이</w>
▁사 장이</w>
▁병 원으로</w>
▁명 을</w>
▁논 의를</w>
신 고
개 선</w>
▁주 가가</w>
▁장 기</w>
▁안 심
4 1</w>
어 지고</w>
▁친구 를</w>
▁지자 체</w>
▁일자 리가</w>
▁이 제
▁올바 른</w>
▁안타 까
▁수행 하는</w>
201 7</w>
기 적으로</w>
▁융 합
▁연 장</w>
▁상 환
▁높 이</w>
하 나</w>
테 리
의 약
▁엄 격
▁맛 을</w>
았 을</w>
북 도</w>
▁철 도
▁인 생
▁부 각
▁믿 고</w>
▁넘 겨
▁나 이
▁갈등 을</w>
4 00</w>
파 크</w>
트 랙</w>
역 의</w>
▁지적 도</w>
▁수수 료</w>
▁소 리를</w>
▁몰 아
▁네트워 크</w>
▁거 뒀
A I</w>
6 4</w>
니 다만</w>
▁한 강
▁위해 선</w>
▁워 낙</w>
▁안전 하게</w>
▁시험 을</w>
▁북한 에</w>
▁번 도</w>
▁갖 게</w>
▁감안 하면</w>
r e
반 을</w>
대 비</w>
내 기</w>
끄 러
▁판매 하는</w>
▁적 용</w>
▁인 건
▁얘 기를</w>
▁않았 다는</w>
▁다 운
▁나 눠</w>
▁급 속
▁구 조</w>
자 들</w>
놀 이</w>
▁인 상을</w>
▁앨 범</w>
▁수 술</w>
▁서울 에서</w>
▁낮 추
▁결 혼</w>
▁4 8</w>
▁4 3</w>
4 6</w>
통 합
▁서초 구</w>
▁발 굴</w>
▁모습 으로</w>
▁기대 감이</w>
▁건강 을</w>
▁가 치</w>
▁2 50</w>
▁황 황</w>
▁콘서 트</w>
▁이 틀
▁예 외
▁사 망</w>
▁방 영
▁몸 에</w>
▁뒤 늦게</w>
▁꼼 꼼
▁깜 짝</w>
▁가 구</w>
위 기</w>
센터 에</w>
산 으로</w>
분 께</w>
군 과</w>
▁전국 에서</w>
▁드 는</w>
▁대부 분
▁기업 은</w>
▁급격 히</w>
조 직
사 람
별 지</w>
▁한 해</w>
▁태 극
▁육 성</w>
▁영 어로</w>
▁연 휴
▁어르 신
▁사 장</w>
▁독 서
▁날 부터</w>
▁기간 에</w>
위원 장이</w>
연 도</w>
두 로</w>
▁최 신</w>
▁주 장을</w>
▁재 정</w>
▁장 을</w>
▁입 원
▁일 어난</w>
▁원 인이</w>
▁예 전
▁사람 과</w>
▁벗 어나
▁들 은</w>
▁급 등
8 00</w>
하였 을</w>
에서 다</w>
▁화 물
▁차 세대</w>
▁점 에</w>
▁이명 박</w>
▁의혹 에</w>
▁응 시
▁없 애
▁끌어 올
▁공 항</w>
킨 다</w>
니 가</w>
계 와</w>
▁재 발
▁자동 으로</w>
▁비 록</w>
▁벌 인</w>
▁대표 팀</w>
▁노 하우
▁특성 상</w>
▁제 정
▁전 년
▁이름 은</w>
▁의 장이</w>
▁뒤 집
▁김 수
▁권 권</w>
▁고 시
▁개 통
I S
전 까지</w>
실 의</w>
▁허 가를</w>
▁펼쳐 진다</w>
▁시 책을</w>
▁수탁 자는</w>
▁새 벽
▁부 채
▁겨 냥
즈 는</w>
자 문
신청 을</w>
니 아</w>
기 에서</w>
▁한 진
▁필리 핀</w>
▁이해 할</w>
▁안전 을</w>
▁성 과가</w>
▁비 트
▁몇 몇</w>
▁나 가는</w>
하 기는</w>
카 데
면 적</w>
긴 다</w>
▁폭 행</w>
▁사우 디
▁사실 은</w>
▁며 칠</w>
▁데 뷔</w>
▁교 과
중 이</w>
준 비
▁커 질</w>
▁정 지
▁요구 했다</w>
▁나 눠
▁근로 자</w>
▁거 두
4 3</w>
0 1</w>
▁호응 을</w>
▁한 데</w>
▁포함 한다</w>
▁출연 해</w>
▁전문가 들이</w>
▁이후 에</w>
▁아니 라고</w>
▁씨 씨</w>
▁수 능</w>
▁물 론
▁듣 는</w>
▁경기도 에</w>
폭 이</w>
집 이</w>
록 을</w>
들 이다</w>
▁조사 에</w>
▁장 점이</w>
▁일 하고</w>
▁열 어
▁돈 돈</w>
정 신
시 에서</w>
기관 을</w>
관리 에</w>
▁제 게</w>
▁없 는데</w>
▁센 터</w>
▁선 제
▁보고 하여야</w>
원 들의</w>
았 어</w>
세 는</w>
▁화 제를</w>
▁철저 한</w>
▁책임 이</w>
▁창 출</w>
▁중국 을</w>
▁서 류</w>
▁부위원 장</w>
▁발견 됐다</w>
▁모 범
▁경 비를</w>
을 지</w>
브 리
래 도</w>
되 는데</w>
▁하 니</w>
▁친구 와</w>
▁지역 이</w>
▁아 들</w>
▁선호 하는</w>
▁베 네
▁다 섯</w>
▁김 포
장애 인</w>
이었 고</w>
약 에</w>
렸 을</w>
나 의</w>
▁흐름 을</w>
▁최근 에</w>
▁철저 히</w>
▁조 만간</w>
▁전 수
▁경찰 과</w>
4 7</w>
인 당</w>
보다 도</w>
로 만</w>
▁처 분
▁즐 기
▁접 어
▁실 업
▁사용 하지</w>
▁감 사를</w>
주 에서</w>
소 시
▁절 차</w>
▁잊 지</w>
▁이뤄 졌다</w>
▁부 인</w>
▁물 리
▁달 아
에게 서</w>
셔 도</w>
▁제 한</w>
▁신 중
▁가능 성은</w>
6 00</w>
5 7</w>
포 가</w>
추 가</w>
▁합 의를</w>
▁폭 이</w>
▁총 리는</w>
▁자 녀</w>
▁이스 라
▁시작 해</w>
▁도 중</w>
▁구 미
5 1</w>
테 크</w>
우 리</w>
▁파 괴
▁제 조</w>
▁무 한
▁화 가</w>
▁인 프라</w>
▁음식 은</w>
▁여론 이</w>
▁밀 집
▁말 이다</w>
▁경기도 지
▁거래 가</w>
▁개발 에</w>
▁초 반
▁차지 하고</w>
▁인 구
▁유튜 브</w>
▁아이 돌
▁시 진
▁방문 하는</w>
▁멈 추
▁대통령 에게</w>
▁당 해</w>
▁권 리를</w>
▁걸 리
통상 자원
청 소
유 공
억 원에</w>
센 티
석 에</w>
르 지</w>
거 리가</w>
▁화 학
▁오래 된</w>
▁역할 이</w>
▁식 으로</w>
▁손 에</w>
▁부 활
▁배 정
▁나 쁜</w>
▁교육 이</w>
계 약</w>
▁혐 의가</w>
▁정의 당</w>
▁수 요</w>
▁부 딪
▁보여 주고</w>
▁그 나마</w>
▁광 화
제 한</w>
란 드</w>
▁폭 로
▁털 어
▁중 심</w>
▁조 별
▁일반 적으로</w>
▁이 례
▁요 금
▁경 향이</w>
축 제</w>
백 화
박 한</w>
글 로
고 의</w>
▁협 조를</w>
▁중국 은</w>
▁조 성을</w>
▁자세 한</w>
▁세 입
▁말 에</w>
▁늘어나 는</w>
▁관 세</w>
▁고 향
병 을</w>
범 죄</w>
계획 에</w>
▁참가 해</w>
▁줄 을</w>
▁종 료</w>
▁접 속
▁유 행
▁어디 로</w>
▁성 별
▁무 산
▁모습 이다</w>
▁김 해
▁검토 하고</w>
▁가 지
a c
대문 구</w>
놓 은</w>
▁지금 의</w>
▁인 식이</w>
▁보 일</w>
▁관 찰
▁감 소</w>
터 와</w>
으 니까</w>
든 요</w>
▁화 재가</w>
▁트 레이
▁조 사가</w>
▁입 금
▁분석 된다</w>
▁대 목
▁그 걸</w>
거 든요</w>
▁측 의</w>
▁재 밌
▁자카르 타</w>
▁불 을</w>
▁변호 사</w>
▁대학 생</w>
▁관광객 이</w>
▁가 게</w>
해 진다</w>
접 한</w>
문 화를</w>
고 한</w>
▁환경 이</w>
▁합 의</w>
▁통지 하여야</w>
▁철 도</w>
▁점 수를</w>
▁장 에게</w>
▁수 험
▁소개 했다</w>
▁서울특별 시
▁별 도</w>
▁다채 로운</w>
▁느낌 이</w>
▁넣 어</w>
▁꿈 꾸
▁경 비
▁갑 작
재 단이</w>
연합 회</w>
업 의</w>
▁한 인</w>
▁즐 겁게</w>
▁중 학교</w>
▁신청 서를</w>
▁브리 핑
▁과 정</w>
▁가격 에</w>
5 000</w>
청 에서</w>
집 에</w>
▁학 습</w>
▁팀 의</w>
▁추정 되는</w>
▁첨 단</w>
▁심 리
▁법무 부</w>
▁대표 와</w>
▁관 할
▁경 쟁</w>
▁갖 춰
6 2</w>
안 전</w>
심 사</w>
사 고가</w>
내 며</w>
▁위 주로</w>
▁위 로</w>
▁예정 인</w>
▁수준 이</w>
▁사람 들</w>
▁보 도가</w>
▁메 일을</w>
▁맡 아</w>
▁규 칙</w>
▁개발 을</w>
시 장에</w>
션 은</w>
만 큼
금 융</w>
▁한 때</w>
▁줄어 든</w>
▁조 달
▁전 체가</w>
▁재 생
▁연 일</w>
▁모 임
▁그러 하지</w>
▁결 코</w>
▁가 을</w>
▁가 깝
플 레이
축 산
법 으로</w>
는 가</w>
▁호텔 에서</w>
▁행사 로</w>
▁이벤 트</w>
▁유일 하게</w>
▁아무 것도</w>
▁싫 어
▁수출 이</w>
▁대 회
▁기 금의</w>
▁근 육
▁규정 이</w>
▁7 5</w>
6 3</w>
파 로</w>
레 스</w>
▁활동 하고</w>
▁화 제가</w>
▁해결 을</w>
▁취 급
▁준비 하고</w>
▁주장 하는</w>
▁인 력
▁알 려</w>
▁시 중
▁부 실
▁보 러</w>
▁당연 직</w>
▁나 서는</w>
▁극 단
▁교 사</w>
▁간단 한</w>
5 6</w>
마 가</w>
▁유 지</w>
▁유 사
▁위 기를</w>
▁약속 을</w>
▁발 효
▁묻 는</w>
▁고 맙
▁겨 울</w>
철 도</w>
랜 드
동 과</w>
과학 기술
▁판매 가</w>
▁정보 통신
▁의 원들이</w>
▁없 게</w>
▁북미 정상회담
▁드 릴게요</w>
▁근 무</w>
▁공 중
C D</w>
프 는</w>
시간 에</w>
게 는</w>
▁필요 로</w>
▁창 작
▁유 의
▁어 쩔</w>
▁실 력을</w>
▁미디 어</w>
▁들 이
▁길 길</w>
▁구속영 장을</w>
인 들을</w>
민 은</w>
등 급</w>
▁텔 레
▁카메 라</w>
▁제조 업</w>
▁자신 들의</w>
▁이 기
▁의 사</w>
▁영 상이</w>
▁없 나요</w>
▁야 구
▁실 적을</w>
▁사 장은</w>
▁강 연
▁가운 데
a n</w>
였 다고</w>
▁파악 하고</w>
▁중소기업 의</w>
▁절 대
▁운영 한다</w>
▁신뢰 를</w>
▁빈 빈</w>
▁나 이가</w>
▁기다 리
▁걸 린</w>
훈 련</w>
진흥 원</w>
임 에도</w>
단 에서</w>
▁주문 을</w>
▁입 찰
▁시진 핑</w>
▁문화 의</w>
▁마 약</w>
▁들어 갈</w>
▁대 선</w>
▁국민 들이</w>
▁갔 다</w>
형 은</w>
부 문</w>
는 다는</w>
계 에서</w>
▁전 반</w>
▁영업 이익
▁영 유
▁신 체
▁부 담</w>
▁발 사
▁경제 의</w>
드 린다</w>
노 조</w>
▁있었 다는</w>
▁실 효
▁석 유
▁노동 자</w>
▁끝나 면</w>
▁기대 감을</w>
▁감 정을</w>
▁C J</w>
어 지는</w>
복 합
▁좋 겠어</w>
▁외교 부</w>
▁연 관
▁성 적이</w>
▁산업 통상자원
▁변 화</w>
▁미 만</w>
▁단순 한</w>
▁노 조</w>
▁결정 했다</w>
대 사
▁후 반
▁지역 경제</w>
▁지속 가능
▁점 검</w>
▁원 이</w>
▁알 리
▁뮤지 컬</w>
▁무 대</w>
▁높 다는</w>
▁국 세
▁것 인
자 리에</w>
음 으로</w>
▁회 사를</w>
▁하나 는</w>
▁피해 자가</w>
▁탄 탄
▁출 장</w>
▁지 났
▁오랜 만에</w>
▁성장 할</w>
했 다면</w>
정 부의</w>
▁천 연
▁주 식</w>
▁우승 을</w>
▁배경 으로</w>
▁말 은</w>
▁느낌 을</w>
▁높 였다</w>
▁기 쁨
▁기 념</w>
▁근거 로</w>
▁구청 장</w>
▁관광 객</w>
I A</w>
F A</w>
콘텐 츠
렬 한</w>
라운 드</w>
▁테이 블
▁지역 으로</w>
▁중 기
▁주말 에</w>
▁적용 한다</w>
▁아파 트
▁고 급
▁거 로</w>
▁가 량</w>
▁활발 한</w>
▁포 럼
▁장 려
▁이해 가</w>
▁솔 직
▁세 탁
▁산업 의</w>
▁반려 동
▁농 어
▁감 시
▁4 4</w>
행 사</w>
침 을</w>
운 동을</w>
▁해결 하기</w>
▁정확 하게</w>
▁일 제</w>
▁우 리를</w>
▁업무 협
▁않았 다고</w>
▁못 했던</w>
▁도 와</w>
▁기 사를</w>
일 인</w>
부 담
리스 트</w>
달 라</w>
▁합 의가</w>
▁학생 들을</w>
▁추정 된다</w>
▁소속 사</w>
▁불 어
▁물 류
▁면 역
형 으로</w>
행 위를</w>
크 의</w>
용 품</w>
시 쯤</w>
선 언</w>
부 서</w>
과 정에서</w>
▁주 고
▁조사 에서</w>
▁연 수
▁어 른
▁비 싼</w>
▁당 국이</w>
▁내 외
▁권한 을</w>
산 과</w>
도서 관</w>
더 라</w>
교 통</w>
곳 을</w>
▁진출 을</w>
▁좋 고</w>
▁일 대</w>
▁바 라는</w>
▁로 맨
▁대상 은</w>
▁금 강
▁그 다
코 리아
시 에는</w>
▁평 화</w>
▁진 정
▁우려 를</w>
▁아르 바이
▁스 테이
▁성공 을</w>
▁불가능 한</w>
▁방송 을</w>
▁대 립
▁다니 는</w>
▁골 목
▁고 백
6 1</w>
5 8</w>
부 서
공 개
경 에</w>
▁산 정
▁사용 해</w>
▁바 르
▁뭐 뭐</w>
▁몽 골
▁기 자가</w>
▁기 사
왔 습니다</w>
▁해 운
▁할 아버
▁의 식
▁아 들이</w>
▁병 원
▁내 릴</w>
▁가 스
▁B MW</w>
방 의</w>
▁크 지</w>
▁질 문을</w>
▁주 시면</w>
▁전 쟁</w>
▁재판 을</w>
▁인 증</w>
▁이 거</w>
▁식 사를</w>
▁스 스
▁설명 을</w>
▁만 료
▁교 체</w>
▁거 대한</w>
▁C EO</w>
쳐 야</w>
인 력</w>
씨 에</w>
그 레이
▁첨 단
▁찬 성
▁이 른</w>
▁위원 장을</w>
▁요청 을</w>
▁수 백
▁면 제
▁남 긴</w>
쇼 핑
리 우
니 메이
▁회의 는</w>
▁좌 우
▁연구 를</w>
▁언급 했다</w>
▁블 로
▁배 가</w>
▁박 정
▁무 상
▁대 기</w>
▁결과 는</w>
▁것 들이</w>
째 로</w>
다 보니</w>
▁힘 입
▁직 전</w>
▁준비 하는</w>
▁전체 의</w>
▁임 용
▁움직 임이</w>
▁우리나라 의</w>
▁암호화 폐
▁안 으로</w>
▁베이 징
치 와</w>
연 의</w>
살 을</w>
림 이</w>
▁친구 들이</w>
▁유 효
▁예정 이라고</w>
▁여성 들이</w>
▁대 상을</w>
▁구 민의</w>
i s
부 총
려 야</w>
되 지만</w>
가 에서</w>
▁축 산
▁이벤 트를</w>
▁본 부
▁보조 금을</w>
▁배 울</w>
아 파
미 세먼
간 담
▁희망 을</w>
▁혜택 이</w>
▁통 신</w>
▁주 실</w>
▁오 직</w>
▁소 감을</w>
▁민 선</w>
▁대 외
▁결정 이</w>
▁거 친</w>
▁강서 구</w>
▁가 속
제 다</w>
으로 만</w>
역 은</w>
▁해결 할</w>
▁지 체</w>
▁적 어도</w>
▁작 곡
▁인용 해</w>
▁비서 실
▁모델 을</w>
▁둘러 싸
▁거 라고</w>
I T</w>
한 국</w>
았 다는</w>
량 으로</w>
▁홈페이 지에</w>
▁협 동
▁포함 돼</w>
▁토 트
▁아이 들을</w>
▁시 대를</w>
▁몽 골</w>
▁돼 지
▁결 의
▁감 상
줘 야</w>
▁두 드러
▁되 돌
▁단 순</w>
▁나 면</w>
하 나
출 산</w>
청 과</w>
자 료</w>
영 향
▁학생 들에게</w>
▁클라우 드</w>
▁지급 한다</w>
▁자세 히</w>
▁업무 에</w>
▁보 인
▁기여 한</w>
▁구 글</w>
활동 에</w>
자 에게는</w>
기 능
교 를</w>
▁필요 해요</w>
▁위 탁</w>
▁설치 할</w>
▁높 일</w>
▁가 상
P OP</w>
5 4</w>
재 산
감 에</w>
▁프로젝 트를</w>
▁지역 사회</w>
▁좋아 해요</w>
▁유 용
▁오 를</w>
▁시행 에</w>
▁동 네
▁다행 히</w>
▁규 제가</w>
▁국 회
▁고객 의</w>
▁경 위를</w>
즈 의</w>
운영 할</w>
▁판단 이</w>
▁존 존</w>
▁조 건을</w>
▁제외 하고</w>
▁예 능</w>
▁배터 리</w>
▁미 흡
▁도 출
▁넌 넌</w>
▁공 약
5 9</w>
아 동
소 통
▁자 연</w>
▁요구 를</w>
▁어 디</w>
▁안녕 하세요</w>
▁신 앙
▁반영 된</w>
▁무 대
▁드라마 를</w>
▁글 이</w>
▁구매 할</w>
▁경쟁 을</w>
▁결 론을</w>
정 수
신 한</w>
▁좋아 합니다</w>
▁인천 광역시
▁이 송
▁아마 도</w>
▁섭 취
▁사용 자</w>
▁번 에</w>
▁발 간
▁궁금 증을</w>
▁개선 이</w>
▁한 다면</w>
▁최악 의</w>
▁있을 까</w>
▁잃 어버
▁의 도
▁아프 리카</w>
▁선 포
▁서 식에</w>
▁사람 으로</w>
▁가 야
위원 장은</w>
면 에서</w>
▁완벽 한</w>
▁오 디
▁예정 된</w>
▁연 동
▁상당 의</w>
▁내용 에</w>
▁e e</w>
▁200 4</w>
T S</w>
루 킹</w>
례 가</w>
▁하 시
▁편 하게</w>
▁충 격을</w>
▁일반 적인</w>
▁워싱 턴
▁양승 태</w>
▁실 망
▁비용 은</w>
▁불 과</w>
▁부 부가</w>
▁매니 저
▁뜻 이다</w>
인 도</w>
사 건</w>
만 명이</w>
▁코 너
▁충 북
▁주민 자치
▁아 이</w>
▁신청 한</w>
▁세 운</w>
▁사 사</w>
▁뮤 직
▁공동 주택
자 면</w>
야 말로</w>
권 에서</w>
▁평가 다</w>
▁주차 장</w>
▁있 기를</w>
▁이 목이</w>
▁아이디 어를</w>
▁신속 하게</w>
▁선보 였다</w>
▁건 데</w>
▁혼 자
▁팬 팬</w>
▁처 분을</w>
▁중 구
▁전 략</w>
▁위원 장과</w>
▁왼 쪽</w>
▁어 떨
▁아니 야</w>
▁시청 자들의</w>
▁스 카
▁사 퇴
▁도 심</w>
▁내 비
▁내 년부터</w>
▁공 사를</w>
▁4 1</w>
왔 던</w>
쁘 게</w>
관 광</w>
▁현지 에서</w>
▁제 도가</w>
▁이 르면</w>
▁연 임
▁식 사</w>
▁시 나
▁설립 한</w>
▁불 만을</w>
▁바람 에</w>
▁당 국은</w>
▁기금 운용
직 으로</w>
요 한</w>
만 으로도</w>
렸 어요</w>
▁조 속
▁인 명
▁이용 하여</w>
▁이 바
▁왔 어요</w>
▁않았 어요</w>
▁스케 줄
▁비중 을</w>
▁배우 는</w>
▁반대 하는</w>
▁미국 을</w>
▁리 그</w>
▁관 세를</w>
▁공 략
▁가 공
아 는</w>
미 사
국 가</w>
거 리를</w>
개월 간</w>
▁프로그램 에</w>
▁프 린
▁장면 을</w>
▁요 소
▁시설 이</w>
▁수 학</w>
▁수 거
▁부 지
▁보 편
▁든 다</w>
▁뒤 로</w>
▁금 리
▁고 위</w>
▁경기 에</w>
B O</w>
▁부 가
▁디지 털
▁그 저</w>
▁교육 부</w>
▁경우 에도</w>
기간 은</w>
▁보여 준</w>
▁바람 직
▁금 호
▁견 인
▁것 이
▁- -</w>
o l
환경 을</w>
어 질</w>
순 환
법 원</w>
등 의</w>
간 으로</w>
▁필요 성이</w>
▁정 작</w>
▁적 립
▁작 가</w>
▁일각 에서는</w>
▁위 에서</w>
▁엇 갈
▁방 금</w>
▁고 스
웠 습니다</w>
교육 청은</w>
▁환 자의</w>
▁현실 을</w>
▁학교 를</w>
▁진 출</w>
▁이용 자가</w>
▁선택 한</w>
▁생 생
▁변 화에</w>
▁무 리
▁모습 은</w>
▁더 는</w>
▁느끼 고</w>
▁너무 나</w>
▁고 려</w>
두 에</w>
날 인</w>
까 지만</w>
가 락
▁터 뜨
▁이 곳</w>
프 트</w>
풍 을</w>
장 비</w>
우 리
였 어요</w>
국 장은</w>
▁주 셔서</w>
▁정책 의</w>
▁웃 음을</w>
▁마무 리</w>
▁끊임 없이</w>
7 5</w>
6 6</w>
체 험</w>
입 을</w>
계 로</w>
▁힘입 어</w>
▁합의 한</w>
▁포 스코
▁팬 들은</w>
▁신고 가</w>
▁보고 서는</w>
▁다 짐
▁김 기
▁급 여
▁구 상
▁각 자</w>
했 다며</w>
운 드</w>
번 호를</w>
대 출
▁훈련 을</w>
▁케이 팝</w>
▁자리 매
▁오른 쪽</w>
▁아 끼
▁사회 에</w>
▁사회 가</w>
▁분 이</w>
▁무 서
▁극 대
▁개 척
▁강화 하고</w>
6 7</w>
텔 레
잖 아요</w>
공 연
▁투 어</w>
▁인 테리
▁이름 으로</w>
▁오 프라
▁없 다면</w>
▁세계 의</w>
▁살 인
▁불편 한</w>
▁돌아 오
▁난 민</w>
▁국민 청
▁곤 란
0 5</w>
케 어</w>
박 스</w>
▁하 려고</w>
▁판결 을</w>
▁집계 됐다</w>
▁중 부
▁주민 등록
▁이 자
▁위해 서
▁엄마 가</w>
▁약 간</w>
▁식 사
▁수 학
▁그 와</w>
▁귀 국
편 의</w>
기본 법</w>
▁책 은</w>
▁차 이
▁지나 치게</w>
▁열 리고</w>
▁신속 한</w>
▁시민 이</w>
▁스 캔
▁블 라
▁바 꿀</w>
▁문화 적</w>
▁담 겨
▁다르 다</w>
▁남 경
▁나 란히</w>
▁그 래</w>
▁균 형
조 치</w>
제 한
이 스</w>
상 품</w>
▁헌법 재판
▁풍 부
▁조 명
▁제기 된다</w>
▁유지 하고</w>
▁안타 깝
▁방 식이</w>
▁밤 에</w>
▁발생 하고</w>
▁다 하겠다</w>
치 료
▁춤 을</w>
▁출신 의</w>
▁차 기</w>
▁완 화</w>
▁영 광
▁야 외
▁소 송</w>
▁새 해</w>
▁부 드러
▁모양 새
▁맡 았다</w>
▁났 다</w>
차 례
됐 을</w>
대 책</w>
▁하 도록</w>
▁주 소를</w>
▁제 약
▁정 황이</w>
▁부모 가</w>
▁복잡 한</w>
▁법 정
▁말씀 을</w>
▁대한민 국의</w>
▁대 만
▁200 2</w>
N G</w>
코 리아</w>
석 과</w>
명 에게</w>
만 원으로</w>
▁확보 한</w>
▁통 행
▁전문 가가</w>
▁일본 은</w>
▁의 회</w>
▁의 사가</w>
▁연 기를</w>
▁손 잡
▁서울 에</w>
▁생 각</w>
▁분 쟁
▁매 매
▁대비 해</w>
▁나타 나는</w>
▁기획 재정
▁기 증
▁검찰 의</w>
▁강원 도
죄 를</w>
은행 의</w>
▁오 지</w>
▁싶 지</w>
▁무역 분
▁떠 난</w>
차 량</w>
지 않
원 인</w>
벤처 기업
데 이</w>
▁해 주세요</w>
▁초 반</w>
▁직 면
▁중요 하다고</w>
▁설치 한</w>
▁사진 은</w>
▁공개 됐다</w>
효 과가</w>
▁제작 한</w>
▁정 하여</w>
▁접 목
▁자 립
▁인 센티
▁인 문
▁이후 에도</w>
▁수 술을</w>
▁성공 한</w>
▁성공 적인</w>
▁가 려
D P</w>
졌 으며</w>
▁제 재를</w>
▁여 객
▁성 매
▁발표 를</w>
▁동 의를</w>
▁도입 을</w>
▁높 이
▁기후 변
▁구성 한다</w>
▁거 절
0 8</w>
크 로</w>
엔 터테인먼
문 과</w>
끼 리</w>
▁확 신
▁피 고
▁편 집
▁카 페</w>
▁연 기</w>
▁선보 인다</w>
▁선보 인</w>
▁부정 적</w>
▁문화 에</w>
▁공 장
▁고스 란히</w>
i on</w>
시스템 을</w>
건 과</w>
▁힘 들</w>
▁한국 으로</w>
▁정 당한</w>
▁절 차가</w>
▁이 걸</w>
▁연 휴</w>
▁없 었습니다</w>
▁세계 적</w>
▁불 공
▁눈 물을</w>
▁고 성
▁간 에</w>
시 험</w>
문 제</w>
농업 기술
기 자
▁찾 지</w>
▁제안 한</w>
▁어려 워</w>
▁선택 을</w>
▁골 키
▁결정 한다</w>
▁5 000</w>
퍼 센
본 부는</w>
버 그
러 가</w>
▁함 유
▁중 독
▁내 리는</w>
▁금액 이</w>
▁국 회가</w>
▁감소 한</w>
쪽 에서</w>
였 다는</w>
만 원이</w>
내 에서</w>
각 이</w>
▁중 소</w>
▁제 안을</w>
▁읽 고</w>
▁올림 픽</w>
▁서 로의</w>
▁바 닷
▁규모 는</w>
서비 스
색 으로</w>
로 와</w>
▁홈 런
▁판결 이</w>
▁카 자
▁앞 세
▁사 찰
▁농 림
▁결 론
▁각 각의</w>
타 운</w>
수 엘
달 라는</w>
과 정</w>
▁제주 도</w>
▁인터뷰 를</w>
▁우 주
▁멘 토
▁대 대
▁농 협
▁갤 러
m m</w>
기 보다</w>
▁해 야
▁전 환</w>
▁장 비를</w>
▁일 부가</w>
▁원 인으로</w>
▁아니 요</w>
▁승 객
▁소 관</w>
▁사람 들
▁병 행
▁문제 의</w>
▁머 리</w>
▁너 희</w>
▁권 리
▁구조 조
▁걸 그룹</w>
▁갑 니다</w>
▁가 기</w>
졌 어요</w>
네 이
길 에</w>
기준 을</w>
기 한</w>
▁호 기
▁현 직</w>
▁한국 에서는</w>
▁한 인
▁친 절
▁주 최</w>
▁종전 선언
▁오 르는</w>
▁애플 리케이
▁사 령
▁남 동
▁날 아
▁나라 가</w>
k g</w>
작 을</w>
삼 성
▁활성 화에</w>
▁하 셨
▁피의 자</w>
▁폐기 물</w>
▁테 스트
▁출 국
▁일본 에</w>
▁오 고</w>
▁신청 할</w>
▁블 루
▁맞 고</w>
▁때문 으로</w>
▁들어 갔
▁기 온
▁고 급</w>
▁가져 다
태 가</w>
줘 서</w>
방 안</w>
냅 니다</w>
건 축</w>
가 격이</w>
▁학생 의</w>
▁편 이다</w>
▁주 가</w>
▁조 리
▁점 심
▁전 후
▁의미 다</w>
▁않았 고</w>
▁성 희
▁미사 일</w>
▁많 다는</w>
▁대학 생
▁김 대
▁기소 된</w>
▁국토교통 부</w>
한 미
있 습니다</w>
▁초 점을</w>
▁징 계</w>
▁이해 하고</w>
▁애 초</w>
▁대출 을</w>
▁남경 필</w>
올림 픽
보 기</w>
▁후보 는</w>
▁착 공
▁소비 자들이</w>
▁병 원에서</w>
▁방식 이다</w>
▁마 음</w>
▁나서 고</w>
▁공 원</w>
찬 을</w>
조 치를</w>
으 세요</w>
여 행
는 다고</w>
나 라
▁지급 하는</w>
▁유 아
▁아버 지가</w>
▁승 무
▁세 부</w>
▁빠 져</w>
▁되 기를</w>
▁노력 하겠다</w>
▁공연 은</w>
▁가 정</w>
6 8</w>
천 시</w>
은행 은</w>
분 으로</w>
랜 차이
냐 고</w>
▁하 락</w>
▁잡 았다</w>
▁내 야</w>
▁거 기에</w>
▁가 중
협 회가</w>
해 지면서</w>
청 년
주시 기</w>
대 상은</w>
▁했 을</w>
▁지원 해</w>
▁제시 했다</w>
▁작 가가</w>
▁자 동</w>
▁인근 에</w>
▁신 혼
▁나 눔
▁경기도 지사</w>
▁경 력
▁3 000</w>
정 비
법 과</w>
▁해석 된다</w>
▁외 교</w>
▁예 약을</w>
▁업 그레이
▁않 다고</w>
▁부 상을</w>
▁본 인의</w>
▁본 인</w>
▁법 을</w>
▁밝 은</w>
▁물 품을</w>
▁때 보다</w>
▁되 는데</w>
▁도 봉
포 인
름 을</w>
▁현 저
▁입 니다</w>
▁응 응</w>
▁오 사
▁예상 했다</w>
▁교 섭
치 면서</w>
지 니
조 는</w>
영 은</w>
시설 에</w>
만 여</w>
▁희망 하는</w>
▁협 의</w>
▁제외 한다</w>
▁임 명</w>
▁의 정부
▁올 리는</w>
▁아버 지</w>
▁부득 이한</w>
▁민주 당이</w>
▁미세먼 지가</w>
▁물 에</w>
▁머 무
▁됐 다고</w>
▁동 북
▁담 아</w>
▁나 은</w>
▁끊 이지</w>
▁가 볍
크 와</w>
보 로</w>
로 서는</w>
▁확인 을</w>
▁필요 성을</w>
▁제안 했다</w>
▁이 동</w>
▁연 루
▁상관 없이</w>
▁비행 기</w>
▁보내 주세요</w>
▁먼 먼</w>
▁데이 터
▁국내 에</w>
▁휩 싸
▁지 상
▁예정 이며</w>
▁앞 선</w>
▁선수 들의</w>
▁산업혁 명</w>
▁불거 진</w>
▁변호 사는</w>
▁버 닝
▁미 술</w>
▁목 표</w>
▁마음 으로</w>
▁레스토 랑
▁도 민</w>
▁국가 안보
▁각 별
일자 리</w>
벌 이</w>
량 에</w>
▁인 보
▁아마 존
▁승 인</w>
▁소상공 인</w>
▁성 공</w>
▁상 상</w>
▁벌 였다</w>
▁라 인
▁납 품
▁규정 한</w>
▁개최 한</w>
▁가 벼
▁4 6</w>
년 째</w>
▁중 앙</w>
▁줄 일</w>
▁소요 되는</w>
▁부 품</w>
▁보 냈다</w>
▁공정 한</w>
보 며</w>
량 과</w>
놀 이
곳 에</w>
▁진 술을</w>
▁일 관
▁여 성을</w>
▁업체 들이</w>
▁업 계의</w>
▁어 쩌
▁복 원
▁목 회
▁먹 어
▁류 현
▁드 릴</w>
하 의</w>
우 의</w>
옵 니다</w>
스포 츠
보 자</w>
미 의</w>
들 인</w>
▁허 위
▁참여 가</w>
▁종 합</w>
▁점검 을</w>
▁열 려</w>
▁얻 었다</w>
▁얻 어</w>
▁소득 이</w>
▁소 비</w>
▁선택 할</w>
▁선생 님
▁브렉시 트</w>
▁밥 밥</w>
▁발 을</w>
▁나누 고</w>
▁김경 수</w>
▁것 이며</w>
▁건 지</w>
▁가족 의</w>
부 동
구 의회</w>
▁펼 치고</w>
▁태 풍
▁직 장</w>
▁실정 이다</w>
▁스 탠
▁송파 구</w>
▁성 적
▁비교 해</w>
▁브라 질
▁봐 야</w>
▁민주 평화
▁나누 는</w>
▁기 숙
▁기 능</w>
▁공 유</w>
▁공 론
▁거 둔</w>
▁제품 으로</w>
▁저 축
▁장 소를</w>
▁일 할</w>
▁연 속
▁어렵 게</w>
▁스 파
▁생 기는</w>
▁붕 괴
화 되는</w>
하 시고</w>
위 생
사업 으로</w>
로 써</w>
▁확 보</w>
▁퇴 근
▁주장 이다</w>
▁재 난</w>
▁일 치
▁유 연
▁아시아 나
▁사회 공
▁보호 를</w>
▁로 드
▁도지 사</w>
▁노 트
▁기반 을</w>
▁건 축</w>
▁가이 드라
팀 에</w>
대 회를</w>
▁종 목
▁이어 가고</w>
▁요 양
▁올 려</w>
▁엄 마</w>
▁아무 래도</w>
▁설치 하고</w>
▁방문 할</w>
▁둘 째</w>
▁남 녀</w>
▁건 물이</w>
7 00</w>
차 별
수 도
교육 감</w>
공무 원
▁하 세요</w>
▁편 지를</w>
▁태 도를</w>
▁유 권
▁어 두
▁압수수 색
▁쓰레 기</w>
▁사태 가</w>
▁받 으며</w>
▁롯 데</w>
▁내 년도</w>
▁결정 할</w>
▁감 동
▁L A</w>
청 을</w>
처 에서</w>
자 로서</w>
번 호</w>
네 트워
건 설</w>
▁애 니메이
▁아무 도</w>
▁서 구</w>
▁벌어 진</w>
▁멀 리</w>
▁내 년에</w>
▁구체 적</w>
▁D MZ</w>
i l
하 에</w>
프 의</w>
▁참여 한다</w>
▁지난 주</w>
▁저녁 에</w>
▁임 진
▁이 종
▁않는 다면</w>
▁소 설
▁삼성전 자는</w>
▁불 평
▁딸 이</w>
▁너 와</w>
▁기억 이</w>
▁강 좌
r a
e l
태 평
있 어</w>
우 기</w>
어 주
링 을</w>
▁확보 를</w>
▁토 요일</w>
▁탁 월
▁치 매
▁최우 수
▁의 약
▁상 하
▁사 물
▁비판 을</w>
▁비 리</w>
▁도지 사가</w>
▁기본 적인</w>
▁걸 려</w>
▁C N
했 으면</w>
졌 을</w>
예 방</w>
업 은</w>
속 에</w>
능 력
감 독</w>
▁확실 한</w>
▁학부 모</w>
▁파 손
▁최소 화
▁진 심으로</w>
▁정 류
▁안 내</w>
▁아이 들의</w>
▁성 동
▁서울 과</w>
▁못 하게</w>
▁각 호의</w>
▁199 0</w>
확 인
점검 을</w>
규 칙
▁포 토
▁주시 기</w>
▁장 관의</w>
▁유지 할</w>
▁오 오</w>
▁사 기</w>
▁배 당
▁목 사는</w>
▁당 황
▁긍정 적</w>
▁고 등학교
▁것 들을</w>
E U</w>
역 과</w>
리 티
가 면서</w>
▁주목 받고</w>
▁일 대
▁인사 청
▁이용 자</w>
▁소 극
▁사회 를</w>
▁보 세요</w>
▁넣 고</w>
▁개 혁</w>
▁8 00</w>
▁20 21</w>
0 2</w>
합 니까</w>
제 품을</w>
어 붙
안 에서</w>
선 수</w>
▁하루 에</w>
▁커 졌다</w>
▁카자 흐
▁중 에서도</w>
▁있 어도</w>
▁잃 은</w>
▁올해 도</w>
▁옆 옆</w>
▁양 천
▁신 문
▁세 금을</w>
▁사망 한</w>
▁봐 도</w>
▁동 기</w>
▁도 달
▁남 부
화 장
폐기 물</w>
캠 퍼
처 분</w>
지 한</w>
자 산
운영 에</w>
아 를</w>
무 가</w>
▁후 에도</w>
▁회의 에서</w>
▁폭염 이</w>
▁지자 체
▁지방 선거
▁절 감
▁거 죠</w>
▁개최 된</w>
G A</w>
치 면</w>
지 대</w>
으 러</w>
업 무를</w>
십 니까</w>
사 항이</w>
▁주 된</w>
▁자 칫</w>
▁임 시</w>
▁인 쇄
▁은 퇴
▁요 리를</w>
▁완 전한</w>
▁수 차례</w>
▁사 랑</w>
▁블 룸
▁베네 수엘
▁밝혔 습니다</w>
▁국 경
U V</w>
할 까요</w>
▁캘 리포
▁질 환
▁적용 해</w>
▁서 로를</w>
▁비 타
▁매 체
▁농 도가</w>
▁구조 를</w>
신 용
다 란</w>
▁확대 하고</w>
▁줍 니다</w>
▁줄 었다</w>
▁정도 다</w>
▁전국 적으로</w>
▁이미 지</w>
▁울 산</w>
▁오 픈</w>
▁앱 앱</w>
▁산 책
▁비트 코
▁미 군</w>
▁물 건
▁뛰 어나
▁대북 제
▁네이 버
▁남 겨
▁거 리</w>
테크 노
반 이</w>
리 트</w>
로 이
누 리
가 치</w>
▁해 상
▁지방자치 단체
▁정 해진</w>
▁정 해
▁전 형
▁자리매 김
▁인 권</w>
▁여 부가</w>
▁수 를</w>
▁소 환
▁밥 을</w>
▁마련 해</w>
▁대 회에서</w>
▁농 산
▁공무 원의</w>
▁것 이었다</w>
▁가족 을</w>
6 9</w>
혜 를</w>
펀 드</w>
측 은</w>
인천 광역시</w>
▁차량 에</w>
▁자 국</w>
▁움직 임
▁않는 다고</w>
▁수준 에</w>
▁빼 앗
▁모 른다</w>
▁들 었습니다</w>
▁남북 이</w>
▁국가 대표</w>
▁4 7</w>
0 7</w>
예 정
생 산
료 와</w>
로 직
▁해 가</w>
▁탄 탄</w>
▁직 후
▁오 토
▁시 대의</w>
▁성 적</w>
▁사 상
▁마 포구</w>
전 자</w>
움 에</w>
업 과</w>
▁평 범
▁추 산
▁지 향
▁요구 한</w>
▁없 던</w>
▁시 가</w>
▁수 능
▁마 시고</w>
▁디자 인을</w>
▁그 중</w>
▁국 회에</w>
▁과학기술 정보통신
▁강조 한</w>
취 를</w>
조 한</w>
이 네요</w>
▁판단 을</w>
▁집 단</w>
▁정 할</w>
▁정 무
▁우 승</w>
▁올해 부터</w>
▁연결 하는</w>
▁스웨 덴
▁수수 료를</w>
▁서울 시는</w>
▁남 자가</w>
▁그 림</w>
▁계 엄
▁가족 들이</w>
프로 그램</w>
트 럼
인 인</w>
으로 서의</w>
시 각</w>
▁지 지를</w>
▁지 나</w>
▁줄어 들</w>
▁장 착
▁생각 보다</w>
▁삶 이</w>
▁매 달</w>
▁많 을</w>
▁리 리</w>
▁디자이 너
▁돕 기</w>
▁광 고를</w>
▁공 영
▁거 기
플 라
이 게</w>
시 피</w>
공동 체</w>
▁파 는</w>
▁청 문
▁중 고
▁연 락</w>
▁성 인</w>
▁설치 하는</w>
▁만나 고</w>
▁국가 주
▁공 사가</w>
병 이</w>
▁헤 어
▁행 위가</w>
▁항 의
▁클 클</w>
▁집중 적으로</w>
▁전 액</w>
▁시 드
▁부 러
▁나타 나</w>
▁강 요
7 2</w>
클 럽
친 화
이었 는데</w>
여 행</w>
억 달러</w>
렸 다고</w>
경찰 서는</w>
▁화 합
▁프 랜차이
▁처음 에는</w>
▁진 보
▁중 구는</w>
▁이해 를</w>
▁이외 에</w>
▁위 촉</w>
▁언 젠
▁쌀 쌀</w>
▁스트레 스를</w>
▁북한 과</w>
▁규칙 으로</w>
방 법</w>
▁평 생</w>
▁태양 광</w>
▁있 겠
▁인 원이</w>
▁시작 할</w>
▁수 질
▁소득 주도
▁사무 총
▁부 합
▁무역전 쟁
▁마 스크
▁마 사
▁때 에</w>
▁가 난
8 5</w>
▁출 마
▁축 제가</w>
▁찬 찬</w>
▁직 원을</w>
▁중심 이</w>
▁존 경
▁조 치</w>
▁절 실
▁이 름</w>
▁아 픈</w>
▁순 으로</w>
▁손 상
▁상 위
▁상 당</w>
▁미디 어
▁문재 인
▁규모 를</w>
현 대
질 환</w>
롭 고</w>
기관 은</w>
공 간</w>
▁포함 됐다</w>
▁지 분</w>
▁올해 로</w>
▁스 타</w>
▁바라 보는</w>
▁몸 몸</w>
▁대표 적</w>
▁공간 으로</w>
▁게 이
▁건 전한</w>
▁《 《</w>
▁5 1</w>
위 탁
요 금</w>
올림 픽</w>
대 행
▁현 금</w>
▁추 천</w>
▁중 간</w>
▁장 례
▁웹 사이
▁영 업</w>
▁얼 굴</w>
▁신 호
▁식 당</w>
▁스크 린
▁수 업이</w>
▁방송 된</w>
▁노 동</w>
▁내 놨다</w>
▁기록 하며</w>
▁고양 시</w>
h e</w>
편 을</w>
최 근</w>
교 가</w>
가 정</w>
▁했 으나</w>
▁집중 되고</w>
▁버 튼
▁반 납
▁대 장
▁나 빠
▁기술 과</w>
▁고 수
▁거 듭</w>
7 7</w>
0 4</w>
웨 이</w>
연 금</w>
기 인</w>
▁현 황을</w>
▁패 턴
▁컨 테이
▁제기 된</w>
▁자 격을</w>
▁이탈 리아
▁이뤄 지고</w>
▁유럽 연합</w>
▁언론 에</w>
▁실 내</w>
▁시간 과</w>
▁선 물</w>
▁북한 은</w>
▁못 했습니다</w>
▁늦 은</w>
▁갈 아
c m</w>
억 달러
급 여
▁회 장
▁호 선
▁지정 한</w>
▁전 부
▁시행 하는</w>
▁스 프
▁소방 당국은</w>
▁선보 이는</w>
▁미 루
▁끝 나는</w>
▁경제 를</w>
▁개 인이</w>
준 의</w>
았 으며</w>
습 을</w>
민 과</w>
▁확인 된</w>
▁해 석이</w>
▁측 에</w>
▁지 구</w>
▁정 준
▁워크 숍
▁여 지가</w>
▁사 각
▁무엇 이</w>
▁목 사</w>
▁도착 한</w>
▁나타 난</w>
▁꼽 히는</w>
▁개최 되는</w>
치 기</w>
천 여</w>
처 의</w>
졌 기</w>
자 연
상 황을</w>
법 의</w>
기관 으로</w>
▁후 속</w>
▁형 사</w>
▁커뮤니 티</w>
▁천 안</w>
▁찾아 가</w>
▁주 제
▁이뤄 지는</w>
▁언 어
▁알 지</w>
▁시작 하는</w>
▁샌 드
▁분위 기</w>
▁무 언
▁말 로</w>
▁대책 이</w>
▁달 리
▁공유 하고</w>
▁건강 에</w>
신 은</w>
리 스트
기업 을</w>
결 정
▁확정 된</w>
▁플 래
▁임직 원</w>
▁일 도</w>
▁인 력을</w>
▁완 공
▁시 내</w>
▁소 중
▁산업 이</w>
▁드라마 가</w>
▁논 의</w>
▁1 80</w>
정 치
스포 츠</w>
세 대
디 자인</w>
개 소</w>
▁취 하고</w>
▁초 콜
▁접수 된</w>
▁일어 났
▁보도 에</w>
▁보 험</w>
▁방 어
▁박 성
▁미 만
▁마 약
▁날 을</w>
▁구 는</w>
▁교 류</w>
수 당</w>
산업 이</w>
▁확인 이</w>
▁펼 쳤다</w>
▁자녀 가</w>
▁잉 글
▁일 회
▁안정 적으로</w>
▁신청 이</w>
▁명 백
▁땐 땐</w>
▁다 들</w>
▁근무 하는</w>
▁공급 이</w>
▁거래 를</w>
▁가 축
여 부를</w>
민 들이</w>
디 어</w>
동 에서</w>
▁쾌 적한</w>
▁짐 을</w>
▁예 능
▁열 악한</w>
▁선 배
▁배 상
▁도 심
▁단 체가</w>
▁단 위로</w>
▁남 해
▁굳 이</w>
▁고 통을</w>
▁개최 된다</w>
r o
협 정</w>
품 의</w>
전 자
열 이</w>
사 도</w>
되 던</w>
▁폭 염</w>
▁질 의
▁윤 리
▁많 은데</w>
▁귀 여
▁과태 료</w>
생 태
▁청소년 들이</w>
▁작 가의</w>
▁유 리한</w>
▁연 다</w>
▁얼굴 이</w>
▁안전 하고</w>
▁쓰 지</w>
▁심 심</w>
▁수 치
▁쇼핑 몰
▁세 상에</w>
▁명확 히</w>
▁드라 이
▁댄 스</w>
▁고객 에게</w>
정 지</w>
일 보</w>
었 기</w>
발 전을</w>
리 라</w>
▁흔 히</w>
▁한 미
▁품 질</w>
▁최저임 금
▁찾아 가는</w>
▁주 재
▁의 무를</w>
▁야 생
▁사 후
▁부 르는</w>
▁변호 사가</w>
▁노동 당</w>
▁가격 으로</w>
타 운
클 럽</w>
켰 다</w>
지 기도</w>
움 과</w>
두 를</w>
▁회 수
▁현 금
▁전 산
▁시 군
▁법 령</w>
▁범 행을</w>
▁박 원
▁바이 오</w>
▁문화 재
▁김성 태</w>
▁골 을</w>
▁환경 에</w>
▁학교 가</w>
▁하나 도</w>
▁치 킨
▁즉 각</w>
▁장기 간</w>
▁이용 이</w>
▁온 실
▁손해배 상</w>
▁미 니
▁남 한
▁끝 날</w>
▁국민연 금</w>
▁공 존
▁결정 한</w>
0 9</w>
우 를</w>
밀 히</w>
▁흡 수
▁판매 를</w>
▁크리스마 스</w>
▁지역 주민
▁조 기
▁전 국의</w>
▁유 포
▁요구 하고</w>
▁오피 스
▁아이 의</w>
▁수 산
▁사건 과</w>
▁보여 줄</w>
▁매 진
▁긍정 적으로</w>
▁경 과
▁감 당
▁가득 한</w>
L ED</w>
증 은</w>
설 명
막 을</w>
고 와</w>
가 운</w>
▁훈 련</w>
▁편 의를</w>
▁채 워
▁증가 할</w>
▁재 직
▁유 출</w>
▁위 치를</w>
▁서 버
▁똑 같은</w>
▁내용 이다</w>
▁근거 가</w>
▁국무위원 장의</w>
▁공 격</w>
▁200 3</w>
일 으
▁커 다란</w>
▁첨부 하여</w>
▁연 기가</w>
▁앞 당
▁빅데이 터</w>
▁부 사
▁막 막</w>
▁막 대한</w>
▁떠 나</w>
▁고 개를</w>
▁검 은
▁가능 하다는</w>
통 이</w>
채 를</w>
지 수</w>
문 으로</w>
들 었다</w>
▁토 지</w>
▁타 는</w>
▁전 당
▁자 를</w>
▁안 양
▁등 에게</w>
▁논란 에</w>
▁강화 하는</w>
▁감 축
일 로부터</w>
위원 이</w>
위원 의</w>
움 에서</w>
문 에서</w>
곡 을</w>
강 을</w>
감 사</w>
▁타이 틀
▁체계 적인</w>
▁자유한국 당이</w>
▁있 니</w>
▁영향 력을</w>
▁영 원
▁식 재
▁송 금
▁불 만이</w>
▁바 뀐</w>
▁뮤직 비
▁모르 겠어요</w>
▁나라 를</w>
▁강 제</w>
a s
지 도록</w>
됐 으나</w>
가 면</w>
▁추구 하는</w>
▁줄 이고</w>
▁재미 있는</w>
▁이루 고</w>
▁유튜 브
▁위치 해</w>
▁범 위를</w>
▁드러 난</w>
▁대표 를</w>
▁노력 하고</w>
▁고 충
허 가를</w>
지방 경찰
의 결
아 시아</w>
기 엔</w>
▁합리 적인</w>
▁지 낸</w>
▁전 인</w>
▁여 부에</w>
▁알 리고</w>
▁성 격이</w>
▁빨 라
▁빛 을</w>
▁동영 상을</w>
▁누 적</w>
▁국토 부</w>
음 의</w>
생 산</w>
▁효과 적으로</w>
▁이 로</w>
▁없 으며</w>
▁아 픔
▁수상 했다</w>
▁보고 서</w>
▁뭘 뭘</w>
▁먹 으면</w>
이 사</w>
동 은</w>
▁하 천
▁판문 점</w>
▁키 우는</w>
▁지 정을</w>
▁일으 키
▁이하 로</w>
▁이슈 가</w>
▁요 인이</w>
▁오후 에</w>
▁뭔 가</w>
▁물 품</w>
▁메이 저
▁등록 된</w>
▁대 체</w>
8 4</w>
본 부가</w>
▁축구 대표
▁의 원을</w>
▁위 생
▁실 제
▁성공 했다</w>
▁무 인
▁모 은
▁맺 은</w>
▁때문 이라고</w>
▁국방 부는</w>
▁같 아서</w>
였 는데</w>
수 익
▁휴 가
▁텔레 비
▁지 표
▁자신 에게</w>
▁예 상</w>
▁맞 대
▁끝 났
▁까 다
▁경제 에</w>
음 과</w>
안 에는</w>
▁해외 에서</w>
▁찾 았다</w>
▁진 학
▁자료 가</w>
▁임 종
▁인 상이</w>
▁의 장</w>
▁소개 하는</w>
▁상 처를</w>
▁문제 와</w>
▁과 제를</w>
▁가 입</w>
▁7 00</w>
스 테
게 이
▁행 위</w>
▁포인 트</w>
▁파 주
▁접 수</w>
▁전 체를</w>
▁적발 됐다</w>
▁완벽 하게</w>
▁업체 에</w>
▁불러 일으
▁대학 에</w>
▁감 지
현 의</w>
예 를</w>
아 트
아 무
미 한</w>
과 정을</w>
▁탈 락
▁차 이를</w>
▁전반 적인</w>
▁입장 에서는</w>
▁이 목을</w>
▁안 성
▁손 님이</w>
▁비 건</w>
▁부산 의</w>
▁반영 한</w>
▁많 았고</w>
▁담 아
▁광진 구</w>
▁고려 할</w>
지역 에서</w>
중소 기업
자동 차
운 데</w>
▁협력 해</w>
▁캐릭 터</w>
▁영 장
▁세계 를</w>
▁분 과
▁고객 들이</w>
천 히</w>
사무 소</w>
보 호</w>
렸 지만</w>
까 지
▁회 계</w>
▁했 어</w>
▁한 가
▁프로 모
▁편리 하게</w>
▁직접 적인</w>
▁주 식을</w>
▁자 꾸</w>
▁아 닐
▁시 대가</w>
▁수 십</w>
▁선정 한</w>
▁서 면으로</w>
▁물 건이</w>
▁대학 교</w>
▁내 년
▁남편 이</w>
▁나타나 고</w>
▁구 멍
▁고 교</w>
▁검 거
피 를</w>
자 들
명 에서</w>
루 를</w>
▁협 업
▁치 솟
▁청 주
▁청 약
▁지자 체가</w>
▁지 사의</w>
▁주최 하는</w>
▁정신 을</w>
▁재활 용
▁유 형
▁여 유
▁수 당</w>
▁세미 나
▁분 식
▁더 욱
▁대 회는</w>
플 릭
센터 와</w>
등 급
▁현 황</w>
▁코 리아
▁카카오 톡</w>
▁출 범</w>
▁앞 으로는</w>
▁속 한</w>
▁바 꿔</w>
▁도와 주
▁대 화가</w>
▁급 락
▁공동 체</w>
▁공동 주택</w>
0 6</w>
케 스트
사회 복지
느 냐는</w>
▁황 교
▁활용 하는</w>
▁천 천히</w>
▁챙 겨
▁자리 잡
▁이 사</w>
▁엔 터테인먼
▁암 암</w>
▁세 금</w>
▁사진 과</w>
▁매 수
▁대법원 장이</w>
▁나 이</w>
▁구 로
▁간 접
층 에서</w>
검 찰
▁효과 적인</w>
▁헬 스
▁학교 의</w>
▁편의 점</w>
▁페 널
▁판 단</w>
▁지방 선거</w>
▁종합 적으로</w>
▁접 할</w>
▁장 관과</w>
▁원 인</w>
▁봄 봄</w>
▁배 포
▁방 위
▁문화 와</w>
▁무 용
▁리 스크
▁김 부
▁그녀 를</w>
▁그 리</w>
▁4 9</w>
의 의</w>
속 을</w>
드 리고</w>
독 립
검 사
개 사</w>
▁현 상
▁통 상</w>
▁처 벌</w>
▁줄 이기</w>
▁주장 하고</w>
▁잇 는</w>
▁이끌 어</w>
▁우려 도</w>
▁예상 보다</w>
▁섬 유
▁방침 을</w>
▁마 땅
▁더 해</w>
▁대중 교통
▁대목 이다</w>
▁대 륙
▁답 답
▁글로 벌
▁걸 고</w>
▁개발 이</w>
▁19 80</w>
진 한</w>
이 기에</w>
원 장은</w>
본부 장</w>
담 당</w>
▁확인 하는</w>
▁해 결</w>
▁지속 될</w>
▁잠 시
▁용 의
▁연 말</w>
▁시작 되는</w>
▁소 년
▁생 겼다</w>
▁빌 려
▁맞 물
▁들어 온</w>
▁기 획</w>
▁200 1</w>
카 드를</w>
이 익을</w>
심의 위원회</w>
나 이
▁호 주
▁플라 스틱</w>
▁추진 하기</w>
▁증 폭
▁주 기</w>
▁조 각
▁제도 다</w>
▁아 까</w>
▁순 천
▁성 황
▁그곳 에</w>
▁경 유
▁간 부
훈 이</w>
철 도
장 치</w>
을 수록</w>
수 행
등 한</w>
▁지 분을</w>
▁줄 이는</w>
▁주 무
▁제공 된다</w>
▁정기 적으로</w>
▁전 력</w>
▁장 소</w>
▁아 랍
▁수 령
▁분석 을</w>
▁민 민</w>
▁미 뤄
▁문 학
▁모은 다</w>
B A</w>
미 국</w>
▁한국 교
▁하노 이</w>
▁타 격을</w>
▁주 한미
▁주 신</w>
▁유 망
▁싶 다는</w>
▁실 적
▁못 하면</w>
▁명 령
▁말 하고</w>
▁대 회를</w>
▁기 사가</w>
▁고 민이</w>
▁8 5</w>
▁5 4</w>
( -</w>
시 하는</w>
비 용을</w>
다 시피</w>
나 고</w>
공 사는</w>
▁제 출</w>
▁의혹 과</w>
▁요 리</w>
▁영 국의</w>
▁여 는</w>
▁시 기를</w>
▁세계 에</w>
▁문화 재</w>
▁교 회
▁같 네요</w>
) ·</w>
히 지</w>
품 은</w>
수 원</w>
라 고요</w>
가 인</w>
▁활동 하는</w>
▁책 임</w>
▁지 장이</w>
▁중요 성을</w>
▁임 기</w>
▁이 뤘
▁약 을</w>
▁싶 어
▁비영 리
▁기업 인</w>
▁구성 되어</w>
8 8</w>
행 사를</w>
쾌 한</w>
위 험
심 사를</w>
리 다</w>
대 책을</w>
권 으로</w>
▁효율 적</w>
▁홀 로</w>
▁출 생
▁전 면
▁유지 하는</w>
▁원 합니다</w>
▁아니 에요</w>
▁실 용
▁센터 의</w>
▁모델 로</w>
▁다 큐
▁네 덜
▁금 방</w>
▁그 들을</w>
▁거뒀 다</w>
▁개 를</w>
▁개 그
9 9</w>
회의 에</w>
합 의
개 혁</w>
▁진행 해</w>
▁장 악
▁입 국
▁의미 한다</w>
▁왔 는데</w>
▁연 내</w>
▁여 수
▁들어 서</w>
▁노력 할</w>
9 5</w>
평 가를</w>
작 업을</w>
미 터</w>
는 게</w>
금 지
▁프로젝 트
▁집 이</w>
▁전통 시장</w>
▁입 장이</w>
▁올 리고</w>
▁어린이 들이</w>
▁식 품</w>
▁성 장이</w>
▁불 투
▁북한 을</w>
▁부 의
▁뚜렷 한</w>
▁도 의</w>
▁경쟁 력이</w>
▁걱 정이</w>
전 기
원 들은</w>
여 명</w>
어 로
됐 기</w>
대 회가</w>
검 토
▁투입 해</w>
▁크 다는</w>
▁종 일</w>
▁자신 들이</w>
▁연임 할</w>
▁삼성바이오 로직
▁사람 들과</w>
학 년
하우 스</w>
절 이</w>
의 료</w>
신 고</w>
보 수</w>
민 을</w>
리 트
되었 던</w>
▁프로그램 이다</w>
▁전 에는</w>
▁자 회
▁자 매
▁쌍 용
▁살아 가는</w>
▁사이 트</w>
▁사용 되는</w>
▁바 쁜</w>
▁메이 크
▁드 디어</w>
▁근로 시간</w>
▁결과 로</w>
▁가 리
했 었다</w>
전문 가</w>
나 가
▁확대 될</w>
▁해 설
▁파 일을</w>
▁컨설 팅</w>
▁추세 다</w>
▁작품 은</w>
▁의 하면</w>
▁연계 해</w>
▁실시 간으로</w>
▁목 사가</w>
▁농 기
▁근 데</w>
▁감 사의</w>
▁가능 해</w>
청 정
산 에서</w>
멘 터
렸 다는</w>
기관 인</w>
국 민</w>
▁허 가</w>
▁추진 에</w>
▁즐 겨</w>
▁조사 할</w>
▁저지 른</w>
▁이메 일</w>
▁알 겠습니다</w>
▁동 료</w>
▁단 기
▁계약 이</w>
T BC</w>
점 검</w>
장 애</w>
▁테 러
▁출 제
▁진 로
▁인 증을</w>
▁이 들에게</w>
▁쉽 고</w>
▁상품 은</w>
▁상 장</w>
▁만 든다</w>
▁기 뻐
▁겪 은</w>
▁거 리를</w>
▁감 동을</w>
▁가 산
e c
7 1</w>
하 가</w>
중 국</w>
심 과</w>
방 은</w>
막 이</w>
능 력</w>
▁출 산</w>
▁청 원
▁처 리를</w>
▁참가 자들이</w>
▁중 이던</w>
▁제공 해</w>
▁인 식을</w>
▁영 입
▁성 북
▁생각 하지</w>
▁사람 도</w>
▁부 족</w>
▁봅 니다</w>
▁박 지
▁로 스
▁단 위</w>
▁다양 하게</w>
▁남 편</w>
▁금 요일</w>
▁구 경
▁경기도 농업기술
▁결정 에</w>
▁가능 하고</w>
학 습</w>
출 납
력 발전
둥 이</w>
▁패 러
▁최고 경영
▁제기 했다</w>
▁일 종의</w>
▁운동 이</w>
▁바라 요</w>
▁말 도</w>
▁기다 리는</w>
▁구 의</w>
하 겠
통신 은</w>
융 합
영 화</w>
였 으며</w>
들 고</w>
▁한 꺼
▁페이스북 에</w>
▁취 지로</w>
▁진행 되며</w>
▁주변 의</w>
▁졸 업</w>
▁이후 로</w>
▁어 느
▁아래 와</w>
▁식 약
▁복 구
▁물 질
▁명 절</w>
▁마련 할</w>
▁노 선</w>
▁금 천
▁관악 구</w>
▁관광객 들이</w>
9 2</w>
활 성
팅 이</w>
이 죠</w>
부 르
년 보다</w>
▁하나 를</w>
▁포 르
▁청 렴
▁주어 진다</w>
▁인사 들이</w>
▁아이 들은</w>
▁설 계</w>
▁서 양
▁상황 은</w>
▁비핵 화를</w>
▁법 안</w>
▁범 행</w>
▁밝혀 졌다</w>
▁로 버
▁국민 들의</w>
▁교육 은</w>
주 도</w>
제 에서</w>
스 카
마 켓
루 가</w>
▁확 립
▁폭 력
▁타 임
▁추진 해</w>
▁청 취
▁창 립
▁자랑 하는</w>
▁자 격이</w>
▁입 건
▁예 비</w>
▁시설 물</w>
▁북 측</w>
▁방문 을</w>
▁미 친</w>
▁모 은</w>
▁노 후</w>
▁개선 에</w>
▁갈 등</w>
▁가 평
▁5 3</w>
예 산</w>
여 자
상 담</w>
▁청년 들이</w>
▁책 이</w>
▁전달 했다</w>
▁전 원
▁어렵 습니다</w>
▁법 조
▁무 조건</w>
▁면 에서</w>
▁때 문</w>
▁될 지</w>
▁도착 할</w>
▁다 해</w>
▁뉴 스</w>
▁높아 질</w>
▁내 리고</w>
▁게 스트
▁개 편</w>
편 으로</w>
편 에</w>
정책 에</w>
마 의</w>
갑 니다</w>
▁친구 는</w>
▁취 할</w>
▁체계 적으로</w>
▁참가 하는</w>
▁중 대한</w>
▁전통 적인</w>
▁잠 깐</w>
▁인스타 그램
▁이후 에는</w>
▁위험 을</w>
▁연 설
▁어 릴</w>
▁안 고</w>
▁사랑 의</w>
▁부 당한</w>
▁미래 에</w>
▁도 민의</w>
▁금 지</w>
▁구성 해</w>
7 9</w>
현 장</w>
췄 다</w>
셨 나요</w>
그 러
▁홈페이 지를</w>
▁프로그램 으로</w>
▁패 널
▁택 시를</w>
▁커피 를</w>
▁중 이에요</w>
▁주 거</w>
▁제공 하기</w>
▁입 주</w>
▁입 장에서</w>
▁임 차
▁음식 물
▁소프트 웨어</w>
▁상태 에</w>
▁벤 투</w>
▁받았 다고</w>
▁막 아
▁냉 장
▁깔 끔
e d</w>
해주 고</w>
청 사</w>
조 로</w>
서 야</w>
공 연</w>
곳 의</w>
고 등학교</w>
경 의</w>
▁행 위
▁할 게요</w>
▁추 적
▁처리 할</w>
▁진 화
▁지 사</w>
▁지 니
▁중 증
▁자 금이</w>
▁여 자가</w>
▁양 질의</w>
▁아 나
▁실시 했다</w>
▁새 마을
▁분석 해</w>
▁법 정</w>
▁등장 하는</w>
▁동 행
▁독립 운동
▁남아 있
▁그러 한</w>
7 3</w>
었 으며</w>
야 구</w>
쉽 게</w>
로 드
렸 는데</w>
결 과가</w>
개 에</w>
▁후보 를</w>
▁한꺼 번에</w>
▁지 갑
▁제공 한</w>
▁전반 적으로</w>
▁이 중
▁예방 을</w>
▁업체 의</w>
▁순 위</w>
▁부 서의</w>
▁김동 연</w>
▁관계 자가</w>
▁고위 급</w>
▁고려 한</w>
▁간담 회를</w>
크 에</w>
콘 서
이 탈
우 며</w>
면 은</w>
▁한 화</w>
▁탈 출
▁장 소에</w>
▁위안 부</w>
▁언제 든지</w>
▁신 생
▁시 범</w>
▁샘플 을</w>
▁대학 이</w>
▁대학 의</w>
▁뉴 스
▁나 무</w>
▁교육 의</w>
▁공유 하는</w>
학생 들이</w>
측 의</w>
에 다</w>
실 장은</w>
로 에서</w>
▁허 위</w>
▁통 화</w>
▁토 로
▁제기 되고</w>
▁전 송
▁자발 적으로</w>
▁자료 의</w>
▁있었 어</w>
▁아 세
▁아 닐</w>
▁속 도
▁사 안
▁받 으면</w>
▁미 용
▁무 릎
▁구 급
▁경기도 에서</w>
▁K BO</w>
포 럼</w>
움 으로</w>
업체 의</w>
보조 금</w>
기업 에</w>
구청 장이</w>
검 사를</w>
▁크 기</w>
▁조 율
▁전체 적으로</w>
▁재 해
▁위 로
▁비롯 하여</w>
▁블라 디
▁보 유</w>
▁단체 에</w>
▁나 지</w>
▁관 중
▁경기북 부
8 2</w>
책 이</w>
부 산
▁처벌 을</w>
▁줄어 드는</w>
▁식 당
▁시민 의</w>
▁속 에는</w>
▁소개 하고</w>
▁성황 리에</w>
▁선 을</w>
▁생태 계</w>
▁도시 의</w>
▁늘 리는</w>
▁깨 닫
▁과 학</w>
▁5 6</w>
축구 연맹</w>
실 장</w>
▁휴 식을</w>
▁형 식으로</w>
▁주시 겠어요</w>
▁조 짐
▁입 소
▁인 식</w>
▁이외 의</w>
▁요청 이</w>
▁신선 한</w>
▁속 도로</w>
▁불확실 성이</w>
▁무엇 인가요</w>
▁마 라
▁런 던
▁단 계</w>
▁내용 과</w>
▁금감 원은</w>
이었 어</w>
문 제를</w>
렘 방</w>
공 원
경 원</w>
▁휴 게
▁한 복
▁편 입
▁청 구</w>
▁전국 에</w>
▁이 밖에</w>
▁오늘 도</w>
▁알려 지면서</w>
▁서비 스는</w>
▁사무 실</w>
▁발 매
▁문제 점을</w>
▁들여 다
▁돌 봄
▁다음 으로</w>
▁노 조가</w>
▁꼽 았다</w>
▁김 씨</w>
▁그 날</w>
▁각 자의</w>
▁가 방을</w>
0 3</w>
투 를</w>
층 으로</w>
연 은</w>
대 통
구 속</w>
공 유
▁연 계</w>
▁억 제
▁성폭 행</w>
▁생 물
▁사유 를</w>
▁부총 리</w>
▁베 를
▁뭐 가</w>
▁메르 스</w>
▁뛰어 넘
▁돼 서</w>
▁남 자는</w>
▁공부 하는</w>
P S</w>
아 라
변 호
되 기를</w>
그룹 의</w>
▁파 주</w>
▁출 장
▁직원 들의</w>
▁중소기업 이</w>
▁위 기</w>
▁연구 개발</w>
▁실 감
▁사용 료</w>
▁많 아요</w>
▁마련 하고</w>
▁나타 냈다</w>
▁기독 교</w>
▁권 장
▁교육 에</w>
▁걸 리는</w>
▁감안 해</w>
▁5 9</w>
이 에서</w>
연구 원이</w>
에 야</w>
사 회에</w>
니 스</w>
가 도</w>
▁출연 한</w>
▁주최 한</w>
▁저 질
▁이어 져</w>
▁이사 장은</w>
▁이바 지
▁이 성
▁실 력이</w>
▁부회 장이</w>
▁보 일
▁목 적을</w>
e t
수 급
생 은</w>
살 이</w>
르 기</w>
▁환경 부</w>
▁학생 과</w>
▁취업 자</w>
▁최 적
▁철 회
▁지 루
▁자신 감을</w>
▁이 태
▁원 산
▁열 람
▁시 점
▁서 둘
▁불 필
▁분 담
▁본 사</w>
▁무 척</w>
▁메 인</w>
▁마이 크로
▁독 자
▁노무 현</w>
▁금메 달을</w>
▁귀 추가</w>
▁거 리에</w>
페 이</w>
지역 을</w>
예 방
등 에</w>
대 회에서</w>
기간 에</w>
구 인</w>
▁해 주는</w>
▁전시 회</w>
▁적용 할</w>
▁손흥 민이</w>
▁선 적
▁벌어 졌다</w>
▁번 호를</w>
▁리 얼
▁동 네</w>
▁당 첨
▁넷 플릭
▁기 성
▁규정 하고</w>
▁공무 원은</w>
▁공 장을</w>
O U</w>
8 6</w>
탄 소</w>
쳐 서</w>
쪽 의</w>
스 틱
개 사가</w>
▁활발 하게</w>
▁푸 틴</w>
▁평 창
▁판단 해</w>
▁충 실
▁차량 의</w>
▁중국 인</w>
▁중 재
▁임 원</w>
▁우 린</w>
▁손 쉽게</w>
▁소 장
▁바 라</w>
▁메 일</w>
▁디스플 레이</w>
▁듯 하다</w>
▁댓 글</w>
▁대 회가</w>
▁1 30</w>
플 러
프 레
찰 을</w>
제 도를</w>
인 들과</w>
음 식
강 에</w>
▁합 병
▁평 소
▁태권 도</w>
▁제주 도
▁적 어</w>
▁위 법
▁왜 곡
▁시원 한</w>
▁시 점에</w>
▁선보 일</w>
▁생산 하는</w>
▁박물 관</w>
▁바꾸 는</w>
▁만 만
▁독 립</w>
▁나 쁘
▁기간 은</w>
▁금액 은</w>
▁건강 보험
투 표
이 익</w>
으 려고</w>
시 킨다</w>
시 장과</w>
만 명을</w>
나 갈</w>
▁티켓 을</w>
▁컬 러
▁취약 한</w>
▁최 대의</w>
▁주 십시오</w>
▁입 장</w>
▁오프라 인</w>
▁어머니 가</w>
▁어렵 다고</w>
▁어 때</w>
▁아닌 가</w>
▁부드러 운</w>
▁부 상으로</w>
▁달 콤
▁늘 면서</w>
▁뉴 질
▁급격 한</w>
▁F TA</w>
현 은</w>
상 황</w>
구청 장은</w>
관리 법</w>
▁휴 가를</w>
▁해 산
▁표 를</w>
▁태 어난</w>
▁지나 면</w>
▁의 원과</w>
▁외 환
▁스타 일
▁못 한다</w>
▁노 사</w>
▁나오 면</w>
▁구매 한</w>
▁광주 시</w>
▁고 장</w>
201 6</w>
째 를</w>
진 다면</w>
주시 겠어요</w>
앞 으로</w>
세 계</w>
사 고를</w>
배 우</w>
물 질
리 티</w>
▁휴대 폰</w>
▁지원 대상
▁주도 하는</w>
▁조별 리그</w>
▁적 힌</w>
▁신용 카드</w>
▁신속 히</w>
▁설립 된</w>
▁살 짝</w>
▁분 명</w>
▁발표 할</w>
▁바 다</w>
▁마 드리
▁동아 리</w>
▁동 맹
▁네이 버</w>
▁널 널</w>
▁개정 안이</w>
▁K B</w>
o m
7 4</w>
현 재</w>
천 이</w>
주 의를</w>
숙 한</w>
수 입
기 보다는</w>
▁해 체
▁한 미</w>
▁포함 되어</w>
▁파 워
▁코 리아</w>
▁추진 한</w>
▁주 축
▁전 주
▁저 작
▁이외 에도</w>
▁예 쁜</w>
▁아이 폰</w>
▁수 습
▁생 명을</w>
▁보 이며</w>
▁반영 해</w>
▁미 성
▁모델 이</w>
▁누 릴</w>
▁김 희
▁기관 에</w>
▁고 도
▁고 교
▁결정 된</w>
▁가 짜
i n</w>
호 한</w>
피 스</w>
진 으로</w>
오 를</w>
시행 하여야</w>
사 회가</w>
라 인</w>
념 을</w>
▁폐 지</w>
▁크 리
▁커 커</w>
▁출 퇴
▁추 후</w>
▁정규 직</w>
▁정 도는</w>
▁저소득 층</w>
▁작 년에</w>
▁이미 지가</w>
▁음 성
▁위험 한</w>
▁앞 서
▁아니 하다</w>
▁사건 으로</w>
▁밝 혀</w>
▁길 에</w>
크 에서</w>
철 을</w>
이었 으나</w>
부 터
디자 인
공 급
▁한 창
▁콘 셉
▁케이 팝
▁참석 하는</w>
▁지 주
▁증 시</w>
▁중 개
▁정 기</w>
▁이해 찬</w>
▁위 주의</w>
▁운영 되고</w>
▁용산 구</w>
▁심 장
▁수 확
▁뿐 이다</w>
▁뜨 거
▁되 찾
▁김 명
▁기자회견 에서</w>
▁강 행
▁강 의를</w>
▁강 사
▁가 지는</w>
7 8</w>
품 으로</w>
처 와</w>
신청 서를</w>
소 장</w>
계 에서는</w>
▁폭 으로</w>
▁재 차</w>
▁용 이
▁시 기가</w>
▁소비 자들의</w>
▁성 향
▁설치 를</w>
협 동
시 한</w>
세 와</w>
석 으로</w>
색 의</w>
분 과</w>
마 트
년 마다</w>
▁환 자
▁확산 되고</w>
▁프로 세
▁페스티 벌
▁체결 했다</w>
▁정신 건강
▁점 심</w>
▁인 하</w>
▁음 료
▁완 전</w>
▁예 배
▁송 치
▁상 정
▁상 속
▁목 적이</w>
▁들 여</w>
▁대한 항공</w>
▁내용 으로</w>
▁건 물을</w>
▁갔 습니다</w>
M S</w>
전 용
은 이</w>
안 정
더 라고요</w>
는 지에</w>
내 지</w>
▁회 원들이</w>
▁해수 욕
▁해 보
▁하나 님이</w>
▁판 정을</w>
▁투자 자</w>
▁차지 한</w>
▁제출 을</w>
▁전략 이</w>
▁일어 날</w>
▁이루 는</w>
▁올 릴</w>
▁예 전에</w>
▁앱 을</w>
▁만나 서</w>
▁동 성
▁답 을</w>
▁노조 는</w>
▁기획 예산
▁기자 간담
▁과 기
▁공 격을</w>
하 다며</w>
플 루
밖 에도</w>
리 조
는 지는</w>
▁후보 자</w>
▁후 속
▁피 부에</w>
▁포 스
▁조 종
▁절 차
▁자녀 를</w>
▁위반 한</w>
▁여러 분이</w>
▁안 방
▁시스템 이</w>
▁스타 벅
▁사업 비</w>
▁뷰 티</w>
▁분석 도</w>
▁떨어 질</w>
▁데 에</w>
▁달 한다</w>
▁너 희
▁국토 부는</w>
▁강제 징
▁감 수
8 9</w>
학생 이</w>
파 이
차 별</w>
이었 다고</w>
위 인</w>
와 서</w>
연 대</w>
대 체</w>
▁황교 안</w>
▁현 상을</w>
▁항공 기</w>
▁합 창
▁펼 칠</w>
▁탄 핵
▁청와 대는</w>
▁제 임
▁절 차에</w>
▁잡 을</w>
▁임 상
▁이끌 고</w>
▁육 성을</w>
▁위 험</w>
▁영 국
▁언론 이</w>
▁신 체</w>
▁소 리
▁서 식
▁비정규 직</w>
▁되었 고</w>
▁감사 하겠습니다</w>
I P</w>
팀 과</w>
투 어</w>
체 제</w>
▁확대 할</w>
▁축 제를</w>
▁챔피언 스
▁작업 에</w>
▁인 생을</w>
▁유 치</w>
▁웨 이
▁부 모</w>
▁봤 을</w>
▁발언 이</w>
▁맺 고</w>
▁레 드
▁들 었어요</w>
▁공 청
▁곳 도</w>
피 가</w>
조 사에</w>
부 장</w>
린 다는</w>
들 에게도</w>
기준 에</w>
가 치가</w>
▁홍보 를</w>
▁팀 은</w>
▁축 적
▁집 은</w>
▁짐 작
▁재 현
▁재 적
▁이 른다</w>
▁음주운 전</w>
▁상 응
▁병 원을</w>
▁로 봇</w>
▁당 국
▁다 를</w>
▁관리 하여야</w>
▁계획 이라고</w>
▁경기도 의회</w>
자 금을</w>
내 용
감 으로</w>
▁하 드
▁특 례
▁첫 째</w>
▁일어나 는</w>
▁어린이 집
▁신 발
▁매 장
▁극 심한</w>
▁그곳 에서</w>
▁교 회가</w>
▁공급 하는</w>
▁J TBC</w>
i v
T F</w>
훈련 을</w>
▁활 약을</w>
▁화웨 이</w>
▁헝 가
▁해 안
▁체결 한</w>
▁체 계를</w>
▁지정 할</w>
▁지 내고</w>
▁주장 한</w>
▁좋 게</w>
▁이메 일을</w>
▁양 도
▁아이 스크
▁심 화
▁식 물
▁스마트폰 을</w>
▁속 에서도</w>
▁선 박</w>
▁사 기
▁드 론</w>
▁돋보 이는</w>
▁대한 항공
▁담 배
▁내 려</w>
▁급 식
▁5 8</w>
o T</w>
7 6</w>
행 정</w>
위원 회와</w>
언 이</w>
션 에</w>
노 인
기관 에서</w>
공 을</w>
▁트위 터</w>
▁테 스트</w>
▁직 원의</w>
▁접수 한</w>
▁자 체를</w>
▁인 사가</w>
▁인 간</w>
▁위원 을</w>
▁우 호
▁양 육
▁시 흥
▁수도 권
▁성 수
▁비 율
▁바람 을</w>
▁미 치지</w>
▁목 적</w>
▁도입 한</w>
▁도 덕
▁날 씨
▁기록 하고</w>
▁교육 부는</w>
▁개 관
해 볼</w>
적 이라는</w>
저 가</w>
자 본
셨 어요</w>
본부 장은</w>
미 널
로 드</w>
라 를</w>
돌 이</w>
▁환경 에서</w>
▁클래 식</w>
▁정 권</w>
▁일상 생활
▁의 정
▁손 으로</w>
▁소 통</w>
▁소 수
▁소 매
▁보 전
▁발생 하면</w>
▁많 지만</w>
▁능 력</w>
▁걸 로</w>
▁9 5</w>
지 난
마 크</w>
나 와</w>
군 기
▁참여 하여</w>
▁작 은
▁자 부
▁의결 을</w>
▁연 결</w>
▁솔 로</w>
▁소 관
▁성 인
▁산 불</w>
▁보 게</w>
▁발표 된</w>
▁받았 던</w>
▁맞 춘</w>
▁등장 했다</w>
▁대 주
▁놀라 운</w>
▁김 의
▁개 가</w>
A E</w>
2 000</w>
희 망
해 보고</w>
합 창
학 자</w>
아 웃
반 도
드 럽
대 응
▁항 공</w>
▁크 다고</w>
▁지방자치 단체</w>
▁지난해 보다</w>
▁인 민
▁운전 자가</w>
▁요 금을</w>
▁여 동
▁어 렸을</w>
▁아 메
▁벌 이는</w>
▁방 북</w>
▁몰 려</w>
▁만 드
▁떨어 졌다</w>
▁되 는지</w>
▁농 산물</w>
▁골 든
혁 신</w>
타 이
지역 으로</w>
이 므로</w>
음 은</w>
어 졌다</w>
실 적</w>
시간 은</w>
봐 도</w>
되었 을</w>
거래 가</w>
▁한국 인
▁학생 을</w>
▁학생 은</w>
▁하 도
▁초 청</w>
▁일제 히</w>
▁일 정한</w>
▁이뤄 진다</w>
▁이 의
▁언제 쯤</w>
▁아 카데
▁스티 븐</w>
▁수행 하기</w>
▁보고 를</w>
▁법 원은</w>
▁미 지
▁리 그
▁느 낀</w>
▁높아 진</w>
▁교 사가</w>
▁교 도
▁공 휴
▁검 증</w>
▁7 2</w>
▁5 7</w>
N A</w>
화 폐</w>
제 조
연구 원은</w>
업 소</w>
내 용을</w>
▁한 동안</w>
▁평화 의</w>
▁커 플
▁치료 가</w>
▁치 고</w>
▁이 혼
▁역 사가</w>
▁여 유가</w>
▁언제 든</w>
▁신 축
▁부총 리는</w>
▁땅 을</w>
▁관 점에서</w>
▁결정 하는</w>
▁결 성
▁감사 드립니다</w>
i g
재 생</w>
미세먼 지</w>
▁현 장의</w>
▁추억 을</w>
▁참석 할</w>
▁조 회
▁장 병
▁입 맛
▁일 로</w>
▁인정 한</w>
▁이 병
▁워싱 턴</w>
▁손 해를</w>
▁소통 을</w>
▁소 리</w>
▁생 성
▁미얀 마</w>
▁무 사
▁돌아 온</w>
▁꾸준 한</w>
▁궁금 합니다</w>
▁고 양</w>
▁고 기
▁계획 에</w>
▁경기북 부</w>
▁6 3</w>
O S</w>
트 로
열 을</w>
분 석
바 다
리 오</w>
거 리는</w>
▁호텔 에</w>
▁합 동</w>
▁질 을</w>
▁지 체
▁지 상</w>
▁주민 들은</w>
▁정 비</w>
▁저 기</w>
▁자 문을</w>
▁자 고</w>
▁임 신
▁이 었다</w>
▁의 식을</w>
▁운 행</w>
▁소 홀
▁선수 의</w>
▁살 아</w>
▁부 드럽
▁배경 을</w>
▁받아들 여
▁메 일로</w>
▁나타 날</w>
▁김 광
▁구 의
▁공 산
캐 피
체 인</w>
정책 이</w>
수 다</w>
령 에</w>
▁휴대전 화</w>
▁핸드 폰
▁하 고자</w>
▁플랫폼 을</w>
▁커 지는</w>
▁짓 고</w>
▁여 건이</w>
▁소 형</w>
▁세 상</w>
▁설치 해</w>
▁생 일
▁삼 아</w>
▁사회 에서</w>
▁달러 를</w>
▁노하우 를</w>
▁개최 하는</w>
▁가 파
▁가 요</w>
한 테
객 들이</w>
▁해 줄</w>
▁프랑 스
▁총 리의</w>
▁차 로</w>
▁중 이며</w>
▁중 이라고</w>
▁중 의</w>
▁의 거</w>
▁운 용</w>
▁여 파로</w>
▁샘 플</w>
▁상승 세를</w>
▁붙잡 혔다</w>
▁부 서</w>
▁백화 점</w>
▁미래 의</w>
▁못 해서</w>
▁면 접</w>
▁깨끗 한</w>
▁근본 적인</w>
▁교육 과</w>
▁교 수의</w>
▁경 로
해 달라고</w>
총 이</w>
▁화장 실</w>
▁쪽 에</w>
▁중심 에</w>
▁좋 다고</w>
▁자유 로운</w>
▁자 산</w>
▁자 라
▁임 원
▁인터넷 을</w>
▁인사청 문
▁어렵 고</w>
▁약 한</w>
▁아직 까지</w>
▁심의 하기</w>
▁수요 를</w>
▁수 정</w>
▁사 태</w>
▁베이 징</w>
▁박원 순</w>
▁모양새 다</w>
▁매 번</w>
▁마련 을</w>
▁리 모델
▁대 회에</w>
▁농 업</w>
▁결혼 을</w>
▁감소 했다</w>
▁가벼 운</w>
▁L ED</w>
자 료
셨 으면</w>
서 에는</w>
교육 청이</w>
▁확대 에</w>
▁합 니까</w>
▁조 작</w>
▁이해 관계
▁실 시</w>
▁시 기</w>
▁선정 해</w>
▁면 허
▁동 의</w>
▁달 했다</w>
▁누 락
▁노 숙
▁길 게</w>
▁기본 적으로</w>
▁걸 렸다</w>
S A</w>
O C</w>
피 해</w>
지 난</w>
오 가</w>
시 민</w>
보 전
개월 이</w>
▁택 배
▁체험 할</w>
▁죽 은</w>
▁정 수
▁요구 에</w>
▁신 기
▁시작 한다</w>
▁쉬 는</w>
▁사업 장</w>
▁무 대에서</w>
▁마 침
▁독 일의</w>
▁단 단
▁놓 은</w>
▁김 혜
▁구 청</w>
전 부터</w>
자 로부터</w>
광 고
고 있다</w>
▁확대 되고</w>
▁확 산</w>
▁혁신 을</w>
▁티 켓</w>
▁콘서 트를</w>
▁추가 적인</w>
▁지난 달
▁주 의를</w>
▁조 세
▁정 말로</w>
▁장소 로</w>
▁염 두에</w>
▁승 리</w>
▁선 수를</w>
▁불 리
▁봐 요</w>
▁방법 에</w>
▁매 뉴
▁단 백
▁눈 빛
▁냄새 가</w>
▁그렇 군요</w>
▁국무 부</w>
▁골 프</w>
▁경험 과</w>
▁거 라</w>
평 생
지 거나</w>
심 은</w>
마 이
▁흐름 이</w>
▁회담 을</w>
▁평생 교육
▁진 주
▁증가 로</w>
▁좋아 서</w>
▁정 하고</w>
▁원 전</w>
▁연 봉
▁사라 진</w>
▁발 라
▁못 했어요</w>
▁뜨 겁
▁대응 을</w>
▁다큐 멘터
▁관계 없이</w>
8 7</w>
품 에</w>
재 인</w>
생 명
바 람
▁한 식</w>
▁펀 드</w>
▁캠 퍼
▁촬영 한</w>
▁처리 하기</w>
▁참 석</w>
▁정보 화
▁전 원이</w>
▁아 내</w>
▁수 록
▁문화 예술</w>
▁몰 래</w>
▁모양 의</w>
▁마 르
▁나 뉘
▁계 시
화 학
참 여</w>
수 지</w>
미 로</w>
납 니다</w>
관 들이</w>
▁처 한</w>
▁지키 는</w>
▁제 이
▁있 다
▁인 적
▁영등 포구</w>
▁시행 할</w>
▁쉴 쉴</w>
▁수 주
▁선고 받았다</w>
▁모 집</w>
▁맥 주</w>
▁농림 축산
▁그 쳤다</w>
▁개인 정보</w>
▁강 구
직 원</w>
즈 와</w>
일자 리
박 을</w>
교 류</w>
▁후보 로</w>
▁평 화를</w>
▁카 운
▁조 건으로</w>
▁잡 는</w>
▁이루어 진</w>
▁연 극</w>
▁알 렸다</w>
▁소비 자의</w>
▁비용 의</w>
▁번 의</w>
▁방안 도</w>
▁방식 의</w>
▁명 품</w>
▁디 저
▁도 의
▁넘 겨진</w>
▁내 일
▁기 금을</w>
▁IC T</w>
▁199 8</w>
9 4</w>
팔 렘방</w>
층 은</w>
주 지</w>
장 들이</w>
듭 니다</w>
두 가</w>
눈 에</w>
▁행복 하게</w>
▁초 대</w>
▁지 시를</w>
▁자 존
▁이벤 트가</w>
▁이벤 트
▁업계 에서는</w>
▁승 리가</w>
▁서 부
▁본격 화
▁법 원의</w>
▁모 자
▁대상 에</w>
▁너 한테</w>
▁개인 정보
▁가족 들과</w>
▁6 8</w>
터 에서</w>
컨 설
졌 는데</w>
적 이
업체 에</w>
시 리
스럽 다</w>
밸 리</w>
미 니
마 케
당 시</w>
▁행복 을</w>
▁핀 테크</w>
▁출 품
▁쪽 은</w>
▁장 애</w>
▁이어 지
▁실시 하여야</w>
▁시 위
▁선 고</w>
▁상 세
▁부 근
▁기록 이</w>
▁규 명
▁괴 롭
▁가능 하게</w>
▁F A</w>
화 폐
통 은</w>
석 에서</w>
드라 마</w>
대표 가</w>
▁협 의가</w>
▁한 류가</w>
▁탈 퇴
▁줘 줘</w>
▁젊은이 들이</w>
▁저 한테</w>
▁일본 인</w>
▁요즘 은</w>
▁외 면
▁오 전에</w>
▁여 당</w>
▁에너 지를</w>
▁숨 지고</w>
▁세 련
▁버 스가</w>
▁방 식</w>
▁받았 고</w>
▁문제 다</w>
▁기 쁘
▁그 중
▁공정 위</w>
▁고객 을</w>
▁가족 은</w>
o o
T O</w>
조 와</w>
에 스
분 부터</w>
▁협 상에</w>
▁출동 한</w>
▁청 탁
▁차 에</w>
▁제품 과</w>
▁재 능
▁이 낙
▁어울 리는</w>
▁어 때
▁신 도
▁슬 로
▁분위기 다</w>
▁바닥 에</w>
▁문 건</w>
▁노 선
▁경 력이</w>
▁건축 물</w>
회의 가</w>
보 와</w>
범 위
르 며</w>
기업 과</w>
교 사</w>
▁확인 해보
▁자 에게</w>
▁양성 평
▁빨 간
▁법 제
▁배 운</w>
▁말 했습니다</w>
▁리더 십
▁높아 졌다</w>
▁나 랑</w>
▁격 차가</w>
▁가 능</w>
호텔 에서</w>
타 가</w>
재 와</w>
유치 원</w>
외 국
는 다면</w>
급 여</w>
▁환 승
▁확보 하고</w>
▁할 리우
▁정상회담 에서</w>
▁전략 적</w>
▁이 겨
▁쏠 린다</w>
▁생각 했다</w>
▁사업 자</w>
▁벌어 지는</w>
▁때 의</w>
▁구 단</w>
▁공무 원을</w>
▁경 연
▁거래 소</w>
e t</w>
해야 만</w>
쪽 이</w>
지방자치 법</w>
운 송
마 는</w>
니 를</w>
격 으로</w>
거 를</w>
▁회 의가</w>
▁필 수</w>
▁폴 더
▁포 장</w>
▁펼 치는</w>
▁트 로
▁탄탄 한</w>
▁탄력 근로
▁커 버
▁책 정
▁저 출산</w>
▁인터 뷰</w>
▁원내 대표</w>
▁요 구</w>
▁아래 로</w>
▁됐 고</w>
▁동 대문
▁감 추
▁가까 워
▁K TX</w>
형 문화
포 럼
정책 의</w>
적 이었다</w>
사업 자</w>
등 록</w>
공간 을</w>
가 기</w>
▁흔 적이</w>
▁한 류의</w>
▁하나 다</w>
▁평범 한</w>
▁있었 기</w>
▁임 신</w>
▁이상 한</w>
▁이낙 연</w>
▁이 해</w>
▁우리 도</w>
▁우 려</w>
▁요 청</w>
▁영화 에</w>
▁시 책
▁시 위를</w>
▁살아 남
▁사용 료를</w>
▁뿌 리
▁빈 번
▁묘 사
▁머 리가</w>
▁마 쳤다</w>
▁띈 다</w>
▁뒤 에는</w>
▁둘러싸 고</w>
▁돼 야</w>
▁구축 을</w>
▁19 70</w>
9 8</w>
환경 이</w>
여 행을</w>
사 노
불 을</w>
보 드</w>
문 학
리 즘
니 어</w>
강 의</w>
값 을</w>
▁합 법
▁페스티 벌</w>
▁크 기가</w>
▁차별 화된</w>
▁지원 한</w>
▁중 점
▁주 의가</w>
▁조 기에</w>
▁장 소가</w>
▁자 제
▁업 체를</w>
▁억 울
▁양 산
▁양 극
▁수상 한</w>
▁생각 할</w>
▁분 산
▁바 가</w>
▁맞 나요</w>
▁떨어 뜨
▁등 이다</w>
▁단 위
▁다 문화</w>
▁늘어나 면서</w>
▁기억 에</w>
▁구성 하고</w>
▁검 은</w>
u r
I C</w>
E C</w>
행 사가</w>
해주 시
인터 넷</w>
위원 회
업 자</w>
만 달러</w>
▁확보 할</w>
▁하 다가</w>
▁프로 듀
▁특별 법</w>
▁최 적의</w>
▁진단 했다</w>
▁지방 세</w>
▁지 붕
▁전문가 들의</w>
▁자체 적으로</w>
▁유 독</w>
▁원 인은</w>
▁역 사와</w>
▁얻 는</w>
▁솔직 히</w>
▁북 부</w>
▁방송 인</w>
▁물 량이</w>
▁말 해
▁마련 된다</w>
▁동 호
▁대법원 장</w>
▁깨 달
▁과반 수의</w>
▁과거 에</w>
▁경고 했다</w>
▁8 4</w>
▁6 1</w>
포 의</w>
자 다</w>
일 지</w>
운 을</w>
욕 을</w>
상 승
복 무
바 이</w>
면 과</w>
니 는</w>
고 등학교
▁혐의 에</w>
▁토트 넘
▁채 널</w>
▁지원 과</w>
▁중소 벤처기업
▁중 지
▁장 관을</w>
▁일으 킨</w>
▁일방 적으로</w>
▁어때 요</w>
▁약속 했다</w>
▁않았 을</w>
▁분야 별</w>
▁동 장은</w>
▁기존 에는</w>
▁공 항에</w>
▁고 지
▁경 주
▁결과 다</w>
▁건 립</w>
▁가 슴</w>
A R</w>
9 3</w>
해주 시면</w>
토 론
철 이</w>
육 성
소 유
서 울</w>
과 장이</w>
▁한국 당이</w>
▁통일 부</w>
▁태 어
▁추 측
▁증거 가</w>
▁제 고
▁전문 적인</w>
▁운영 과</w>
▁않 자</w>
▁실질 적</w>
▁스타 디
▁사회적 경제
▁사람 들도</w>
▁부회 장</w>
▁보고 서에</w>
▁민 정수
▁모 르고</w>
▁만족 도가</w>
▁뜻 으로</w>
▁높아 지는</w>
▁나 눴
8 1</w>
지역 은</w>
와 도</w>
업 체를</w>
셨 습니다</w>
사 랑</w>
라 와</w>
규 정</w>
▁현 행
▁행사 에서</w>
▁크 루
▁초 등학교
▁적용 되는</w>
▁인 력이</w>
▁우리나 라는</w>
▁오늘 날</w>
▁연구 가</w>
▁여성 가족
▁야 외</w>
▁알 레
▁아 웃
▁스 테
▁성 분이</w>
▁비상 대책
▁복 용
▁많 기</w>
▁막 판</w>
▁두 는</w>
▁되 어야</w>
▁동 물</w>
▁넣 은</w>
▁공무 원들이</w>
▁공개 적으로</w>
회 사가</w>
화 해</w>
하 셔야</w>
조 에서</w>
설 에</w>
됐 는데</w>
나 가는</w>
고속 도로</w>
▁포 괄
▁페널 티
▁출 간
▁축 제는</w>
▁추천 한</w>
▁채 무
▁지속가능 한</w>
▁얘 기가</w>
▁애 로
▁않았 어</w>
▁시 일</w>
▁소 폭</w>
▁세 대</w>
▁사 례</w>
▁범 위
▁문 건을</w>
▁도 약
▁대 가로</w>
▁근 처</w>
▁권 력
▁계속 되고</w>
▁걸 어</w>
▁거 쳐야</w>
▁개최 할</w>
▁강동 구</w>
▁갔 어요</w>
언 을</w>
신 청</w>
사 항에</w>
발 표
▁휴 가</w>
▁판단 한</w>
▁테 크
▁촬영 을</w>
▁정 례
▁용 역
▁연 금
▁알아 야</w>
▁소 지
▁부족 해</w>
▁마 련</w>
▁동남 아</w>
▁대표이 사</w>
▁공 장에서</w>
증 과</w>
주 간</w>
에너 지
밀 하게</w>
민 족
대 리
▁진행 되었다</w>
▁주 유
▁종사 자</w>
▁자율주 행
▁악 용
▁아이 들</w>
▁시 에는</w>
▁서비 스에</w>
▁생 일</w>
▁비 주
▁방 을</w>
▁떨어 지고</w>
▁등 급
▁돕 고</w>
▁그 들에게</w>
▁가능 성에</w>
a m
C EO</w>
9 6</w>
9 00</w>
하 네요</w>
출 이</w>
차 전에서</w>
절 차</w>
국 장이</w>
▁혼자 서</w>
▁현대 차</w>
▁합의 했다</w>
▁콘텐츠 가</w>
▁주택 을</w>
▁이 론
▁어 제
▁수 의
▁사용 하여</w>
▁사 육
▁부 상</w>
▁발표 하고</w>
▁문 자</w>
▁메시 지가</w>
▁됐 다는</w>
▁동 두
▁대부 분은</w>
▁감독 과</w>
으 시
능 력을</w>
나 라</w>
▁허 락
▁통 일</w>
▁이곳 을</w>
▁위 치</w>
▁신 세계
▁시민 단체</w>
▁스튜 디오
▁사랑 이</w>
▁들어 오는</w>
▁대표 적이다</w>
▁느끼 게</w>
▁기대 했다</w>
▁금 속
▁귀 사의</w>
▁과 징
▁과 제
▁고 창
▁개최 하고</w>
▁갖 는다</w>
트 랙
청소 년</w>
오 염</w>
아 와</w>
백 이</w>
드 려요</w>
도 지
단체 와</w>
기준 은</w>
▁후보 자가</w>
▁회담 이</w>
▁확인 되지</w>
▁확대 하는</w>
▁티 셔
▁커 지면서</w>
▁측면 이</w>
▁중요 합니다</w>
▁중 단</w>
▁정신 이</w>
▁재 건축</w>
▁일본 을</w>
▁여야 가</w>
▁아이 들에게</w>
▁세 우고</w>
▁상 고
▁삶 에</w>
▁분야 를</w>
▁부문 에서</w>
▁벨 기에</w>
▁민 생
▁도 대체</w>
▁담 았다</w>
▁교 류가</w>
▁공항 에서</w>
▁걱 정</w>
▁간 사</w>
협의 체</w>
자 산</w>
셀 로
보 디
▁표 기
▁처음 부터</w>
▁주관 부서의</w>
▁인간 이</w>
▁유 대
▁숨 졌다</w>
▁성 남</w>
▁선생 님이</w>
▁상 주
▁박 용
▁민주평화 당</w>
▁모르 겠다</w>
▁멤버 들이</w>
▁매출 을</w>
▁맑 은</w>
▁단 기</w>
▁높 다고</w>
▁금 연
▁그녀 에게</w>
▁군 사</w>
l e</w>
e s</w>
9 7</w>
지 에는</w>
줄 게</w>
연 구</w>
비 한</w>
문화 예술
가 정
▁활 력을</w>
▁확대 해</w>
▁한 계를</w>
▁피 할</w>
▁프랜차이 즈</w>
▁집 값</w>
▁중 으로</w>
▁조정 할</w>
▁접근 이</w>
▁월 요일에</w>
▁썼 다</w>
▁산 출
▁불 참
▁먹 은</w>
▁득 점
▁두 되</w>
▁논 란</w>
▁노 회
▁나 경원</w>
▁김의 겸</w>
▁개발 하고</w>
▁감독 을</w>
u n
해 서도</w>
종 은</w>
전 에는</w>
스 턴
산업 단
결 제</w>
▁힘들 다</w>
▁확 산을</w>
▁중 순
▁전문 성을</w>
▁자전거 를</w>
▁옮 겨</w>
▁세 웠다</w>
▁서 식의</w>
▁사우디 아라
▁부 부
▁면 담
▁등 재
▁단 말
▁나 옵니다</w>
▁꼬 집
▁기 사</w>
▁감사 담당
▁V R</w>
▁6 4</w>
천 의</w>
차 게</w>
성 장을</w>
서 만</w>
강 남
▁폭 넓
▁전 해</w>
▁적용 한</w>
▁자원 봉
▁완료 되면</w>
▁오 해
▁아직 은</w>
▁수 혜
▁뷰 티
▁박 병
▁목표 다</w>
▁모르 겠어</w>
▁다 리</w>
▁남 지</w>
▁교육 부가</w>
▁공 표
▁개 소
▁각 국의</w>
▁6 6</w>
▁199 9</w>
P O</w>
우 와</w>
시 즌
문 이다</w>
금 리를</w>
규 제</w>
▁확 정</w>
▁현대 중공
▁태 평
▁지원 사업</w>
▁지역 사회
▁좀 처럼</w>
▁정 교
▁접근 성이</w>
▁우선 적으로</w>
▁시나 리오
▁시 키
▁세 우
▁섬 섬</w>
▁선수 는</w>
▁산 학
▁부 지</w>
▁모습 에</w>
▁등장 한</w>
▁기 타
▁금 액</w>
▁국 악
▁것 인데</w>
▁것 만</w>
E CD</w>
션 으로</w>
보 좌
방 위
니 의</w>
과 학</w>
고 사</w>
▁확 률이</w>
▁화 성</w>
▁팬 들을</w>
▁커 진</w>
▁창 원</w>
▁집행 유
▁지난해 부터</w>
▁점검 하고</w>
▁전 격</w>
▁적 게</w>
▁재 산을</w>
▁장 벽
▁있으 신가요</w>
▁읽 어
▁이 밖에도</w>
▁음 주</w>
▁옷 옷</w>
▁어 머니</w>
▁신 년
▁시장 에서는</w>
▁수 색
▁쇼 핑</w>
▁서울 을</w>
▁서 대문구</w>
▁변경 할</w>
▁민 감
▁모 습</w>
▁리 조
▁담 보
▁남 부</w>
▁남 겼다</w>
▁금감 원</w>
▁관리 할</w>
▁과 세
▁공정 위는</w>
▁강조 하는</w>
▁감 각
P G</w>
해 지
품 과</w>
줄 이</w>
은 지</w>
시설 과</w>
비 리</w>
다 이
는데 다</w>
그룹 은</w>
▁협의 하여</w>
▁포 트
▁판단 하고</w>
▁카메라 를</w>
▁참 사</w>
▁차 질이</w>
▁찍 고</w>
▁지 위를</w>
▁주 행
▁적 당
▁저 하
▁이어 진다</w>
▁이 룬</w>
▁운 전</w>
▁알 고
▁비 공개</w>
▁분석 됐다</w>
▁마 포
▁라 운
▁떠 나는</w>
▁동 계
▁도시 재생
▁김 창
▁그 거</w>
▁국가 대표
▁거주 하고</w>
▁20 30</w>
하 고도</w>
포 스트</w>
만 명의</w>
라 스</w>
대 전</w>
나 도</w>
▁하 러</w>
▁표현 을</w>
▁포 용
▁코 레
▁촉구 하는</w>
▁중국 산</w>
▁일주 일에</w>
▁이르 기까지</w>
▁움직 임을</w>
▁움직 이는</w>
▁우 체
▁요 인으로</w>
▁예상 하고</w>
▁불어 넣
▁부 패
▁법 안을</w>
▁방 이</w>
▁물론 이고</w>
▁모 스크
▁드러 나</w>
▁독 점
함 은</w>
작 으로</w>
역 사
보 지</w>
력 도</w>
관 련
가 서</w>
▁행정 부가</w>
▁해결 하는</w>
▁표 명
▁편안 한</w>
▁캐릭 터
▁취 한</w>
▁참 모
▁즐 기고</w>
▁전 하는</w>
▁음악 이</w>
▁위 의</w>
▁원 해요</w>
▁열 쇠
▁엘리 베이
▁실 리
▁신 문은</w>
▁소 재로</w>
▁비 율은</w>
▁붙 어</w>
▁보호 하기</w>
▁방 안에</w>
▁반 해</w>
▁메 신
▁맛 볼</w>
▁동 양
▁더욱 더</w>
▁대학 을</w>
▁규정 된</w>
▁관객 들이</w>
적 이지</w>
인 구</w>
이었 다는</w>
였 어</w>
실 험
미디 어</w>
▁후보 의</w>
▁회 장을</w>
▁포 즈를</w>
▁취 지의</w>
▁총 장</w>
▁처 리가</w>
▁지정 하는</w>
▁조 화를</w>
▁저 와</w>
▁이어 지면서</w>
▁에어 컨
▁아프 리카
▁벌 금</w>
▁바 쁘
▁노 력</w>
▁너 도</w>
▁극 극</w>
▁그룹 의</w>
▁걱정 하지</w>
▁개 회
D C</w>
총 장</w>
차 적으로</w>
증 으로</w>
조 선</w>
스트 가</w>
변 을</w>
마 에</w>
로 워
디 가</w>
▁패스트 트랙</w>
▁특 허</w>
▁투 수</w>
▁탁월 한</w>
▁주 의</w>
▁읽 는</w>
▁신청 하여야</w>
▁신 도시</w>
▁불 꽃
▁무역전 쟁</w>
▁몰 입
▁먹 지</w>
▁대법 원이</w>
▁당 시
▁노래 가</w>
▁기 분</w>
▁기 대</w>
▁금리 인
▁공기 청정
▁고민 을</w>
▁겨 우</w>
▁강 렬한</w>
▁P D</w>
학 규</w>
지 나</w>
인 지를</w>
의 무
여 성</w>
사 진
무 장
란 이</w>
▁평생 학습
▁파 급
▁체험 을</w>
▁집 권</w>
▁주 면</w>
▁좁 은</w>
▁있었 으나</w>
▁이사 장</w>
▁은 평
▁아 트
▁성 명을</w>
▁서 면</w>
▁비 닐
▁불 합
▁독 려
▁도 착</w>
▁달라 진</w>
▁다루 는</w>
▁놓 인</w>
▁낙 동
▁같 은데요</w>
P GA</w>
하 긴</w>
단체 에</w>
▁환 호
▁해명 했다</w>
▁캠 핑
▁종 이
▁적용 된</w>
▁자 이
▁일본 과</w>
▁이 듬
▁이 견이</w>
▁유 가족
▁요 건을</w>
▁양 이</w>
▁양 성</w>
▁야 간</w>
▁앓 고</w>
▁안팎 의</w>
▁아니 할</w>
▁신 동
▁선 별
▁살 피
▁무 대가</w>
▁명 절
▁머 리
▁라 오
▁때문 이라는</w>
▁드라마 의</w>
▁당 뇨
▁눈 으로</w>
▁나라 에서</w>
▁꿈 이</w>
▁국가 정보
▁과 제</w>
▁경기도 를</w>
8 3</w>
하 듯</w>
일 본
신 에</w>
쇼 핑</w>
북 한
부 모
보고 서를</w>
들 보다</w>
두 는</w>
교육 법</w>
교 의</w>
공 사
▁하 죠</w>
▁취 업을</w>
▁출신 인</w>
▁주문 이</w>
▁주목 할</w>
▁제출 할</w>
▁정상 적인</w>
▁저 번에</w>
▁재미 를</w>
▁잘 하는</w>
▁인근 에서</w>
▁우 연히</w>
▁연 이어</w>
▁역사 상</w>
▁업 계는</w>
▁아나 운
▁아끼 지</w>
▁수 상</w>
▁생각 하면</w>
▁부산 에서</w>
▁보 복
▁반발 하고</w>
▁맞 서</w>
▁달 이</w>
▁꿈꾸 는</w>
▁기업 으로</w>
▁기반 의</w>
▁금융당 국이</w>
▁광 범위
▁강 점
9 1</w>
채 가</w>
나 에서</w>
가 들의</w>
▁효 과</w>
▁호 날
▁투자 자들이</w>
▁통 증이</w>
▁출시 한</w>
▁추 첨
▁증 시가</w>
▁정 황을</w>
▁잃 고</w>
▁인건 비</w>
▁인 물이</w>
▁이유 에</w>
▁이동 통신</w>
▁위해 서다</w>
▁원 장이</w>
▁역 전
▁어 떤
▁양 국의</w>
▁안전 관리</w>
▁씨 를</w>
▁승 부
▁수립 하여</w>
▁사업 계획
▁배송 이</w>
▁배 를</w>
▁맛 맛</w>
▁농림축산 식품
▁낯 선</w>
▁경제 부총
▁건 전
▁개 정을</w>
▁6 2</w>
회의 는</w>
할 게</w>
인 증
엔 날
신 문</w>
스 레</w>
▁편 리한</w>
▁토 마
▁카 드로</w>
▁처리 하는</w>
▁종 이</w>
▁잦 은</w>
▁있 겠습니다</w>
▁입 점
▁의미 로</w>
▁여 가
▁안 정을</w>
▁시 점에서</w>
▁산업 단지</w>
▁비타 민</w>
▁방송 에서</w>
▁반 입
▁밖 에서</w>
▁미 드
▁문 자
▁만들 어야</w>
▁도시 를</w>
▁내 년에는</w>
▁근로 자의</w>
▁강제징 용</w>
P C</w>
M C</w>
형 에</w>
주 의가</w>
정 도</w>
장 려
방 과</w>
▁휴 식
▁후 회
▁행정 적</w>
▁한 눈에</w>
▁판매 량이</w>
▁트 리
▁중 구가</w>
▁재 학</w>
▁입 법</w>
▁성공 할</w>
▁상 시</w>
▁사항 과</w>
▁분 양</w>
▁법 안이</w>
▁버튼 을</w>
▁반발 이</w>
▁명확 한</w>
▁들어 와</w>
▁두 산</w>
▁놀 러</w>
▁깊 게</w>
▁가볍 게</w>
중 국
월 말
우 로</w>
였 으나</w>
방 지
금 지</w>
공 학
곳 에서</w>
▁흐 르는</w>
▁특징 을</w>
▁태 어나
▁키 우
▁참가 할</w>
▁지 은</w>
▁지 능
▁줄 이
▁정 성
▁입 는</w>
▁유 예
▁우즈베키 스탄</w>
▁예정 이에요</w>
▁안 에는</w>
▁심사 위원
▁시간 당</w>
▁시 청</w>
▁브 로
▁법 원에</w>
▁방 지</w>
▁민 원이</w>
▁들 면</w>
▁드 물
▁동 시</w>
▁도 망
▁도 로를</w>
▁대학 에서</w>
▁다음 날</w>
▁농 민
▁끝 이</w>
▁기간 으로</w>
▁군 산
▁검 사가</w>
M F</w>
심 에</w>
신 다면</w>
부 도</w>
버 그</w>
물 질이</w>
레 가</w>
드 린</w>
▁팬 들에게</w>
▁중간 에</w>
▁조 건이</w>
▁전환 을</w>
▁온실 가스</w>
▁여름 철</w>
▁어우러 진</w>
▁쌓 아
▁수 천
▁성희 롱</w>
▁성실 히</w>
▁설 비
▁생기 면</w>
▁사례 는</w>
▁보 다는</w>
▁대중 교통</w>
▁대 략</w>
▁남 는</w>
▁그룹 이</w>
▁개인 적인</w>
▁가정 의</w>
항 에서</w>
월드 컵</w>
반 의</w>
만 원에</w>
린 다고</w>
돈 을</w>
경찰 서</w>
▁확보 하기</w>
▁질 문이</w>
▁전망 도</w>
▁일 선</w>
▁원 천
▁요청 하는</w>
▁엄청 나게</w>
▁아내 가</w>
▁심 하게</w>
▁승 차
▁산업 단
▁블룸 버그
▁브랜 드를</w>
▁분 당
▁방문 했다</w>
▁르 노
▁김 연
▁기술 의</w>
▁과거 의</w>
▁거 주</w>
래 의</w>
도 까지</w>
너 스</w>
과 와</w>
▁화 제다</w>
▁향 상에</w>
▁축 하</w>
▁최고경영 자</w>
▁증거 를</w>
▁증 진
▁중 복
▁제 로
▁장소 에서</w>
▁장 시간</w>
▁있으 므로</w>
▁이 달
▁유 인
▁오 가는</w>
▁연구 개발
▁업무 가</w>
▁아래 의</w>
▁실질 적으로</w>
▁사람 에</w>
▁붉 은</w>
▁백 백</w>
▁바이 러
▁민 관
▁대표 로</w>
▁다 룬</w>
▁근 대
▁관계 에</w>
▁공식 적으로</w>
▁1 60</w>
학 대</w>
트럼 프</w>
사업 과</w>
란 을</w>
동 으로</w>
▁활발 히</w>
▁행정안전 부</w>
▁포 털
▁칭 찬
▁최 다</w>
▁지 식을</w>
▁저 항
▁유 력</w>
▁운전 자</w>
▁용 도로</w>
▁역 할</w>
▁어디 서
▁않 나요</w>
▁아닌 지</w>
▁수 리</w>
▁무 단
▁모집 한다</w>
▁대 안
▁단 행
▁다 저
▁그 릇
▁국 비</w>
▁계속 되는</w>
▁거 기</w>
▁199 7</w>
통신 이</w>
자 원</w>
미사 일</w>
뉴 스</w>
기 에도</w>
겠 고</w>
가 스
▁황 금
▁할 까요</w>
▁통 학
▁침 체
▁치 유
▁축 제의</w>
▁진 전
▁진 열
▁잇 달아</w>
▁의 장
▁의 도가</w>
▁유 네
▁영향 력이</w>
▁여성 은</w>
▁여기 에서</w>
▁알려주 시면</w>
▁쓰레 기
▁신 설</w>
▁순 환
▁수업 에</w>
▁소 식에</w>
▁상징 하는</w>
▁사이 버</w>
▁보 관</w>
▁발언 은</w>
▁모니터 링
▁로버 트</w>
▁떡 볶
▁교 환</w>
▁고 구
▁개최 되었다</w>
회 장은</w>
회 관에서</w>
호 텔</w>
츠 를</w>
창 조
업체 인</w>
벤 션
락 이</w>
대 로
고 기를</w>
▁평 소에</w>
▁클 러
▁지역 에서는</w>
▁지역 과</w>
▁중 도
▁준비 해</w>
▁전 력이</w>
▁인천 국제
▁이 모
▁의 회
▁요 소가</w>
▁외 의</w>
▁예 보
▁애 플</w>
▁소 멸
▁색 다른</w>
▁사실 에</w>
▁비중 은</w>
▁보 상</w>
▁미안 하지만</w>
▁만남 을</w>
▁나누 어</w>
▁과정 은</w>
현지 시각</w>
행 사
▁흡 연
▁해 소를</w>
▁프리미 어
▁전세 계</w>
▁인 종
▁올해 의</w>
▁예약 이</w>
▁업데이 트
▁손 꼽
▁설명 하고</w>
▁뒤 따
▁되 자</w>
▁당 국의</w>
▁농 식품
▁넘 지</w>
▁내 륙
▁남북 정상회담
▁남 다른</w>
▁김 학
▁개 성</w>
▁S UV</w>
하 기에는</w>
차 도</w>
위 탁</w>
바이 오</w>
되 길</w>
공무 원의</w>
▁흥 미를</w>
▁환 불</w>
▁진행 을</w>
▁인정 하고</w>
▁아닐 까</w>
▁실 형을</w>
▁사태 를</w>
▁부 를</w>
▁배 후
▁방탄소년 단</w>
▁발전 할</w>
▁발생 한다</w>
▁모 여
▁로이 터
▁디자 인이</w>
▁난 다</w>
▁기 계</w>
▁교통 사고</w>
▁공부 하고</w>
▁가능 한지</w>
초 에</w>
차 전</w>
준 을</w>
균 이</w>
▁해 지
▁합의 에</w>
▁종 량
▁저 번</w>
▁재판 이</w>
▁재 료
▁있어 서다</w>
▁일 대에서</w>
▁이번 엔</w>
▁요 금이</w>
▁영 혼
▁에 피
▁업체 는</w>
▁앞 으로의</w>
▁써 야</w>
▁성장 하고</w>
▁상 을</w>
▁사립유치 원</w>
▁비핵 화와</w>
▁붙 여
▁분 할
▁몰 라
▁맨 맨</w>
▁라 디오</w>
▁땅 에</w>
▁데 리고</w>
▁날 인</w>
▁과 시
▁건 물의</w>
▁가 려고</w>
치 료</w>
청 사에서</w>
주 관
원 의
사 용</w>
근 이</w>
경찰 서에</w>
건설 이</w>
▁평 화와</w>
▁특 화
▁코 엑
▁캐릭 터를</w>
▁지 지</w>
▁종 목</w>
▁전 달</w>
▁자신 만의</w>
▁역 설
▁얼굴 에</w>
▁아시안 게임
▁승 진
▁성 범죄</w>
▁사업 시행
▁비 율을</w>
▁방문 하여</w>
현 실</w>
판 매</w>
처 분
정 통
일 수록</w>
올 해</w>
어 드
부 처</w>
류 는</w>
될 지</w>
동 물
▁후 배
▁한 번
▁판단 되는</w>
▁콜 라
▁주 소
▁주 력</w>
▁조속 히</w>
▁조성 에</w>
▁정 유
▁전문 가를</w>
▁이메 일로</w>
▁원 으로</w>
▁운영 된다</w>
▁언론 은</w>
▁속 의</w>
▁성 도
▁선 적</w>
▁불 량
▁방 향</w>
▁민 감한</w>
▁무엇 입니까</w>
▁못 하도록</w>
▁말 하며</w>
▁만 이다</w>
▁대 성
▁달 린</w>
▁기 름
▁공 모</w>
▁경기 는</w>
▁가 전
▁1 10</w>
협 력을</w>
죄 로</w>
브 가</w>
보 육
병 원
난 을</w>
▁한국 어
▁직 업을</w>
▁주문 했다</w>
▁조성 하는</w>
▁정 황
▁전 무
▁입 상
▁일 부는</w>
▁이 화
▁이 룰</w>
▁업무 의</w>
▁신분 으로</w>
▁시작 된다</w>
▁설 명이</w>
▁사우 디</w>
▁보 도</w>
▁발표 가</w>
▁민 족</w>
▁모 이는</w>
▁들 었어</w>
▁대 량</w>
▁누구 도</w>
▁나라 에</w>
▁기 내
▁거기 서</w>
▁개정 안은</w>
▁가 요
▁6 7</w>
IS T</w>
회의 실에서</w>
해주 셔서</w>
진 다고</w>
운영 을</w>
만 달러
련 의</w>
들 만</w>
▁흥미 로운</w>
▁휘 발
▁행 동이</w>
▁처 방
▁전 임
▁재미있 게</w>
▁있었 을</w>
▁열 대
▁여러 분</w>
▁시간 도</w>
▁삼 성이</w>
▁부산 광역시</w>
▁보 이지만</w>
▁미국 으로</w>
▁단 속</w>
▁끝 으로</w>
▁김 선
▁국민 적</w>
▁교 차
▁공 수
▁개인 적으로</w>
▁가맹 점
해 준</w>
제 도가</w>
월 말</w>
신 과</w>
브 라
버 스를</w>
발 전에</w>
감 도</w>
▁활용 하여</w>
▁확보 가</w>
▁표 지
▁평가 하는</w>
▁징 계를</w>
▁진 단을</w>
▁중 동</w>
▁잡 아</w>
▁인 수</w>
▁이해 관계가</w>
▁우즈베키 스탄
▁외국 인이</w>
▁약속 한</w>
▁아 레
▁시 술
▁수준 이다</w>
▁수립 하고</w>
▁수 면
▁보 냅니다</w>
▁법 이</w>
▁멀 티
▁매 력이</w>
▁마련 돼</w>
▁돌아 왔다</w>
▁김 씨의</w>
▁그러 면서</w>
▁걸 친</w>
▁개발 해</w>
a y</w>
허 가
행 위가</w>
합 니다만</w>
학 년도</w>
적 일</w>
자 들에</w>
월 과</w>
야 가</w>
상공 회의
배 에</w>
문화 의</w>
룬 다</w>
당 인</w>
다 는데</w>
강 점
가 게</w>
▁회 피
▁확인 하기</w>
▁현 황
▁해 군</w>
▁함께 한</w>
▁한 양
▁피 부를</w>
▁프 라이
▁컨 디
▁창출 을</w>
▁있 겠지만</w>
▁일 정에</w>
▁이뤄 져야</w>
▁이 강
▁육 박
▁위탁 하여</w>
▁연 상
▁어떨 까요</w>
▁않 거나</w>
▁아 스
▁싶 어서</w>
▁손 실을</w>
▁성 과</w>
▁선 행
▁방송 되는</w>
▁방문 이</w>
▁반박 했다</w>
▁물 가
▁매력 적인</w>
▁맛 과</w>
▁동원 해</w>
▁남 쪽</w>
▁기업 들은</w>
▁기 조
▁균 형</w>
▁구 에</w>
s t
적 으로도</w>
리 나</w>
느냐 에</w>
▁행 보를</w>
▁학교 는</w>
▁징 역
▁정부 를</w>
▁의 지
▁열 광
▁여성 들의</w>
▁얻 기</w>
▁언제 까지</w>
▁어우러 져</w>
▁아버 지의</w>
▁신고 한</w>
▁신 인</w>
▁식 민
▁선발 된</w>
▁빠 르고</w>
▁분 기
▁볼 턴</w>
▁보 급</w>
▁믿 을</w>
▁명 에</w>
▁마 침</w>
▁내 보
▁그림 은</w>
▁괜찮 은</w>
협 약</w>
해주 시기</w>
하여 서는</w>
진흥 원이</w>
주 인</w>
자 격
와 이
았 기</w>
스트 는</w>
변 경</w>
나 를</w>
▁킨 텍
▁집중 할</w>
▁주 를</w>
▁정부 에서</w>
▁일 일이</w>
▁요 금</w>
▁오 렌
▁여 권</w>
▁시각 이</w>
▁배 달</w>
▁바이 어
▁대단 히</w>
▁다 녔
▁긴 밀한</w>
형 과</w>
하 므로</w>
주차 장</w>
이 어야</w>
수 사</w>
보 훈
대한 민
계획 이</w>
간 을</w>
▁현 금으로</w>
▁해 촉
▁한반 도의</w>
▁플 로
▁탓 이다</w>
▁키 가</w>
▁취소 할</w>
▁추 출
▁최 상
▁챔피언스 리그</w>
▁정상 적으로</w>
▁전망 을</w>
▁원 장</w>
▁요 인
▁영 업을</w>
▁실 례
▁스 태
▁상품 의</w>
▁상 가</w>
▁발전 과</w>
▁만 성
▁네트워 크를</w>
▁나오 면서</w>
▁나 갔
▁기록 해</w>
▁교 류를</w>
▁고용노동 부</w>
▁간 다</w>
▁G S</w>
▁9 9</w>
하이 닉
통 화
통 일
최 저
일 에서</w>
사 진을</w>
백화 점</w>
결 과에</w>
▁회 장과</w>
▁표현 한</w>
▁투 수
▁컨 퍼런
▁최 선의</w>
▁총 리
▁찍 어</w>
▁지역 별</w>
▁줄 고</w>
▁재 벌
▁인 적</w>
▁인 상에</w>
▁연 천
▁않 겠다는</w>
▁안방 극
▁시급 한</w>
▁소 방</w>
▁선 택</w>
▁사업 자가</w>
▁사법 농단</w>
▁분석 하고</w>
▁북 핵</w>
▁발 목을</w>
▁민주노 총</w>
▁맡 는다</w>
▁낮 아</w>
▁남 을</w>
▁그 럼
▁귀여 운</w>
▁공 부</w>
▁계속 될</w>
▁경쟁 률을</w>
▁경 험</w>
회 장이</w>
판 에서</w>
실 래요</w>
생 명</w>
사항 은</w>
사 례
면 허
▁필요 해</w>
▁토론 을</w>
▁키 우고</w>
▁추천 을</w>
▁채널 을</w>
▁지키 고</w>
▁주관 한</w>
▁저 소득</w>
▁잡 지</w>
▁잉글 랜드</w>
▁있 다가</w>
▁이스라 엘
▁원 유</w>
▁어 긋
▁야 당</w>
▁수 월
▁사 모
▁비교 하면</w>
▁밴 드</w>
▁밝히 고</w>
▁발 걸
▁모 의
▁메모 리</w>
▁많 다고</w>
▁리 버
▁그 동
▁국내 에서는</w>
▁구 간</w>
I S</w>
플 러스</w>
파 를</w>
여 명을</w>
야 구
스 런</w>
보 상
되 게</w>
단 장</w>
▁팔 당
▁판단 에</w>
▁캄 보디
▁조성 된</w>
▁정신 질환
▁자동 차를</w>
▁있었 는지</w>
▁임 산
▁의견 도</w>
▁위 대한</w>
▁완 전
▁오 페
▁영 하</w>
▁스페 인
▁살해 한</w>
▁민간 인</w>
▁높 여</w>
▁교 사
▁관객 들의</w>
▁겪 었다</w>
▁건물 은</w>
▁가 라
▁7 3</w>
티 를</w>
인 한</w>
유공 자</w>
능 력이</w>
▁캐 스
▁치 매</w>
▁제 안</w>
▁정책 실
▁유 해</w>
▁우 회
▁슬 픔
▁생 겨</w>
▁부작 용이</w>
▁보내 준</w>
▁문 이</w>
▁뜨 겁게</w>
▁대응 이</w>
▁김 모</w>
▁기대 할</w>
▁그 날
하 느라</w>
질 지</w>
아파 트</w>
려 진</w>
▁품 목
▁촉 발
▁직 권
▁유 망</w>
▁원활 하게</w>
▁원 하지</w>
▁요청 에</w>
▁야 구</w>
▁실시 해</w>
▁신 제품</w>
▁선거 에서</w>
▁상 인
▁불가피 한</w>
▁배우 들이</w>
▁방 에</w>
▁바 꿨
▁매 장에서</w>
▁마침 내</w>
▁들어 서는</w>
▁다 수
▁높 여
▁노 란
▁납 입
▁기 자</w>
▁균 형을</w>
▁국 공
▁과 목
▁공 원
▁고 생
▁결과 적으로</w>
▁3 50</w>
▁1 12</w>
체육 관에서</w>
집 행
있 던</w>
일 본</w>
월드 컵
▁한 옥
▁특 성에</w>
▁컨 소시
▁치 명
▁추천 해</w>
▁진출 한</w>
▁죽 음을</w>
▁존재 하는</w>
▁제 목의</w>
▁작성 하고</w>
▁인 턴
▁이용 을</w>
▁이어 갔다</w>
▁올라 온</w>
▁연장 할</w>
▁손 학규</w>
▁불필 요한</w>
▁법 안
▁방탄소년 단의</w>
▁박 종
▁박 수를</w>
▁말씀 해</w>
▁도 자
▁규정 함으로써</w>
▁강화 할</w>
▁가 시면</w>
조 직</w>
거 든</w>
▁해 킹
▁하나 님께서</w>
▁피 드
▁파악 됐다</w>
▁콜 롬
▁지 침
▁준비 되어</w>
▁정 산
▁정 도를</w>
▁열 정
▁연 료
▁양 의</w>
▁않았 기</w>
▁신흥 국</w>
▁소송 에서</w>
▁샤 워
▁상당 수</w>
▁부 처</w>
▁만만 치</w>
▁마 크
▁등록 을</w>
▁논의 할</w>
▁너 랑</w>
▁관리 하고</w>
▁과 장
▁각 국</w>
▁K IA</w>
D I</w>
향 에</w>
학 기</w>
캠 프</w>
추 홀
조 치가</w>
업 계가</w>
면 서
되었 다고</w>
기 부
급 식
고 로</w>
▁하 우
▁펼 친다</w>
▁파 리</w>
▁출 연</w>
▁차 관</w>
▁집 회를</w>
▁지 는</w>
▁증 상을</w>
▁주민 참여
▁주 인이</w>
▁정 하지</w>
▁유 료
▁알 리기</w>
▁씨 와</w>
▁시 선이</w>
▁생산 을</w>
▁비행 기를</w>
▁분야 는</w>
▁미 쳤
▁모두 를</w>
▁똑 같이</w>
▁대응 할</w>
▁농 작
▁김 승
▁궁금 한</w>
▁고마 워</w>
효 과를</w>
해 본다</w>
폭 력
페 스티
특 위</w>
종 일</w>
적 이며</w>
었 으면</w>
양 호</w>
순 위</w>
생 과</w>
▁형 평
▁폐 기</w>
▁주 체
▁주 제를</w>
▁인 재</w>
▁이 산
▁이 가</w>
▁영업이익 이</w>
▁연 평균</w>
▁아이디 어</w>
▁선정 돼</w>
▁부모 의</w>
▁벌 금
▁미성 년
▁무 늬
▁떠 났
▁되 어서</w>
▁남 성의</w>
▁관측 도</w>
▁고객 님</w>
▁결 제가</w>
▁같 다고</w>
▁강 릉</w>
표 에</w>
포 지
제 작
적 이라고</w>
불 이</w>
방 향</w>
밥 을</w>
드 릴까요</w>
고 등
▁화 재로</w>
▁한 하여</w>
▁판매 하고</w>
▁콘서 트가</w>
▁취 지다</w>
▁초 과</w>
▁체 류
▁진 전이</w>
▁지 냈
▁제시 하는</w>
▁이익 이</w>
▁알 아</w>
▁시설 에</w>
▁서 서</w>
▁브랜 드가</w>
▁부 추
▁보내주 신</w>
▁배제 할</w>
▁문 서를</w>
▁무 렵</w>
▁높아 지면서</w>
▁기준 금리</w>
▁기록 할</w>
▁기념 해</w>
▁과태 료를</w>
▁공 이</w>
▁공 매
▁개 봉</w>
▁가 지가</w>
활 동이</w>
할 수록</w>
즈 로</w>
민 원
군 사
▁환 자를</w>
▁해 제</w>
▁합 쳐</w>
▁편 의</w>
▁탄 력을</w>
▁초 에</w>
▁준비 할</w>
▁전달 하는</w>
▁일제 강점
▁이 행</w>
▁용 인</w>
▁오 케스트
▁염 려
▁엄 청</w>
▁아니 었다</w>
▁신 경을</w>
▁스트레 스</w>
▁생 계
▁사 찰</w>
▁발 부
▁바꾸 고</w>
▁마 시는</w>
▁돌 봄</w>
▁대 결
▁공직 선거
▁결 산
행 위
자 전
자 리를</w>
소 리</w>
발 이</w>
반 도</w>
년 대
금 액</w>
고 기
겨 져</w>
강 이</w>
간 은</w>
▁황 의
▁판 교
▁특 사
▁짓 는</w>
▁지 리
▁정책 과</w>
▁유니 폼
▁우 세
▁생활 에</w>
▁샐 러
▁부위원 장이</w>
▁복 무
▁보험 료</w>
▁발표 하는</w>
▁매 도
▁막 고</w>
▁됐 습니다</w>
▁돌아 갈</w>
▁대대 적인</w>
▁단 축</w>
▁늦 어
▁날 카
▁김영 철</w>
▁개최 를</w>
▁강 정
▁가 구가</w>
환 자</w>
하시 나요</w>
카 를</w>
주 시면</w>
여 개의</w>
레 는</w>
답 을</w>
▁폭 행을</w>
▁토 요일에</w>
▁토 요
▁주장 한다</w>
▁제출 받은</w>
▁제작 된</w>
▁입 양
▁일 요일</w>
▁오 빠
▁역 량</w>
▁아쉬 운</w>
▁식품 의약
▁쇼핑 몰</w>
▁생활 이</w>
▁살 던</w>
▁비 디오</w>
▁보인 다고</w>
▁뮤지 컬
▁목 록
▁라이 브</w>
▁다 툼
▁기자 들과</w>
▁공 적
▁겨냥 한</w>
▁8 2</w>
해 의</w>
주 들이</w>
연 맹
시 청</w>
분 석</w>
보고 서</w>
기 사</w>
균 형
▁한 유
▁평 창</w>
▁파 울
▁타 결
▁청 도
▁찾아 볼</w>
▁주 춤
▁적 었다</w>
▁저녁 을</w>
▁장 점을</w>
▁있었 으면</w>
▁이슬 람
▁오 스트
▁영화 제</w>
▁엔 지니
▁심 판
▁소 문이</w>
▁서 귀
▁분 명한</w>
▁바 깥
▁동 반</w>
▁대법 관</w>
▁당 시의</w>
▁넣 어
▁나서 야</w>
▁구성 하되</w>
▁구매 를</w>
▁관련 해서는</w>
▁고 대</w>
▁결 심
▁개선 될</w>
▁간 주
1 8
효 가</w>
합 을</w>
타 워
취 업
처 로</w>
징 수
조 원을</w>
웠 어요</w>
아 웃</w>
부 즈
미 널</w>
되었 는데</w>
급 식</w>
▁펼쳐 졌다</w>
▁캠페 인</w>
▁재 산</w>
▁자유 를</w>
▁이번 에도</w>
▁언론 의</w>
▁북미 정상회담</w>
▁법원행정 처</w>
▁대기 오염
▁단체 의</w>
▁다 릅니다</w>
▁논의 했다</w>
▁날 로</w>
▁공급 을</w>
▁고 유
▁간 절
▁각 기</w>
A R
진 단</w>
지 구
으 려는</w>
우 리가</w>
말 이</w>
계획 의</w>
계 좌
감 시
▁형태 를</w>
▁현 실</w>
▁총 리</w>
▁진 실을</w>
▁정신 적</w>
▁정 규</w>
▁전 국이</w>
▁예 쁘
▁않 을
▁않 기로</w>
▁시리 즈</w>
▁수 익</w>
▁상관 없
▁번 씩</w>
▁문 학</w>
▁맞 아요</w>
▁말 이야</w>
▁느 낀
▁나 가</w>
▁꼼꼼 히</w>
▁기온 은</w>
▁기술 은</w>
▁공 장이</w>
▁검토 할</w>
▁검토 를</w>
협 회는</w>
자동 차가</w>
맞 은</w>
렉 스</w>
기 적인</w>
군 에서</w>
▁행 사의</w>
▁핵 무
▁하 기로</w>
▁폭 폭</w>
▁패러 다
▁채 로</w>
▁질 병</w>
▁지정 하여</w>
▁접 경
▁전 도
▁적 정</w>
▁장소 는</w>
▁자치 법
▁자 택
▁이야 기는</w>
▁유관 기관</w>
▁영수 증을</w>
▁아마 존</w>
▁실 수
▁신 인
▁숲 숲</w>
▁수립 하여야</w>
▁상 실
▁불 고</w>
▁법령 에</w>
▁방식 은</w>
▁발 명
▁발 급</w>
▁문 서
▁메시 지</w>
▁도 쿄</w>
▁대 안을</w>
▁당 내</w>
▁넘 은</w>
▁내 일은</w>
▁나 눌</w>
▁구속영 장이</w>
▁교육 지원
▁계열 사</w>
▁CN N</w>
▁199 5</w>
v N</w>
함 께</w>
워 하는</w>
스타 일</w>
스 와의</w>
들 까지</w>
답 니다</w>
교 는</w>
공 사의</w>
게 까지</w>
▁편안 하게</w>
▁팽 팽
▁파 란
▁테 스트를</w>
▁캘리포 니아
▁중 남
▁줄어들 고</w>
▁좋아 하지</w>
▁제출 된</w>
▁정 원</w>
▁인 인</w>
▁이해 하는</w>
▁이 마
▁유럽 의</w>
▁완료 된</w>
▁옮 기
▁수사 권</w>
▁성 격을</w>
▁부분 에서</w>
▁무 장
▁러시아 의</w>
▁든 든
▁대 입
▁다 리를</w>
▁다 각
▁끝 내</w>
▁김 준
▁기 초</w>
▁급 하게</w>
▁그것 도</w>
▁군사 적</w>
▁국 회를</w>
▁관 하여는</w>
▁공 기가</w>
▁경기도 청</w>
▁경기 침
▁거 다</w>
▁개발 과</w>
▁감 정이</w>
▁7 1</w>
S NS</w>
하 셔서</w>
천 을</w>
재 활
약 한</w>
산 업을</w>
까 지로</w>
▁파악 할</w>
▁추진 된다</w>
▁청 주</w>
▁쪽 에서</w>
▁지시 했다</w>
▁이어 갈</w>
▁유전 자</w>
▁원 에</w>
▁앞장 서
▁실무 협
▁실 무</w>
▁신 조</w>
▁술 에</w>
▁순 순</w>
▁수 송
▁소 모
▁사이 버
▁베 테
▁범 위가</w>
▁버 티
▁받 고자</w>
▁박 상
▁밀 려
▁모두 에게</w>
▁매 각</w>
▁막 는</w>
▁대상 이다</w>
▁다 시
▁거 대</w>
▁강 도</w>
▁199 4</w>
G M</w>
할 까</w>
도 도</w>
대 회에</w>
경기 도
▁후 손
▁한 자리에</w>
▁하 시는</w>
▁패 배
▁트 럭
▁최소 한의</w>
▁초 고
▁적 고</w>
▁있는 지를</w>
▁인 재를</w>
▁영 역
▁여름 에</w>
▁엄마 는</w>
▁앞세 워</w>
▁안 드
▁시스템 에</w>
▁수원 시</w>
▁수 비</w>
▁수 납
▁손잡 고</w>
▁선거 제도</w>
▁석 탄
▁서 서
▁산업 을</w>
▁비 극
▁분 실
▁보여 줬다</w>
▁문화 유
▁무게 를</w>
▁맡 게</w>
▁당 부
▁노회 찬</w>
▁내 의</w>
▁끄 는</w>
▁꺼 내
▁금 리가</w>
▁그렇 지만</w>
▁귀 를</w>
▁과기 정통
▁경찰 청</w>
▁견 제
▁거 지</w>
카 드
절 차를</w>
이 니까</w>
산업 단지</w>
버 스
박 이</w>
마 켓</w>
리 랑
르 면서</w>
달 이</w>
농 업</w>
기 초
공 직
▁호 평을</w>
▁해 상에서</w>
▁한 글</w>
▁침 묵
▁친구 의</w>
▁창 립</w>
▁조직 을</w>
▁제 어
▁전 자</w>
▁자신 과</w>
▁일 들이</w>
▁인 구의</w>
▁이용 하고</w>
▁이루어 져</w>
▁예고 했다</w>
▁수 백</w>
▁속 하는</w>
▁세 르
▁선보 이고</w>
▁선 언</w>
▁서둘 러</w>
▁산 하
▁방탄소년 단이</w>
▁방송 이</w>
▁민 속
▁무 거운</w>
▁매 운</w>
▁떠올 랐다</w>
▁드 루킹</w>
▁뒤 에도</w>
▁도시 로</w>
▁당 당
▁넥 센</w>
▁나와 서</w>
▁교육 청</w>
▁관람 객이</w>
▁공간 에서</w>
▁가 톨
하 니까</w>
타 로</w>
집 에서</w>
영 과</w>
였 을</w>
업체 들이</w>
면 세
래 가</w>
대 회는</w>
경 과</w>
▁햄 버
▁피해 자의</w>
▁통과 한</w>
▁출 하
▁추 운</w>
▁중요 하다는</w>
▁조언 했다</w>
▁정 서
▁일 정으로</w>
▁이해 하기</w>
▁이슬 람</w>
▁유력 한</w>
▁우리나라 가</w>
▁외 모
▁와이 파
▁예 매
▁연 대
▁없 는지</w>
▁양 식
▁아르헨티 나</w>
▁수 면</w>
▁셔 틀
▁서서 히</w>
▁서비 스의</w>
▁사랑 에</w>
▁비 전을</w>
▁부 양
▁보 훈
▁민 원</w>
▁로 그
▁데이 비
▁당 했다</w>
▁다 할</w>
▁노력 하는</w>
▁날 은</w>
▁그것 에</w>
▁그 해</w>
▁공간 에</w>
▁개성 공단</w>
화 학</w>
해 하는</w>
커 를</w>
카 페
층 과</w>
취 약
재 단은</w>
남 북
구 민
관리 하여야</w>
개 와</w>
▁형 식
▁청와 대의</w>
▁증 진을</w>
▁재 고가</w>
▁자 유</w>
▁인프라 를</w>
▁원칙 을</w>
▁얻 어
▁않 으며</w>
▁시험 이</w>
▁승용 차</w>
▁수 단으로</w>
▁성 능
▁설치 한다</w>
▁상승 한</w>
▁삼성 물
▁북 쪽</w>
▁보 상을</w>
▁벗 어
▁방송 에</w>
▁미 추홀
▁말 부터</w>
▁때 와</w>
▁딸 을</w>
▁내 부에</w>
▁나 눔</w>
▁기대 되는</w>
▁국정 감
▁것 임을</w>
I D</w>
왕 이</w>
려 도</w>
동 아
▁확보 해</w>
▁해양 수산
▁한국 영
▁편 이</w>
▁투자 유
▁터 져</w>
▁캠 프
▁출 전</w>
▁최소 한</w>
▁최 저</w>
▁청 도</w>
▁진 료</w>
▁진 단</w>
▁지 진이</w>
▁지 분
▁중 점을</w>
▁제 발</w>
▁자 에</w>
▁입 학</w>
▁입 사
▁일 상</w>
▁인식 하고</w>
▁이 끈</w>
▁의사 결
▁의무 가</w>
▁오 신</w>
▁실 수로</w>
▁선수 들은</w>
▁상 태</w>
▁사각 지
▁년 간</w>
▁날짜 를</w>
▁기본 계획</w>
▁고객 은</w>
▁강화 해</w>
후 보
행 복
장 에서는</w>
일 에도</w>
움 의</w>
우 리는</w>
에게 만</w>
실 질
사 례</w>
모 니
교육 이</w>
공 항을</w>
공 단이</w>
경기 에서</w>
▁환 수
▁해 를</w>
▁합 작
▁프로그램 의</w>
▁판단 이다</w>
▁탄력근로 제</w>
▁치 른</w>
▁축 소</w>
▁총 선</w>
▁조성 하고</w>
▁자 로</w>
▁유 적
▁유 류
▁위 기가</w>
▁예정 돼</w>
▁아 들을</w>
▁실 험</w>
▁시행 을</w>
▁시 가
▁성 취
▁성 립
▁서비 스로</w>
▁생 략
▁분야 가</w>
▁부진 한</w>
▁무한 돌
▁띄 는</w>
▁되었 어요</w>
▁단 체를</w>
▁꾸 며
▁까 닭
▁금 요일에</w>
▁국가 인권
▁거 라는</w>
▁가능 해요</w>
▁가 늠
직 이</w>
정 원</w>
의 식을</w>
박물 관</w>
문화 가</w>
면 에는</w>
대 회
기업 인</w>
기업 으로</w>
곡 이</w>
▁현실 이다</w>
▁프 로</w>
▁표 출
▁컨 트
▁중요 하게</w>
▁정 권이</w>
▁전 망</w>
▁적 혀</w>
▁자 활
▁이어 서</w>
▁운 항
▁외 에는</w>
▁영 역을</w>
▁연말 까지</w>
▁연구 에</w>
▁역 을</w>
▁아래 에</w>
▁시너 지</w>
▁스웨 덴</w>
▁소 형
▁소 지가</w>
▁사 과를</w>
▁보 도를</w>
▁변 상
▁발 행</w>
▁몰 라</w>
▁때문 이었다</w>
▁대한민 국이</w>
▁대 중</w>
▁높 을</w>
▁넉 넉
▁나타 난다</w>
▁국민 일
▁공연 에</w>
▁골 드
▁고 무
▁계 정을</w>
▁결 렬
▁강 의</w>
현 직</w>
함 으로</w>
카 메
청 장</w>
이 용</w>
영화 제</w>
방 지</w>
민 간
답 게</w>
단 법인</w>
▁콘서 트
▁친구 들은</w>
▁추천 하는</w>
▁참가 했다</w>
▁중 견
▁조용 히</w>
▁재 조
▁임 금을</w>
▁일 시</w>
▁위촉 된</w>
▁용 기를</w>
▁시 각</w>
▁스트 리
▁세 트</w>
▁세 대가</w>
▁성 접
▁선정 했다</w>
▁빼 고</w>
▁불 구속</w>
▁번 거
▁배 워
▁방문 객
▁방 학</w>
▁무역전 쟁이</w>
▁못 했다는</w>
▁리 포
▁뜻 이</w>
▁동 부
▁더 했다</w>
▁뉴욕 타임
▁녹 지
▁기 금</w>
▁공 지
▁걷 는</w>
1 5
종 으로</w>
제 인</w>
이 사
원 자
오 면서</w>
었 으나</w>
시험 을</w>
설 비</w>
사회 적</w>
보 안
리 안</w>
▁하 겠다는</w>
▁타 협
▁지적 을</w>
▁지속 되고</w>
▁주변 에서</w>
▁조 재
▁정 밀
▁전자 상
▁작품 이다</w>
▁이상 은</w>
▁의 한다</w>
▁영 세
▁열 차</w>
▁역 동
▁없었 고</w>
▁없 으니</w>
▁안 다</w>
▁아버 지
▁싱 글</w>
▁시 속</w>
▁선 착
▁살 이</w>
▁사업 과</w>
▁빅 뱅
▁부 정</w>
▁배우 가</w>
▁대한민 국
▁구 독
▁공개 모
▁계획 은</w>
▁감사 드린다</w>
o r</w>
팀 에서</w>
지 급
증 에</w>
전 쟁</w>
인 들</w>
인 구가</w>
우 주
스 테이
션 과</w>
담 한</w>
단 계
공 원에서</w>
경 찰</w>
▁트 레
▁친 근
▁차례 로</w>
▁지난해 에는</w>
▁중 학교
▁주인 공</w>
▁전쟁 을</w>
▁자 원을</w>
▁일어 났다</w>
▁이스라 엘</w>
▁이사 장이</w>
▁월 스트
▁운영 해</w>
▁우려 했다</w>
▁외 곽
▁영 구
▁언젠 가</w>
▁쏟아 졌다</w>
▁받았 어요</w>
▁무 죄를</w>
▁면 제</w>
▁매 달
▁만나 게</w>
▁드러 났
▁구 금
▁검 색</w>
▁가능 하다고</w>
▁7 6</w>
학 에</w>
범 이</w>
모 든</w>
류 에</w>
날 에</w>
교육 의</w>
▁환 전
▁해 변
▁진 지
▁정 원
▁있 음에도</w>
▁일 간
▁육 군</w>
▁유 익
▁위치 에</w>
▁위원 회에서</w>
▁시즌 을</w>
▁스위 스</w>
▁숫 자가</w>
▁순 위를</w>
▁수 당을</w>
▁송 영
▁센 터는</w>
▁설치 돼</w>
▁불투 명
▁보 통
▁방지 하기</w>
▁바르 셀로
▁미 만의</w>
▁모니터 링</w>
▁명 령을</w>
▁맞 았다</w>
▁돌입 했다</w>
▁느껴 지는</w>
▁노동 자가</w>
▁넘어 서
▁금 리를</w>
▁구 로구</w>
▁공무 원으로</w>
▁계 양
▁검토 한</w>
▁개정 안을</w>
▁강 북
▁가르 쳐</w>
점 인</w>
저 감
재 에</w>
울 이</w>
여 대</w>
압 이</w>
수 수</w>
상 도</w>
복 이</w>
만 히</w>
되 는지</w>
대학 원</w>
노 인</w>
경 비
▁히 어로
▁휴대 폰
▁투자 하는</w>
▁첫 날</w>
▁증 거</w>
▁제 정</w>
▁작품 으로</w>
▁일어 나</w>
▁위원 회를</w>
▁오 르고</w>
▁연습 을</w>
▁엑 스
▁엄격 한</w>
▁어쩌 면</w>
▁시스템 은</w>
▁수입 이</w>
▁손 님</w>
▁소비 가</w>
▁세계 가</w>
▁성추 행</w>
▁성매 매</w>
▁사회적 경제</w>
▁빠 질</w>
▁변경 이</w>
▁받았 다는</w>
▁문 서</w>
▁맥 락
▁말 씀</w>
▁담 배를</w>
▁다 닐</w>
▁남아 있는</w>
▁금융 위기</w>
▁구축 하고</w>
▁구조 가</w>
▁고속 도로</w>
▁고 가</w>
▁건 수가</w>
▁〈 〈</w>
▁M C</w>
항 만
중 을</w>
의 전
은 은</w>
외 교
업 계의</w>
벨 트</w>
문 재인</w>
끄 럽
금 액을</w>
▁펼 친</w>
▁투 표</w>
▁참석 한다</w>
▁참가 자</w>
▁진상 규
▁주 장에</w>
▁조 립
▁일 요일에</w>
▁이 천
▁신뢰 가</w>
▁스 펙
▁성장 하는</w>
▁상당 수가</w>
▁비 공
▁들어 간다</w>
▁들 지</w>
▁돌아 오는</w>
▁담 배</w>
▁다니 고</w>
▁내놓 고</w>
▁김 장
▁권 리</w>
▁구매 하는</w>
▁각별 한</w>
D A</w>
하 죠</w>
피 해가</w>
주 셔서</w>
업 으로</w>
슨 이</w>
비 용이</w>
령 은</w>
래 는</w>
간 다는</w>
▁향 상</w>
▁했 기</w>
▁특별 감
▁카 타
▁차 관이</w>
▁집 값이</w>
▁주관 으로</w>
▁제도 적</w>
▁전해 진다</w>
▁적발 된</w>
▁있었 으며</w>
▁익숙 한</w>
▁숨 을</w>
▁수 시</w>
▁생산 이</w>
▁비 판</w>
▁비 빔
▁박 영
▁바 빠
▁무 선
▁맛있 게</w>
▁만 약에</w>
▁나 름
▁권한 이</w>
▁국 외
▁국 어</w>
▁고 혈
▁걸 림
회 사의</w>
해 선</w>
학 원</w>
칭 을</w>
지 라도</w>
여 건</w>
앞 으로도</w>
서 류를</w>
라 리</w>
념 이</w>
년 은</w>
▁폐기 물
▁탄 핵</w>
▁캠 프</w>
▁쪽 이</w>
▁직 원은</w>
▁지 고</w>
▁주민 과</w>
▁장 비
▁인테리 어</w>
▁인지 도가</w>
▁은행 이</w>
▁위 상을</w>
▁어두 운</w>
▁약 간의</w>
▁속 출
▁서 포
▁생각 은</w>
▁미드 필
▁런 던</w>
▁둔 화</w>
▁더 해져</w>
▁놀 랍
▁나 노
▁김 학의</w>
▁기 승을</w>
▁군 은</w>
▁국가 와</w>
▁국가 에서</w>
▁국 국</w>
▁구 할</w>
▁교수 와</w>
▁공화 당</w>
▁공연 과</w>
▁공 용
▁공 감을</w>
▁계 신</w>
▁강력 히</w>
티 가</w>
질 수록</w>
직 의</w>
증 후
증 진
수 출
수 처리
상 품을</w>
사회 적
번 의</w>
단체 를</w>
감 의</w>
가 락</w>
▁화 면</w>
▁현 안
▁파 장이</w>
▁진 진</w>
▁진 료를</w>
▁주변 을</w>
▁조례 의</w>
▁전달 할</w>
▁전 쟁이</w>
▁자 회사</w>
▁자 기가</w>
▁이루어 질</w>
▁의원 들의</w>
▁월 요일</w>
▁월 드</w>
▁야 간
▁아쉬 움을</w>
▁싶 다고</w>
▁실 장은</w>
▁소재 한</w>
▁설 비</w>
▁서 식</w>
▁사무 실에</w>
▁비밀 을</w>
▁비 디오
▁번 호
▁무 리가</w>
▁모 릅니다</w>
▁당 의</w>
▁내 기</w>
▁남 측</w>
▁꽃 을</w>
▁김 관
▁기술 로</w>
▁그러 니</w>
▁국가 를</w>
▁교 회를</w>
▁공부 할</w>
▁경제 성장
▁겨울 철</w>
▁7 8</w>
e n</w>
e a
커 가</w>
조 사에서</w>
스 키
사고 로</w>
반 에</w>
바 닥
메 시
대 교</w>
당 국이</w>
기 반</w>
권 익
가 치
▁호흡 을</w>
▁한국 어로</w>
▁크리 에이
▁코스 닥</w>
▁취약계 층</w>
▁지난해 에</w>
▁지난 주에</w>
▁지급 을</w>
▁지 진</w>
▁주 어진</w>
▁제 휴
▁정책 은</w>
▁정보 는</w>
▁전망 하고</w>
▁전 하고</w>
▁입 었다</w>
▁입 시</w>
▁임 기가</w>
▁이 때
▁이 대
▁의 무</w>
▁예방 하기</w>
▁열 기가</w>
▁어 딘
▁양 보
▁알려 지지</w>
▁시 도</w>
▁서울 은</w>
▁살펴 보고</w>
▁사용 된</w>
▁메뉴 를</w>
▁마련 되어</w>
▁그런 지</w>
▁경험 한</w>
▁건 네
▁가 자</w>
▁가 려면</w>
합 의</w>
초 등학교</w>
재 해</w>
임 한</w>
아 이</w>
부 족
리 어
디 스플
당 으로</w>
근로 자</w>
공 이</w>
▁흘러 나
▁홍 영
▁홈 홈</w>
▁형 이</w>
▁케이 블
▁증가 에</w>
▁즐거 움을</w>
▁줄 여
▁자 사</w>
▁일 상을</w>
▁이집 트</w>
▁이유 도</w>
▁이 산화
▁오늘 의</w>
▁역 역</w>
▁업무협 약을</w>
▁안심 하고</w>
▁아시아나 항공
▁아버 지는</w>
▁신고 했다</w>
▁선수 들을</w>
▁부탁 합니다</w>
▁본 선</w>
▁버닝 썬</w>
▁받아 서</w>
▁미안 해요</w>
▁미 소를</w>
▁매 장을</w>
▁디스플 레이
▁답변 이</w>
▁다 리가</w>
▁뉴욕 에서</w>
▁기준 은</w>
▁구 름이</w>
▁가맹 점</w>
청 구
조 치
재 해
자 보호
시간 으로</w>
내 야</w>
나 눔
▁휴 양
▁확보 에</w>
▁협 의회</w>
▁향 이</w>
▁할머니 가</w>
▁학생 들과</w>
▁침 입
▁출시 된</w>
▁지역 주
▁제한 이</w>
▁제임 스</w>
▁잠 정</w>
▁이 순
▁의심 되는</w>
▁올라 왔다</w>
▁시 의
▁부 유
▁봤 어요</w>
▁받아들 일</w>
▁노동 자들이</w>
▁경 비</w>
▁같 이
D S</w>
퍼센 트</w>
전 선
자 금
운 동이</w>
망 에</w>
개 는</w>
▁효율 성을</w>
▁호기 심을</w>
▁피아 노</w>
▁진출 이</w>
▁진 천
▁중 화
▁중 요</w>
▁정 당</w>
▁자율주 행</w>
▁이재 용</w>
▁이렇 다</w>
▁위험 에</w>
▁요청 합니다</w>
▁열 띤</w>
▁압박 을</w>
▁알려 야</w>
▁악 영
▁실 태를</w>
▁식 당에서</w>
▁상 습
▁사로잡 았다</w>
▁빈 곤
▁병역 거
▁모 른
▁메 이</w>
▁매뉴 얼
▁마 운
▁되 기도</w>
▁돈 은</w>
▁담당 하고</w>
▁눈 높
▁근로 자가</w>
▁결정 적인</w>
▁건 의</w>
▁가 방</w>
▁F C</w>
▁$ $</w>
학생 을</w>
하 진</w>
창 업</w>
준 은</w>
으 므로</w>
웨 이
애 를</w>
버 스가</w>
배 출
령 의</w>
디 지
끼 를</w>
▁확대 와</w>
▁풍 성한</w>
▁팬 들과</w>
▁팔 을</w>
▁컨설 팅
▁지도 부가</w>
▁종 결
▁전 원</w>
▁임 무를</w>
▁완 료</w>
▁오 류가</w>
▁예산 안</w>
▁언 어</w>
▁수준 인</w>
▁부모 와</w>
▁문 의</w>
▁무사 히</w>
▁막 걸
▁마음 껏</w>
▁등장 해</w>
▁되 살
▁단 일</w>
▁능 력
▁내 수</w>
▁나 간</w>
▁그러 므로</w>
▁고 립
▁거 센</w>
U S
하 자면</w>
파 울
여 름</w>
사이 트</w>
부 서에</w>
박람 회</w>
만 으로는</w>
림 의</w>
▁허 리
▁포 항</w>
▁카페 에서</w>
▁친구 들을</w>
▁첨부 된</w>
▁책 의</w>
▁즐 겁
▁주 간</w>
▁좋아 하고</w>
▁종 류가</w>
▁제시 할</w>
▁전 화가</w>
▁적용 하는</w>
▁있 죠</w>
▁이 지
▁예방 접
▁열 리
▁없 거나</w>
▁압수수 색</w>
▁신 라
▁수익 이</w>
▁수 행</w>
▁상승 했다</w>
▁산업 에</w>
▁사 서</w>
▁부산 시</w>
▁발의 한</w>
▁맞물 려</w>
▁들어 왔
▁놓 여</w>
▁기반 이</w>
▁그림 이</w>
▁교육 감</w>
▁공 사는</w>
▁강조 하고</w>
▁각 급</w>
▁가 스</w>
▁7 7</w>
6 000</w>
타 당
이 닝</w>
의 견
신 다</w>
순 환</w>
비 아
받 기</w>
기 반
거 야</w>
▁협 상의</w>
▁핸드 폰</w>
▁포기 하지</w>
▁크 기의</w>
▁캠페 인을</w>
▁치 는</w>
▁착수 했다</w>
▁찍 어
▁점 수가</w>
▁전체 적인</w>
▁적용 을</w>
▁잠시 만</w>
▁작 가는</w>
▁이 씨는</w>
▁월 요
▁안전 성</w>
▁써 써</w>
▁신혼 부
▁세 상에서</w>
▁성 범죄
▁상품 에</w>
▁빠 졌다</w>
▁부장판 사</w>
▁보 존</w>
▁무 덤
▁말 합니다</w>
▁마련 하는</w>
▁때 로는</w>
▁등 산
▁두 산
▁대 접
▁담겨 있다</w>
▁달 려</w>
▁늘어 났
▁늘 리
▁낮 게</w>
▁공개 된다</w>
▁개정 안</w>
▁가능 성</w>
▁I P</w>
▁199 6</w>
학 회</w>
하 지도</w>
타 는</w>
주의 의</w>
자 리</w>
오 던</w>
션 의</w>
세 이
사 자</w>
보 장</w>
베 르
미 와</w>
기 온이</w>
기 독
교 실</w>
개 선을</w>
▁호 남
▁체 결</w>
▁지 도를</w>
▁증 정
▁주장 도</w>
▁장애 인의</w>
▁잠 이</w>
▁일 었다</w>
▁없었 지만</w>
▁양 국이</w>
▁안 보</w>
▁소 위</w>
▁살 기</w>
▁보 류
▁무 슬
▁말 하면</w>
▁뜨겁 다</w>
▁득 표
▁돌아 가는</w>
▁도민 들의</w>
▁단계 에서</w>
▁다가 오는</w>
▁내 정
▁꽃 꽃</w>
▁1 40</w>
u t
E S</w>
초 를</w>
죄 가</w>
자 들도</w>
인 지
수 탁
먼 트</w>
란 시
▁한 시
▁특 수</w>
▁집 권
▁제 안이</w>
▁장 점이다</w>
▁잡 기</w>
▁오 바
▁연 체
▁에 듀
▁어 떡
▁안 의</w>
▁사례 로</w>
▁불편 이</w>
▁불 이익을</w>
▁부모 님
▁보냈 습니다</w>
▁보 강
▁밀 접한</w>
▁믿 는</w>
▁물 류</w>
▁떠오 르고</w>
▁때 만</w>
▁담당 자</w>
▁누구 보다</w>
▁과 일</w>
▁공공 기관의</w>
▁공 제
▁개 막</w>
▁가능 할까요</w>
▁8 8</w>
T E</w>
T C</w>
프 리
추 어</w>
주 면</w>
있 게</w>
인 데도</w>
움 은</w>
에 미
대 구</w>
다 리</w>
간 접
▁협 력이</w>
▁현실 적으로</w>
▁행 안
▁투자 자들의</w>
▁컴퓨 터를</w>
▁측 정</w>
▁최우 수</w>
▁청 소</w>
▁처 리에</w>
▁진 압
▁주 었다</w>
▁정책 으로</w>
▁작용 할</w>
▁음 란
▁유 치를</w>
▁알 기</w>
▁싼 싼</w>
▁손흥 민은</w>
▁서 기는</w>
▁사진 으로</w>
▁사 유</w>
▁변 수가</w>
▁박 차를</w>
▁몰 고</w>
▁메 뉴</w>
▁매 체</w>
▁마 스터
▁들어 선</w>
▁도민 들이</w>
▁대부 분을</w>
▁대 강
▁농업 기술
▁내 로</w>
▁근 절
▁광화 문</w>
▁건강 하게</w>
) ”</w>
포인 트</w>
중 의</w>
일 반
인 식</w>
인 데요</w>
으로 서는</w>
웠 고</w>
워 드</w>
영 상
시 대의</w>
봉 투
보 유
레이 션</w>
돈 이</w>
니 와</w>
구 성
고 에서</w>
개발 을</w>
▁핸드 폰을</w>
▁학 원</w>
▁하루 가</w>
▁태 풍이</w>
▁직 업</w>
▁지키 지</w>
▁자영업 자</w>
▁자 문</w>
▁유 산
▁에피 소
▁아이디 어가</w>
▁신청 하면</w>
▁스 키
▁설치 되어</w>
▁서울 로</w>
▁번째 는</w>
▁바뀌 는</w>
▁못 했지만</w>
▁금융 권</w>
▁국민청 원</w>
▁광주 시는</w>
▁광 복
▁고 품
▁강 세를</w>
▁가져 오
o c
처 분을</w>
증 명
정 부와</w>
유 로</w>
약 의</w>
신 도시</w>
쁩 니다</w>
병 원에</w>
군 수
계 층</w>
결 제
▁힘 쓰
▁항소 심</w>
▁파 견</w>
▁탈 북
▁커뮤니 케이
▁지시 한</w>
▁지 사
▁중 대
▁종 업
▁전 주</w>
▁잇따 르고</w>
▁이 웃</w>
▁음식물 류</w>
▁왕 세
▁영 상은</w>
▁안전 에</w>
▁싶 은데요</w>
▁시민 들에게</w>
▁순 조
▁소상공 인
▁선물 로</w>
▁상 처가</w>
▁살 인</w>
▁부 풀
▁문제 도</w>
▁모습 과</w>
▁면세 점</w>
▁드 릴까요</w>
▁돌아 올</w>
▁도로 에서</w>
▁대신 해</w>
▁농 가
▁내부 에서</w>
▁구속 된</w>
▁관리 와</w>
▁관 객</w>
▁공유 할</w>
▁공 기</w>
▁견 적
▁건강 과</w>
▁개혁 을</w>
▁개발 하는</w>
▁o f</w>
▁1 500</w>
투자 증권</w>
위원 으로</w>
원 장이</w>
미 르</w>
롭 지</w>
공 급</w>
겠 다며</w>
▁흰 색</w>
▁협 약</w>
▁할리우 드</w>
▁학 식과</w>
▁하루 를</w>
▁폭 력</w>
▁파 격
▁트위 터에</w>
▁크 레
▁케이 블</w>
▁최종 적으로</w>
▁집 회</w>
▁주 저
▁조직 이</w>
▁입 시
▁일어나 고</w>
▁인정 했다</w>
▁이 라
▁원 동
▁우리 와</w>
▁영원 히</w>
▁영 향</w>
▁없었 어요</w>
▁야 기
▁선보 이며</w>
▁선거 에</w>
▁사이 트를</w>
▁사용 자의</w>
▁보 니까</w>
▁밖 밖</w>
▁믿 는다</w>
▁무 상으로</w>
▁명 단을</w>
▁도로 가</w>
▁대응 에</w>
▁당연 한</w>
▁다 시는</w>
▁누 적
▁낙 태
▁기념 촬
▁극 단</w>
▁국제 적</w>
▁과거 에는</w>
▁골키 퍼</w>
▁경제 협력
▁경기 장</w>
▁가 짜</w>
S T</w>
현 장에서</w>
조 정</w>
여 년</w>
방 으로</w>
문 제
딩 을</w>
기업 들이</w>
골 이</w>
▁횡 령</w>
▁환 상
▁현실 이</w>
▁투 기
▁친 화
▁추정 하고</w>
▁질 이</w>
▁지하철 을</w>
▁지켜 보
▁자료 는</w>
▁이 익</w>
▁온 갖</w>
▁여 건을</w>
▁어 색
▁시 기는</w>
▁슈퍼 주
▁송 부
▁소프트 웨
▁세 상이</w>
▁선언 했다</w>
▁생산 한</w>
▁보 아</w>
▁벌어 지고</w>
▁박 탈
▁무 리한</w>
▁말 했다고</w>
▁마련 에</w>
▁드 림
▁늘어 났다</w>
▁늘 리고</w>
▁그 야말로</w>
▁결 론이</w>
▁B TS</w>
▁19 60</w>
M A</w>
트 인</w>
있 고</w>
언 론
분 한</w>
부 대</w>
리 바
들 기</w>
구 민</w>
▁프로젝 트가</w>
▁파 일</w>
▁조 양호</w>
▁조 사는</w>
▁정 우
▁재 고</w>
▁이동 이</w>
▁영 장을</w>
▁연계 한</w>
▁연결 된</w>
▁여 부와</w>
▁언급 하며</w>
▁안 락
▁식 중
▁스 킨
▁숨 지게</w>
▁부모 님이</w>
▁본 청</w>
▁보 람
▁반 등
▁박람 회</w>
▁무 소
▁목표 는</w>
▁목 포
▁뜻 깊
▁댄 스
▁대 규모
▁눈 앞
▁기다 려</w>
▁국방 부가</w>
▁관련 해서</w>
▁가능 하다면</w>
c e</w>
플 랫
평 이</w>
짐 에</w>
재생 에너지</w>
이 긴</w>
시설 은</w>
사령 부</w>
병 으로</w>
문 제가</w>
▁홍보 대
▁했 으며</w>
▁해외 로</w>
▁하락 한</w>
▁투자 에</w>
▁토 크
▁콘 퍼런
▁진 실
▁주 소</w>
▁제한 하는</w>
▁제 외</w>
▁있으 세요</w>
▁일 명</w>
▁어디 에서</w>
▁안전 관리
▁심 상
▁상황 과</w>
▁북한 이탈
▁민 원을</w>
▁데 에는</w>
▁던 진</w>
▁단속 을</w>
▁그 쳤
▁광주 형</w>
▁관객 이</w>
▁고 난
▁가난 한</w>
▁가 구의</w>
S C
M P</w>
티 브</w>
총 은</w>
지 하
속 에서</w>
소 인</w>
담 보
기 금
▁회 복</w>
▁활성 화와</w>
▁호소 했다</w>
▁혈 액
▁핵심 이다</w>
▁평 일</w>
▁진출 에</w>
▁증거 인
▁점 포
▁전 력을</w>
▁재적 위원</w>
▁인 생의</w>
▁이용 에</w>
▁이 윤
▁이 시
▁영 세</w>
▁여러 분의</w>
▁여 사가</w>
▁어 젯
▁안전 사고</w>
▁아름다 움을</w>
▁소통 하는</w>
▁사로잡 는다</w>
▁비 하
▁동작 구</w>
▁독 서</w>
▁높 지</w>
▁나가 겠다</w>
▁국토교통 부가</w>
▁고마 워요</w>
▁개 시
▁가 도</w>
항 과</w>
위 권</w>
시 나요</w>
스 마트
되었 다는</w>
날 을</w>
께 서는</w>
군 으로</w>
공 화
고 용</w>
▁피 로
▁프로젝 트에</w>
▁품 고</w>
▁펼쳐 지는</w>
▁팬 미
▁타당 성</w>
▁코 미디
▁충 무
▁직 무</w>
▁증가 해</w>
▁있 기에</w>
▁읽 을</w>
▁인 접
▁인 생</w>
▁이 끌</w>
▁음식 에</w>
▁위치 하고</w>
▁없 다며</w>
▁순 위에</w>
▁생 긴다</w>
▁상 한
▁사 들
▁빛 이</w>
▁빌 려</w>
▁부적 절한</w>
▁반 성
▁땅 땅</w>
▁따라 야</w>
▁두 며</w>
▁도서 관
▁댓글 을</w>
▁대상 자</w>
▁대다 수</w>
▁내 신</w>
▁김 일
▁궁 극
▁광 교
▁경 매
▁가라 앉
▁N C</w>
프로그램 을</w>
중 심
연 수
보 존
뱅 크</w>
머 스</w>
광 주
▁힘들 어</w>
▁한 일
▁하 기도</w>
▁폭발 적인</w>
▁태 국
▁청와 대와</w>
▁징수 할</w>
▁조 화
▁제 약</w>
▁점 심을</w>
▁전체 에</w>
▁우려 되는</w>
▁없었 다고</w>
▁없 네요</w>
▁알 코
▁실 수를</w>
▁설치 가</w>
▁서울중앙지 법</w>
▁보 충
▁바 뀔</w>
▁명 목으로</w>
▁많 았던</w>
▁떠 났다</w>
▁들 었는데</w>
▁독 거
▁대행 한다</w>
▁대 선
▁대 관
▁내 달</w>
▁그러 던</w>
▁권 역
▁국가 에</w>
▁국 산</w>
▁광 명
▁과거 사
▁고 의
201 5</w>
홀 딩
탄 이</w>
지 휘
지 부</w>
종 에</w>
업체 와</w>
백 만</w>
그 라
▁확 대가</w>
▁혼란 을</w>
▁하나 님을</w>
▁풍 성
▁평가 하고</w>
▁초청 해</w>
▁지역 에는</w>
▁제공 되는</w>
▁적 도</w>
▁이유 에서다</w>
▁이사 회</w>
▁우 크
▁와 중에</w>
▁아 주
▁시작 했습니다</w>
▁시 리아</w>
▁숙 명
▁상 파울
▁비례 대표
▁불가능 하다</w>
▁무 력
▁모 를</w>
▁멜 로
▁드 레
▁덕 분
▁답 변</w>
▁농 촌</w>
▁내 구
▁기 피
▁기 사는</w>
▁건 국
▁강화 에</w>
▁가져 올</w>
화 되면서</w>
호 에서</w>
측 에</w>
천 만원</w>
다 거나</w>
관 리가</w>
▁한국 노
▁한 참</w>
▁하락 세를</w>
▁파티 를</w>
▁팀 에</w>
▁트 래
▁출 장을</w>
▁채 취
▁차 관
▁찍 는</w>
▁지금 부터</w>
▁조치 로</w>
▁조직 의</w>
▁제주 도는</w>
▁장면 은</w>
▁우 대
▁영등 포
▁연구 위원은</w>
▁양 평
▁안 건을</w>
▁스타디 움에서</w>
▁손 이</w>
▁소 액
▁생태 계를</w>
▁삶 삶</w>
▁부족 으로</w>
▁보내 드리겠습니다</w>
▁보 시면</w>
▁베네수엘 라</w>
▁명확 하게</w>
▁러시아 가</w>
▁돈 으로</w>
▁김병 준</w>
▁국회의 원
▁국민연 금이</w>
▁게임 이</w>
했 거나</w>
인터 넷
비 행
독 한</w>
년 간의</w>
내 용</w>
간 이</w>
▁확정 됐다</w>
▁확보 했다</w>
▁화성 시</w>
▁행 위에</w>
▁해소 하기</w>
▁한 겨
▁필요 는</w>
▁포 지
▁평양 에서</w>
▁축 구를</w>
▁찾아 와</w>
▁조치 에</w>
▁전 임</w>
▁자 가
▁업체 와</w>
▁악 취
▁신 라</w>
▁시 장과</w>
▁설명 하는</w>
▁선택 하는</w>
▁서 면
▁삼성전 자의</w>
▁사이 로</w>
▁빨 간</w>
▁빛 나는</w>
▁붙 은</w>
▁붕 괴</w>
▁만 하다</w>
▁대 치
▁달라 질</w>
▁낮 고</w>
▁남북 정상회담</w>
▁나 라는</w>
▁기 부</w>
▁7 4</w>
후 의</w>
환 은</w>
현 과</w>
항 은</w>
토 지
척 이</w>
줘 요</w>
준 표</w>
유 럽
어 스</w>
십 자
소득 이</w>
빈 이</w>
만큼 은</w>
루 는</w>
글로 벌</w>
구 청</w>
공 사를</w>
▁횡 단
▁회 사와</w>
▁헝가 리</w>
▁표현 이</w>
▁파 라
▁출석 한</w>
▁창 업을</w>
▁지속 해서</w>
▁지방자치 단체가</w>
▁중 계
▁줄 줄이</w>
▁좋아 해</w>
▁제공 합니다</w>
▁정 도에</w>
▁절 약
▁인 계
▁이뤘 다</w>
▁위촉 할</w>
▁우 편
▁오 산
▁영 남
▁여론 조사</w>
▁에이 전
▁어렵 지</w>
▁않았 는데</w>
▁시 카
▁수행 한다</w>
▁소속 된</w>
▁소 재를</w>
▁방 과</w>
▁발견 돼</w>
▁민주 당은</w>
▁만남 이</w>
▁마음 의</w>
▁마 리가</w>
▁동 일</w>
▁도시 계획
▁대 두
▁대 가</w>
▁다 른
▁내 걸
▁나서 서</w>
▁권 익
▁구제 역</w>
S K</w>
O R
해 드리겠습니다</w>
하시 기</w>
하 게도</w>
취 업</w>
임 은</w>
율 과</w>
유 럽</w>
번 째로</w>
무 늬
도시 로</w>
단체 는</w>
기술 이</w>
경제 의</w>
▁홈런 을</w>
▁포 스트
▁펼쳐 질</w>
▁투 기</w>
▁타 입
▁추 격
▁찬 성으로</w>
▁지키 기</w>
▁재 료를</w>
▁자연 스러운</w>
▁이용 하면</w>
▁은행 에</w>
▁요 소를</w>
▁여 전
▁실현 을</w>
▁실태 조사를</w>
▁소 개</w>
▁새 해
▁상 가
▁봉사 활동을</w>
▁무 릎</w>
▁목소 리도</w>
▁말 하기</w>
▁만 났다</w>
▁따 져
▁도시 재생</w>
▁대법 원은</w>
▁달 간</w>
▁늘 어</w>
▁꿈 은</w>
▁길 로</w>
▁그 들</w>
▁곡 을</w>
▁것 이기</w>
▁거짓 말
r i
해보 면</w>
지 자
아 티
로 지</w>
날 이</w>
금 액이</w>
▁해 고
▁하 에</w>
▁표현 하는</w>
▁친 한</w>
▁조 정을</w>
▁재난 안전
▁자격 증</w>
▁일시 적으로</w>
▁응답 자의</w>
▁오 세요</w>
▁영 위
▁아이 는</w>
▁아동 의</w>
▁시행 한다</w>
▁세 금
▁생 중
▁삼성전 자와</w>
▁보 이스
▁보 궐
▁문 의가</w>
▁모 임</w>
▁맞 을</w>
▁뛰 는</w>
▁드러 낸</w>
▁노동 자의</w>
▁내 수
▁금융 위는</w>
▁국 립</w>
▁공인 중
▁공공 기관이</w>
▁고양 이</w>
▁개최 됐다</w>
▁개 개
▁8 6</w>
희 는</w>
했 음에도</w>
해주 실</w>
표 준
주 식
전 략</w>
위원 장을</w>
어 에서</w>
색 과</w>
봉 을</w>
매 체</w>
기 나</w>
교육 과</w>
공무 원이</w>
▁한 복을</w>
▁포인 트를</w>
▁직원 에게</w>
▁주민 들에게</w>
▁주 류</w>
▁재 수
▁음 원</w>
▁옥 외
▁오 기</w>
▁연 출</w>
▁신 발</w>
▁시 도가</w>
▁성 장과</w>
▁선택 이</w>
▁생 리
▁사람 이에요</w>
▁붙 여</w>
▁부족 하다는</w>
▁먹 으러</w>
▁동 구</w>
▁독 보
▁납부 하여야</w>
▁고 유의</w>
▁것 이라며</w>
▁강화 하기</w>
1 000</w>
하였 으나</w>
하 늘
품 안전
축 구</w>
지 수가</w>
요 양
업 계는</w>
스 도</w>
소 리가</w>
발 로</w>
더 를</w>
농 가</w>
국 회</w>
▁희 망</w>
▁하 려면</w>
▁프 라
▁택 배</w>
▁측 에서</w>
▁취 해</w>
▁추 석
▁총 장은</w>
▁청 약</w>
▁창의 적인</w>
▁전 동
▁이끌 었다</w>
▁이 원
▁연루 된</w>
▁안 산</w>
▁아닌 가요</w>
▁실 력
▁선 전
▁봤 는데</w>
▁박 진
▁바 꾼</w>
▁미 팅
▁무 궁
▁도 주
▁도 에</w>
▁데 서</w>
▁대비 한</w>
▁단계 적으로</w>
▁나왔 습니다</w>
▁구 성을</w>
▁개념 을</w>
h a</w>
L G</w>
회 사
주택 을</w>
조 리
전 통
오 프</w>
빨 리</w>
병 원이</w>
변 이</w>
범 위</w>
명 령을</w>
만 대</w>
더 스</w>
농 구</w>
경 영</w>
겠 지</w>
▁형성 된</w>
▁향 하는</w>
▁해 병
▁필리핀 에</w>
▁평 택</w>
▁판 결</w>
▁키 울</w>
▁출 자
▁참가 자들은</w>
▁지 각
▁제시 하고</w>
▁잠 실
▁이틀 간</w>
▁이 득
▁열 정을</w>
▁연 중</w>
▁여기 에는</w>
▁없 지</w>
▁아 빠</w>
▁시행 하고</w>
▁시 켜
▁상 금</w>
▁사람 입니다</w>
▁사 내
▁반 갑
▁동일 하게</w>
▁뇌 물
▁논의 하는</w>
▁내려 진</w>
▁날 에</w>
▁길 어
▁교육 감이</w>
▁계획 입니다</w>
▁강 제로</w>
▁6 9</w>
혜 택
콘텐 츠</w>
카 드로</w>
시켜 야</w>
볼 게요</w>
레 를</w>
국 악
광 장</w>
가 던</w>
▁후보 자의</w>
▁회 원이</w>
▁카자흐 스탄</w>
▁지원 금을</w>
▁제 치고</w>
▁장 의</w>
▁자신 감이</w>
▁이뤄 지
▁울 릉
▁운영 이</w>
▁요구 하며</w>
▁엔 진</w>
▁안정 적</w>
▁아이 스
▁아랍 에미
▁쌓 은</w>
▁상 륙
▁붉 은
▁본 인
▁미 군
▁모르 겠지만</w>
▁달콤 한</w>
▁놀 랐
▁논란 은</w>
▁괜찮 아요</w>
▁감 면</w>
▁E X
▁4 000</w>
i r
홍 보
티 스</w>
즈 에</w>
위원 을</w>
스 턴</w>
수 당을</w>
부동 산
량 한</w>
니 스트</w>
기 아
가 입
▁흥 행</w>
▁혼 잡
▁행 동</w>
▁하락 했다</w>
▁프로젝 트는</w>
▁판단 할</w>
▁초 록
▁참석 하고</w>
▁집 행</w>
▁중요 하지만</w>
▁중소기업 을</w>
▁주 재</w>
▁제외 하면</w>
▁입 원</w>
▁일 입니다</w>
▁의 문이</w>
▁유 감
▁우선 순
▁엿 볼</w>
▁에어 컨</w>
▁언 어를</w>
▁약속 이</w>
▁않 으면서</w>
▁쓰 이는</w>
▁실패 한</w>
▁시 연
▁스타트 업
▁상품 으로</w>
▁사회공 헌
▁발견 했다</w>
▁모집 에</w>
▁맞 습니다</w>
▁만 화
▁되돌 아
▁동 물을</w>
▁도 울</w>
▁대상 에서</w>
▁누군 가</w>
▁나타 내는</w>
▁과도 하게</w>
▁과 제가</w>
▁공무 원과</w>
▁겁 니까</w>
▁S W</w>
해보 세요</w>
지난 해</w>
조 사가</w>
쓰 레
실 적을</w>
신 고를</w>
받 게</w>
명 씩</w>
들 입니다</w>
들 께</w>
▁휘 두
▁한 일</w>
▁포르 투
▁차 가운</w>
▁짙 은</w>
▁지방 보조금</w>
▁줬 다</w>
▁중간 선거
▁조언 을</w>
▁제기 돼</w>
▁장 치를</w>
▁자 격</w>
▁일 대에</w>
▁이듬 해</w>
▁이 적
▁음 료</w>
▁온 몸
▁안타까 운</w>
▁안 을</w>
▁소 장은</w>
▁생각 한</w>
▁범죄 를</w>
▁만 큼
▁마 실</w>
▁대응 하기</w>
▁단 어를</w>
▁노 사가</w>
▁날 로부터</w>
▁기재 부</w>
▁기술 적</w>
▁군 이</w>
▁구성 하며</w>
▁구 사
▁교 민
▁가 정을</w>
S J</w>
푸 드</w>
저 널</w>
자유 구역
월 의</w>
였 기</w>
약 은</w>
속 이</w>
병 원에서</w>
뮤 지
모 비
만 족
▁효과 는</w>
▁협 회</w>
▁협 박
▁현 역</w>
▁해외 에</w>
▁한진 그룹</w>
▁학 기</w>
▁판 로
▁털어 놨다</w>
▁컴퓨 터
▁철 강</w>
▁지나 지</w>
▁주 차</w>
▁조 처를</w>
▁정 동
▁접근 할</w>
▁전 액을</w>
▁저렴 하게</w>
▁재 단</w>
▁임 기
▁응 모
▁유 성
▁워 너
▁오 브</w>
▁여 자는</w>
▁여 부는</w>
▁없었 다는</w>
▁신 호를</w>
▁신 곡</w>
▁수 목
▁사망 자</w>
▁빼 돌
▁불법 촬
▁불 렀
▁부회 장은</w>
▁보건복지 부</w>
▁발 병
▁발 길이</w>
▁문 턱
▁문 구가</w>
▁모바 일
▁메 가
▁마을 의</w>
▁도 우
▁단 지
▁단 계에</w>
▁넘어 섰다</w>
▁나 고</w>
▁급 한</w>
▁구입 할</w>
▁교 회에</w>
▁관 절
질 과</w>
증 진을</w>
중 에서</w>
조 작</w>
윤 리
요 구
연 락
에 까지</w>
세 포
부 가
드 루킹</w>
다 리
닝 을</w>
군 수</w>
▁현대 차
▁퍼 레이
▁패키 지</w>
▁퇴 근</w>
▁토론 토
▁코스 피</w>
▁충 당
▁축 제로</w>
▁체 제를</w>
▁체 육</w>
▁차량 은</w>
▁장학 금</w>
▁있으 니까</w>
▁있 겠다</w>
▁응답 이</w>
▁유 공
▁완성 차</w>
▁영 어가</w>
▁아픔 을</w>
▁아 토
▁쌍 둥이</w>
▁실종 된</w>
▁시 정</w>
▁소 망
▁성남 시</w>
▁서 로
▁산불 이</w>
▁분 쟁</w>
▁부산 에</w>
▁부 진이</w>
▁발 탁
▁바다 를</w>
▁바 로잡
▁뭐 라고</w>
▁물 었다</w>
▁문 자를</w>
▁못 지않
▁달 라는</w>
▁국민 을</w>
▁관여 한</w>
▁9 8</w>
총 을</w>
전 형</w>
인 드</w>
원 전</w>
용 의</w>
언 더
사 회를</w>
베 트
물 인</w>
모 닝
구 의
경 제가</w>
▁환경 오염
▁홍콩 에서</w>
▁헬 기</w>
▁한 식
▁피 하기</w>
▁포함 되지</w>
▁커 지자</w>
▁최 선
▁처음 에</w>
▁정보 와</w>
▁전 부를</w>
▁적용 된다</w>
▁장르 의</w>
▁월스트 리트
▁운 행을</w>
▁예 수</w>
▁여성 과</w>
▁여름 방
▁엔터테인먼 트</w>
▁없 이는</w>
▁신입 사
▁신 형</w>
▁수 의</w>
▁사실 도</w>
▁비 율</w>
▁부당 하게</w>
▁부 른</w>
▁보 장</w>
▁변화 는</w>
▁방 지를</w>
▁미 생
▁모르 겠
▁멤버 들의</w>
▁말 했어요</w>
▁말 아야</w>
▁마케 팅을</w>
▁라 인</w>
▁때 면</w>
▁동물 보호
▁대 동
▁노 르
▁급 감
▁근거 를</w>
▁구조 적</w>
▁구 인
▁골키 퍼
▁고 기를</w>
▁개그 맨</w>
▁t vN</w>
일 간의</w>
오 늘</w>
양 과</w>
상 이다</w>
사 실을</w>
북 한</w>
부장 관이</w>
▁환 급
▁확보 하는</w>
▁홍영 표</w>
▁하나 님</w>
▁펼 쳐</w>
▁투 쟁
▁초과 하는</w>
▁찾아 온</w>
▁지역 구</w>
▁지 혜
▁중 순</w>
▁조 정이</w>
▁적 격
▁자리 로</w>
▁자 산을</w>
▁임명 한다</w>
▁인프라 가</w>
▁음악 에</w>
▁운동 은</w>
▁예 예</w>
▁승 리의</w>
▁손 가락
▁성장 세를</w>
▁선언 한</w>
▁서 정
▁생각 했어요</w>
▁새 겨진</w>
▁상 공
▁살 려</w>
▁비 무장
▁벤 치
▁배경 에는</w>
▁박 스</w>
▁바라 보고</w>
▁민주 당의</w>
▁못 합니다</w>
▁말 하지</w>
▁마을 을</w>
▁되 게</w>
▁도봉 구</w>
▁대한민 국을</w>
▁내용 도</w>
▁꼬집 었다</w>
▁기울 이고</w>
▁기쁨 을</w>
▁국 회의</w>
▁구 비
▁공 예
▁경 협
▁건강 이</w>
▁객 실</w>
희 의</w>
항 에도</w>
티 브
자 리
은행 과</w>
왔 지만</w>
연 수</w>
써 부터</w>
시설 로</w>
법 률
림 은</w>
들 께서</w>
나이 티
경 제를</w>
▁폭염 으로</w>
▁퇴 직</w>
▁통 계</w>
▁커 리
▁침 대</w>
▁초 부터</w>
▁채 권</w>
▁정보 공개
▁전 보다</w>
▁작품 에</w>
▁자아 냈다</w>
▁일 과</w>
▁유지 하기</w>
▁외 식
▁업 계가</w>
▁애니메이 션</w>
▁아파 트를</w>
▁심 리적</w>
▁시민 사회
▁시 신을</w>
▁수업 은</w>
▁셋 째</w>
▁설명 할</w>
▁사 과</w>
▁본 회의</w>
▁복 사
▁밝 히는</w>
▁발굴 해</w>
▁바다 에</w>
▁미국 산</w>
▁맞 춤</w>
▁만 듭니다</w>
▁마련 이</w>
▁들어 설</w>
▁도 서</w>
▁낙 관
▁과 감
▁공개 해</w>
▁경상 북도</w>
▁검토 하여</w>
▁걷 고</w>
▁각 광
▁S t
▁7 9</w>
▁1 2
e m
K T</w>
희 정</w>
츠 가</w>
쪽 은</w>
이익 이</w>
운 반</w>
야 지</w>
았 으나</w>
실 천
신 문이</w>
생 들의</w>
비 상
복지 법</w>
관 계에</w>
경 험
거 리에서</w>
개 정
▁활동 은</w>
▁필요 하면</w>
▁프리미어 리그</w>
▁포트 폴
▁투자 한</w>
▁체 제</w>
▁청년 이</w>
▁철 수
▁주도 한</w>
▁좌 절
▁제 재가</w>
▁제 일
▁전 술
▁자격 증을</w>
▁일부 러</w>
▁이 보다</w>
▁우려 하는</w>
▁양 측이</w>
▁알아 보
▁아 기</w>
▁속 초
▁속 도</w>
▁석 방
▁서울 시장</w>
▁서울 대
▁삶 과</w>
▁비 로
▁불 에</w>
▁부 처
▁번 역</w>
▁물 건</w>
▁명 의로</w>
▁며 칠
▁드 리고</w>
▁뒤 인</w>
▁당신 도</w>
▁노트 북
▁기무 사</w>
▁과거 와</w>
▁고 문
▁경기도 시
▁걸 어서</w>
▁거 점
▁개 설</w>
▁감 정</w>
▁Y G</w>
▁L H</w>
IC T</w>
G B</w>
훈 은</w>
텔레 콤
주 일</w>
주 실</w>
작 은</w>
일 랜드</w>
일 까</w>
인 원</w>
시스템 에</w>
설 계
상 인</w>
발 생</w>
레 저
▁혼 합
▁표 정을</w>
▁측 면</w>
▁진 로</w>
▁직원 들은</w>
▁주인공 이</w>
▁제 보
▁점 용
▁이동 할</w>
▁이동 하는</w>
▁의 류</w>
▁유 학
▁알 아요</w>
▁실험 을</w>
▁스타 들이</w>
▁센터 장은</w>
▁상 시
▁본 래</w>
▁별 표
▁범 위는</w>
▁벌 써부터</w>
▁발 언</w>
▁문 건
▁무게 가</w>
▁몰 리는</w>
▁될 까</w>
▁도입 에</w>
▁농어 촌
▁내 부의</w>
▁규정 은</w>
▁귀 찮
▁교 정
▁공개 돼</w>
▁개 시</w>
▁가슴 이</w>
▁가수 들이</w>
▁U S
▁8 7</w>
u l
C A</w>
프 로</w>
프 란시
촉 진
직 에</w>
인 재
인 력
으 신</w>
율 에</w>
운동 의</w>
운 다</w>
수 련
브 랜드</w>
받 고자</w>
리그 에서</w>
개 소를</w>
▁확 장</w>
▁통신 원이</w>
▁토로 했다</w>
▁침 해</w>
▁촉진 하기</w>
▁차 원
▁직원 들에게</w>
▁조사 결과</w>
▁조 건</w>
▁정상 의</w>
▁전 두
▁장애 가</w>
▁자율 적으로</w>
▁일 련의</w>
▁의사 소통
▁위 장
▁양천 구</w>
▁알려 주는</w>
▁않 겠
▁안 착
▁아 들의</w>
▁쉬 고</w>
▁서 술
▁브랜 드의</w>
▁부산 시
▁법 관</w>
▁배경 에</w>
▁발 이</w>
▁바 퀴
▁미 팅</w>
▁모 래
▁마 켓
▁되었 다고</w>
▁도 매
▁단체 는</w>
▁나 눈</w>
▁김 미
▁규정 하는</w>
▁광주 시
▁관계 기관</w>
▁고 추
▁결 제를</w>
▁거 니</w>
▁같 지</w>
▁1 1
at ion</w>
P A</w>
3 000</w>
201 4</w>
회 말</w>
총 회</w>
증 권
재정 적</w>
소 재</w>
소 송</w>
분 까지</w>
부 장이</w>
등 급을</w>
공 시
▁확인 해
▁화 를</w>
▁카 풀</w>
▁초과 할</w>
▁청소년 의</w>
▁참 관
▁지적 에</w>
▁중 립
▁접 한</w>
▁점 과</w>
▁있어 서는</w>
▁이루어 지는</w>
▁유네 스코</w>
▁위원 에게</w>
▁역사 적인</w>
▁에 버
▁언론 들은</w>
▁않 겠다</w>
▁안전 과</w>
▁쏟아 져</w>
▁시작 될</w>
▁시 신이</w>
▁사무 실을</w>
▁사무 실에서</w>
▁뿌 듯
▁불과 한</w>
▁분야 로</w>
▁벚 꽃
▁방송 통신
▁받았 지만</w>
▁미래 가</w>
▁먹 을
▁만 의</w>
▁마을 에</w>
▁리 듬
▁됩 니까</w>
▁다양 하고</w>
▁놀 이</w>
▁노 선을</w>
▁넘 긴</w>
▁기관 과</w>
▁국무위원 장과</w>
▁광 양
▁계 승
▁결정 하고</w>
▁개최 한다고</w>
▁8 3</w>
7 000</w>
적 입니다</w>
저 도</w>
원 입니다</w>
우 지</w>
수수 료</w>
산업 에</w>
랜 드의</w>
돼 서</w>
남 부
과 제</w>
▁현실 화
▁혁신 적인</w>
▁하 실</w>
▁필요 시</w>
▁펼쳐 진</w>
▁특 정한</w>
▁타 격
▁친구 에게</w>
▁중 동
▁종 교</w>
▁저 자는</w>
▁재 개발</w>
▁자 생
▁입법 예
▁임 대</w>
▁음 성</w>
▁왔 어</w>
▁예 로</w>
▁업무 상</w>
▁애플리케이 션</w>
▁알 릴</w>
▁앉 아서</w>
▁아 사
▁설명 해</w>
▁비 밀</w>
▁분 포
▁보 자</w>
▁방 역
▁미 니</w>
▁무 혐
▁목 에</w>
▁둘 이</w>
▁다 자
▁남녀 노
▁기억 을</w>
▁귀 가
▁관 행
▁게시 판에</w>
▁가 꾸
▁L NG</w>
▁9 2</w>
▁9 00</w>
I FA</w>
효 과</w>
졌 어</w>
점 도</w>
이라 면서</w>
에 셋
분 리</w>
버 린</w>
는 지도</w>
그 린
규 제
▁할 머니</w>
▁피해 는</w>
▁피 부가</w>
▁컨테이 너</w>
▁커 서</w>
▁침 수
▁춘 천
▁최 상의</w>
▁초콜 릿
▁증 빙
▁중요 성이</w>
▁조 형
▁전 락
▁전 공</w>
▁적 시
▁장기 적으로</w>
▁자아 낸다</w>
▁의 외
▁유 착</w>
▁원 고</w>
▁요구 된다</w>
▁완 화를</w>
▁역 사의</w>
▁쌓 인</w>
▁식 의</w>
▁설립 을</w>
▁사 내</w>
▁보호 하고</w>
▁변경 을</w>
▁목 목</w>
▁마이 클</w>
▁딸 의</w>
▁동 생</w>
▁동 방
▁독 창
▁도모 하기</w>
▁국민 건강
▁구 정
▁9 7</w>
했 으니</w>
철 수</w>
적 과</w>
으 론</w>
압 의</w>
대상 자</w>
농 도</w>
과 에서</w>
고 지
건 강</w>
▁힘들 어
▁회계 연도</w>
▁확정 되면</w>
▁표 정으로</w>
▁출 토
▁촉 진</w>
▁증가 하면서</w>
▁주민 들을</w>
▁제 도는</w>
▁정보 기술</w>
▁전문가 의</w>
▁전달 한</w>
▁적극 적</w>
▁저 가</w>
▁자 원</w>
▁자 신</w>
▁입 지</w>
▁인 물</w>
▁이 석
▁의 식이</w>
▁우려 된다</w>
▁오 프
▁연 세대</w>
▁앉 아
▁안 건의</w>
▁안 건</w>
▁시행 된</w>
▁승 부를</w>
▁스페 셜</w>
▁선거 를</w>
▁선 두
▁서 대문
▁살 면서</w>
▁사용 하면</w>
▁브리핑 에서</w>
▁부족 하다</w>
▁백 두
▁배 수
▁발견 한</w>
▁몰라 요</w>
▁면접 을</w>
▁됐 어요</w>
▁도입 된</w>
▁데이 터가</w>
▁대출 이</w>
▁대신 에</w>
▁다 친</w>
▁누 설
▁남북 관계</w>
▁나오 자</w>
▁김 은
▁김 윤
▁금융 투자
▁공격 수</w>
▁계획 하고</w>
▁간편 하게</w>
▁9 4</w>
지 법</w>
중 이다</w>
신 문은</w>
신 문
시 나</w>
년 에도</w>
▁횡 령
▁환 자는</w>
▁해결 에</w>
▁한 껏</w>
▁하 겠다고</w>
▁품 질이</w>
▁표 했다</w>
▁폭 을</w>
▁터 라</w>
▁친구 들
▁추진 될</w>
▁청와 대에서</w>
▁차 별</w>
▁지 친</w>
▁줘 야</w>
▁줄 여</w>
▁전 년도</w>
▁입 에</w>
▁의 류
▁을 지
▁연방 준비
▁여 섯</w>
▁아이 들과</w>
▁신한 금융
▁시 그
▁소개 해</w>
▁세계 로</w>
▁세 트
▁설치 하여야</w>
▁서울 이</w>
▁상 향
▁사 안에</w>
▁불과 하다</w>
▁불 불</w>
▁부적 절
▁부 대</w>
▁변 신
▁미안 해</w>
▁말 았다</w>
▁마련 해야</w>
▁리 스트
▁도착 해</w>
▁도와 주는</w>
▁대체 할</w>
▁담당 자가</w>
▁기능 은</w>
▁권 력을</w>
▁구 단
▁개발 했다</w>
▁감 성을</w>
▁가입 자</w>
청 와
처 벌
조합 이</w>
여 고</w>
수요 가</w>
비 율</w>
마 드</w>
루 의</w>
▁확 충</w>
▁화 면을</w>
▁해당 되는</w>
▁학생 들</w>
▁푸 른</w>
▁포 스코</w>
▁페 르
▁티 저</w>
▁카 테
▁총 력을</w>
▁초 상
▁처벌 이</w>
▁진상 조사
▁정보 화</w>
▁전 성
▁잔 잔</w>
▁인터넷 으로</w>
▁인터넷 에</w>
▁이 력
▁유 승
▁온 도가</w>
▁영 웅
▁연결 해</w>
▁아니 냐</w>
▁식품의약 품안전
▁수용 할</w>
▁속 이</w>
▁세련 된</w>
▁세 워</w>
▁생각 해
▁법 에</w>
▁못 한다는</w>
▁메 인
▁마찬가 지
▁마 카
▁떠 날</w>
▁도 민이</w>
▁낙 후
▁기다려 야</w>
▁기 차
▁국토교통 부는</w>
▁강경 화</w>
B M</w>
201 3</w>
평생 교육
저 를</w>
용 과</w>
민 원</w>
르 가</w>
단 위</w>
년 만에</w>
공 유</w>
▁흥 행
▁활 약이</w>
▁홍 준표</w>
▁협 업을</w>
▁함 으로써</w>
▁푸 드
▁특징 이</w>
▁토 론</w>
▁추진 하여야</w>
▁지 휘</w>
▁주 행</w>
▁주 먹
▁제출 했다</w>
▁전 담</w>
▁잘 하고</w>
▁자녀 의</w>
▁입 구에</w>
▁일 정은</w>
▁원활 히</w>
▁영 암
▁연 도
▁싶 을</w>
▁실 종</w>
▁수입 을</w>
▁세 이
▁세 력이</w>
▁선정 한다</w>
▁석 석</w>
▁산업통상자원 부</w>
▁사이 트에</w>
▁사 귀
▁부 품을</w>
▁마 리</w>
▁등 판
▁다 뤄
▁넥 센
▁내놓 았다</w>
▁김 포</w>
▁김 주
▁그렇 다고</w>
▁공시 가격</w>
▁게 다가</w>
▁건물 에</w>
▁& &</w>
o s
O N</w>
4 000</w>
하였 는데</w>
특별 위원회</w>
통 제</w>
체 제를</w>
지역 이</w>
줄 게요</w>
세 종
석 유
부 산</w>
박 근
다 양
▁향 상과</w>
▁한국 당은</w>
▁하나 씩</w>
▁콘 크
▁최 정
▁체 력
▁진출 할</w>
▁지 진
▁지 식과</w>
▁증 선
▁좋 지만</w>
▁전문가 와</w>
▁전 교
▁적 당한</w>
▁재 확인
▁장 으로</w>
▁임대 료</w>
▁일으 킬</w>
▁외 출
▁역 량
▁양 쪽</w>
▁싱 글
▁신 축</w>
▁시내 버스</w>
▁승 객</w>
▁수 석</w>
▁서 버</w>
▁사회적 기업</w>
▁사실 과</w>
▁사무 의</w>
▁비핵 화에</w>
▁비 롯</w>
▁분 기</w>
▁부 천</w>
▁베 스트
▁명 으로</w>
▁마스크 를</w>
▁똑 같
▁더 블
▁대변 인이</w>
▁끔 찍
▁김 형
▁기록 적인</w>
▁그러 니까</w>
▁경기 지
▁걸 었다</w>
▁건강 하고</w>
▁개선 과</w>
i m
i a</w>
처 리를</w>
찬 이</w>
자 연</w>
용 은</w>
오 늘
습 이</w>
셔 널
만 명에</w>
드리 도록</w>
감 치</w>
▁형 제
▁하 려는</w>
▁포 털</w>
▁특징 은</w>
▁투자 할</w>
▁카카 오</w>
▁치 킨</w>
▁출범 한</w>
▁최 전
▁총 수
▁초 기
▁집중 하고</w>
▁직권 남
▁직 장을</w>
▁직 결
▁지난해 까지</w>
▁지 어
▁즐 겨
▁조 항이</w>
▁전형 적인</w>
▁일 원에서</w>
▁의원 들은</w>
▁옷 이</w>
▁예 민
▁여론 을</w>
▁엔 진
▁어려 웠
▁않 더라도</w>
▁악영 향을</w>
▁십 자
▁습 득
▁수 량을</w>
▁생 기고</w>
▁사 흘
▁불 균
▁봉 투
▁문제 점이</w>
▁명예 훼
▁매 체는</w>
▁둔 화
▁도입 해</w>
▁도 청</w>
▁덕 에</w>
▁대표 팀은</w>
▁대통령 에</w>
▁낡 은</w>
▁규칙 에</w>
▁국민 에게</w>
▁국무장 관이</w>
▁경 고</w>
▁견 디
▁검은 색</w>
▁강 연을</w>
▁감 축</w>
▁가 지게</w>
임 에</w>
으 려</w>
월말 까지</w>
왕 의</w>
식 간에</w>
시 께</w>
스럽 고</w>
숙 이</w>
속 으로</w>
세 권</w>
병 에</w>
반 은</w>
달러 를</w>
공간 으로</w>
가 치를</w>
▁회의 록을</w>
▁호 르
▁현 수
▁하늘 을</w>
▁하 위</w>
▁피해 자들이</w>
▁퍼포먼 스를</w>
▁판매 할</w>
▁판 사</w>
▁특 이한</w>
▁투 명한</w>
▁코 치
▁컨소시 엄
▁출석 해</w>
▁추진 하기로</w>
▁총 리와</w>
▁청 사</w>
▁질 환</w>
▁중국 어</w>
▁좋 았다</w>
▁전화 로</w>
▁적 대
▁자 세를</w>
▁인정 될</w>
▁인 원</w>
▁이란 의</w>
▁운 행이</w>
▁우리나라 에서</w>
▁염 색
▁업데이 트</w>
▁소 설</w>
▁소 독
▁사법 행정
▁부담 으로</w>
▁변화 의</w>
▁배우 들의</w>
▁뮤직비 디오
▁무엇 보다도</w>
▁명 단에</w>
▁마련 하기</w>
▁동 안의</w>
▁동 생
▁다 중
▁남 기고</w>
▁기대 해본다</w>
▁기 저
▁국제 사회의</w>
▁광 장에서</w>
▁19 50</w>
학교 를</w>
탕 을</w>
인 치</w>
이었 으며</w>
양 은</w>
새 로운</w>
사 이</w>
블 록
모 델</w>
마 와</w>
리 즘</w>
로이 드</w>
러 를</w>
기업 은</w>
급 의</w>
과 정에</w>
가 구가</w>
▁히 트
▁활동 과</w>
▁확실 하게</w>
▁항 암
▁펀 드
▁통화 에서</w>
▁컬 렉
▁출 고
▁처 분</w>
▁지방 의</w>
▁전 한다</w>
▁작품 의</w>
▁이용 자의</w>
▁의 심</w>
▁위원 회가</w>
▁예방 에</w>
▁업 종</w>
▁시민 들은</w>
▁수익 률이</w>
▁소 셜</w>
▁세 븐
▁성 균
▁상태 였다</w>
▁사회공 헌</w>
▁사용 하기</w>
▁사랑 하고</w>
▁사 흘</w>
▁메이저 리그</w>
▁먹 거리</w>
▁마련 하여야</w>
▁리 스크</w>
▁레 알</w>
▁도 래
▁대 외</w>
▁당 이</w>
▁누군 가가</w>
▁난 이
▁나가 야</w>
▁나가 서</w>
▁꽃 이</w>
▁경기 농
▁경 희
▁갑 질</w>
▁가 장
▁1 70</w>
p p
en t</w>
확 인</w>
퇴 직
카 페</w>
축 을</w>
찌 감치</w>
중소 기업</w>
져 요</w>
장 관
왔 어요</w>
왔 고</w>
식 에서는</w>
시키 며</w>
서비 스가</w>
사 나</w>
봉 투</w>
물 질을</w>
묘 한</w>
고 령
▁훌 쩍</w>
▁행사 에서는</w>
▁해결 해야</w>
▁프로 야구</w>
▁취소 하고</w>
▁차 는</w>
▁증가 가</w>
▁증 대
▁조금 이라도</w>
▁적 법
▁재 능을</w>
▁장례 식
▁일 산
▁인권 침
▁이 젠</w>
▁이 관
▁은 퇴</w>
▁유명 하다</w>
▁요구 되는</w>
▁영 장</w>
▁어머니 는</w>
▁약 속</w>
▁아닌 데</w>
▁쓰레 기를</w>
▁시 위가</w>
▁세 포
▁삼성 의</w>
▁사진 에</w>
▁사우 스
▁블로 그
▁블랙 핑
▁부 부의</w>
▁본 질
▁베트남 에서</w>
▁몰 린</w>
▁라이 프
▁따 르
▁드라마 는</w>
▁되어 있
▁동 창
▁동 서
▁덜 어
▁다 수가</w>
▁누리 꾼
▁나오 기</w>
▁급증 하고</w>
▁금강 산</w>
▁그렇 다</w>
▁군 수</w>
▁관계 로</w>
▁관객 들은</w>
▁경력 단
▁경 주</w>
▁강 사</w>
▁갈 라
▁O LED</w>
▁A P</w>
▁198 8</w>
V R</w>
8 000</w>
회 도</w>
해 와</w>
페이 스</w>
특 보가</w>
토 를</w>
컴 퍼
카 가</w>
칙 을</w>
우 면</w>
봤 는데</w>
병 은</w>
공항 에서</w>
강 원도</w>
▁한 강</w>
▁하 동
▁폴 리
▁투자 해</w>
▁출신 으로</w>
▁지원 은</w>
▁점유 율</w>
▁전통 을</w>
▁전달 하고</w>
▁자 진
▁일 자</w>
▁이루어 지고</w>
▁운 수
▁우 위를</w>
▁예정 이어서</w>
▁여행 은</w>
▁여 비를</w>
▁업그레이 드
▁언제 부터</w>
▁신 문</w>
▁시 장으로</w>
▁송 도
▁사업 추
▁사법 부</w>
▁비용 으로</w>
▁비 자</w>
▁방 으로</w>
▁받아들 이지</w>
▁박 수
▁모두 의</w>
▁떠오 르는</w>
▁도착 하면</w>
▁달 리는</w>
▁금 품을</w>
▁그 로</w>
▁국 외</w>
▁공개 할</w>
▁경영 권</w>
▁가르 치는</w>
▁가로 막
▁199 2</w>
S S</w>
후 가</w>
플루 엔
파 트
창 한</w>
제 도
장 학
병 원은</w>
맛 이</w>
만 원에서</w>
데이 터</w>
국 립
▁희 귀
▁하나 님
▁팬 이</w>
▁통 계를</w>
▁출 석</w>
▁출 발</w>
▁최근 의</w>
▁초등 학생</w>
▁지갑 을</w>
▁지 수가</w>
▁주 체가</w>
▁종 부
▁적 어
▁작품 들이</w>
▁자세 로</w>
▁입 지를</w>
▁일 원
▁인 접한</w>
▁용 역</w>
▁온 도</w>
▁오사 카</w>
▁연예 인</w>
▁아파 서</w>
▁순 위가</w>
▁숙 박</w>
▁수 련
▁소득 을</w>
▁소 유</w>
▁성장 한</w>
▁성 숙
▁선고 했다</w>
▁선거 가</w>
▁삽 입
▁사랑 과</w>
▁빌 딩
▁분명 하다</w>
▁배 부
▁방식 에</w>
▁모아 지고</w>
▁모습 도</w>
▁머 리카
▁드 문</w>
▁달 할</w>
▁논란 의</w>
▁기록 하는</w>
▁그녀 와</w>
▁그 라운
▁국무총 리가</w>
▁구 석
▁괜찮 아</w>
▁공고 하여야</w>
▁공감 대를</w>
▁공 헌
▁경 호
▁개발 된</w>
▁C h
o t
협 상</w>
하 자고</w>
추 는</w>
집 은</w>
정책 과</w>
시 도</w>
만 명
룸 에서</w>
루 에서</w>
드 리는</w>
광 장에서</w>
▁휩 쓸
▁휠 체
▁후보 와</w>
▁하 니까</w>
▁피해 자를</w>
▁표 표</w>
▁팔 레
▁판 사는</w>
▁최저임 금이</w>
▁촛 불
▁체감 할</w>
▁착 각
▁지 연</w>
▁줄 곧</w>
▁준비 해야</w>
▁자매 결
▁옆 에서</w>
▁여 력이</w>
▁아쉬 움이</w>
▁아 아</w>
▁신청 했다</w>
▁시 세
▁수 감
▁선거 제</w>
▁색 이</w>
▁부장판 사는</w>
▁보 조</w>
▁병 역</w>
▁변 화와</w>
▁바뀌 었다</w>
▁미 달
▁뜻 한다</w>
▁노력 해야</w>
▁나 이에</w>
▁기 소</w>
▁과 제로</w>
▁과 감한</w>
▁경상 남도</w>
▁경 사노
▁건 에</w>
▁가 지를</w>
행 위에</w>
코 드</w>
체 스터</w>
쪽 을</w>
주시 길</w>
작 가</w>
인 지는</w>
인 증</w>
연 금
안 보</w>
시 대
맞 춤
르 다</w>
대 응</w>
경 북
▁택 지
▁탈 바
▁초대 형</w>
▁줄 어</w>
▁주목 하고</w>
▁전시 회를</w>
▁전 염
▁전 날
▁적 정한</w>
▁재판 에서</w>
▁장 성
▁입 어
▁은행 의</w>
▁윌 리
▁위험 성이</w>
▁신 장
▁시작 을</w>
▁순 식간에</w>
▁소 아
▁성 평
▁샌드 위
▁샌 프란시
▁사례 도</w>
▁사 드</w>
▁비영 리</w>
▁분식 회계</w>
▁법 관
▁받았 을</w>
▁박 해
▁박 찬
▁바이 올
▁바뀌 고</w>
▁밀 어붙
▁미국 인</w>
▁문화 관광
▁맞추 어</w>
▁되었 으면</w>
▁늘어 나</w>
▁늘 려</w>
▁노래 는</w>
▁네덜 란드</w>
▁내세 운</w>
▁내 역을</w>
▁김 도
▁기여 함을</w>
▁기술 력을</w>
▁금 요
▁국내 에서도</w>
▁구축 해</w>
▁구 민</w>
▁교 착
▁관리 주
▁공개 하지</w>
▁고 전
▁20 25</w>
혜 원</w>
했 음을</w>
통 에</w>
케 이</w>
충 전
절 로</w>
장 관</w>
작 이</w>
의 회가</w>
어 링</w>
수 술
생활 에</w>
도시 의</w>
너 가</w>
▁후원 하는</w>
▁한국 에서도</w>
▁하 는데요</w>
▁하 남
▁텍 사
▁쾌 적
▁철저 하게</w>
▁창 작</w>
▁주도 권을</w>
▁종합 적인</w>
▁정부 서울
▁점 포</w>
▁저희 에게</w>
▁작성 하여야</w>
▁임진 왜
▁인 연이</w>
▁스카 이
▁소유 한</w>
▁센 터를</w>
▁선정 할</w>
▁상 생</w>
▁상 대가</w>
▁삶 은</w>
▁비 준
▁불안 한</w>
▁복 구</w>
▁보여 요</w>
▁배경 이</w>
▁박 사
▁목 포</w>
▁명 품
▁면 모를</w>
▁돕 는다</w>
▁답 이</w>
▁달러 의</w>
▁뉴 스를</w>
▁농 가</w>
▁납세 자보호
▁나 온
▁긴장 감을</w>
▁기 지
▁구 별
▁공 소
▁같 다는</w>
회 째를</w>
총 괄
임 금
인 공
시 스</w>
스 키</w>
사업 법</w>
부 로부터</w>
본 명</w>
마 당</w>
류 로</w>
렸 으며</w>
대 장</w>
놀 이를</w>
공 사와</w>
게 끔</w>
▁확 대로</w>
▁했 는지</w>
▁한 두</w>
▁태 블
▁증 여
▁접어 들
▁적 혀
▁재 검토
▁작용 한</w>
▁자이 언
▁인천 시</w>
▁인 상으로</w>
▁인 디
▁이렇 듯</w>
▁의미 하는</w>
▁의료 기기</w>
▁유니폼 을</w>
▁외 신
▁역할 에</w>
▁없 어도</w>
▁어르 신</w>
▁아파 트가</w>
▁승 강
▁스토 리
▁순 찰
▁속 으로</w>
▁성 장에</w>
▁상태 입니다</w>
▁상 영</w>
▁산 사
▁사고 는</w>
▁때문 인</w>
▁드라마 에</w>
▁드 론
▁돌아 다니
▁대 개</w>
▁노력 해</w>
▁넣 는</w>
▁넘 나
▁남편 은</w>
▁꿈 과</w>
▁극 우</w>
▁그 만</w>
▁국 정</w>
▁광화 문
▁고민 하는</w>
▁강 성
▁감 싸
▁M OU</w>
할 만한</w>
쪽 에는</w>
전 지</w>
은행 에</w>
앤 젤
소 리를</w>
상태 에</w>
사 기</w>
그 래
골 프</w>
▁형태 가</w>
▁해 온</w>
▁파 일
▁튼 튼
▁취 지를</w>
▁착 륙
▁집 무
▁진행 이</w>
▁주 제는</w>
▁주 장은</w>
▁종 로
▁절 대로</w>
▁일 찌감치</w>
▁운 전을</w>
▁오르 면서</w>
▁연구 는</w>
▁업무 와</w>
▁액 션</w>
▁수 년간</w>
▁쇼 트
▁선호 도가</w>
▁상승 을</w>
▁벌 여</w>
▁밀 어
▁문화체육관광 부</w>
▁만들어 낸</w>
▁막 바
▁로드 맵
▁도입 이</w>
▁대중 의</w>
▁단 장은</w>
▁내놓 을</w>
▁나 가고</w>
▁기관 투자
▁공식 적인</w>
▁고려 대</w>
▁계약 에</w>
▁게시 판
▁강 사로</w>
▁가계 부
▁8 1</w>
P M</w>
효 율
혁 이</w>
투 자가</w>
태평 양</w>
킴 이</w>
캠퍼 스</w>
차 피</w>
집 으로</w>
업체 는</w>
실 무
세 서
보 의</w>
다 고도</w>
교 부
공간 이</w>
공 정
건 이다</w>
▁후보 자는</w>
▁현 상은</w>
▁필요 한데</w>
▁피아 노
▁표 정이</w>
▁폭 락
▁판 교</w>
▁파 운
▁크리스 티
▁출 력
▁최저임 금을</w>
▁최 장</w>
▁촉 구하고</w>
▁찾아 야</w>
▁지지 율이</w>
▁지 내는</w>
▁주장 하며</w>
▁정책 적</w>
▁전 신
▁자기 소
▁일 요
▁유 나이티
▁위협 을</w>
▁원 정
▁올라 와</w>
▁여 주
▁얻 게</w>
▁싱가포르 에서</w>
▁시설 과</w>
▁스튜 디오</w>
▁소 각
▁성장 세가</w>
▁부인 했다</w>
▁벽 에</w>
▁밤 을</w>
▁발 송</w>
▁발 견</w>
▁무역분 쟁</w>
▁무 효
▁대북제 재</w>
▁다 국
▁남 용</w>
▁날 씨</w>
▁교 회의</w>
▁거 북
▁갑작 스러운</w>
▁가 뭄
u s
G V</w>
해주 신</w>
해 지면</w>
음 악</w>
시설 물</w>
상 에는</w>
사 실</w>
사 다</w>
비 전</w>
북 한이</w>
등 은</w>
구 역을</w>
▁훈 훈
▁활동 으로</w>
▁활 짝</w>
▁표 창</w>
▁투자 와</w>
▁투 표를</w>
▁투 약</w>
▁줘 서</w>
▁죽 을</w>
▁주 관</w>
▁종사 하는</w>
▁조 회</w>
▁있으 시면</w>
▁음악 과</w>
▁예산 은</w>
▁영 변</w>
▁시 티
▁시 켜</w>
▁수수 료가</w>
▁세미 나</w>
▁생각 했습니다</w>
▁상승 으로</w>
▁사업 비를</w>
▁비상 저감
▁브 레이
▁부산 시가</w>
▁미 끄러
▁무 분
▁마음 은</w>
▁마 리
▁대 조
▁단체 로</w>
▁낙 찰
▁김관 영</w>
▁그래 요</w>
▁그곳 은</w>
▁관 람</w>
▁고민 하고</w>
▁계좌 로</w>
▁계 기를</w>
▁건 은</w>
1 6
한 화</w>
풀 이</w>
택 시</w>
지 주</w>
지 원에</w>
점 유
저 우</w>
자 라는</w>
요 금을</w>
수 석
사업 자가</w>
비 율이</w>
니 까요</w>
느냐 가</w>
난 다는</w>
▁후 임
▁현저 히</w>
▁헌 신
▁해 임
▁합 성
▁학교 와</w>
▁하 였습니다</w>
▁포 도
▁평생 교육</w>
▁철 강
▁진 보</w>
▁주 둔
▁존재 한다</w>
▁조합 원</w>
▁정보 의</w>
▁저 감</w>
▁자 진</w>
▁일본 군</w>
▁이름 과</w>
▁이 준
▁이 념
▁유 가
▁운영 위원회</w>
▁열 정이</w>
▁여 쭤
▁아니 하는</w>
▁시작 했고</w>
▁시 위</w>
▁쉽 다</w>
▁소셜 미디
▁성 능을</w>
▁서귀 포
▁생생 한</w>
▁사이 즈가</w>
▁사 후</w>
▁사 외
▁비판 하는</w>
▁분 리</w>
▁부 터</w>
▁보육 교
▁변경 된</w>
▁배 분
▁방문 하고</w>
▁발 족
▁반영 할</w>
▁대 량
▁늦 어도</w>
▁낭 비
▁남 성은</w>
▁긴급 한</w>
▁금지 하는</w>
▁괜찮 습니다</w>
▁공연 장</w>
▁공공 기관
▁계엄 령</w>
▁경험 할</w>
▁겪 을</w>
▁가르 쳐
▁198 7</w>
e l</w>
한 은</w>
총 회에서</w>
첨 단</w>
인 민
운 용</w>
시 길</w>
보 관
방 식을</w>
명 하게</w>
기 한이</w>
▁현실 에</w>
▁해 소</w>
▁합 산
▁학 계</w>
▁하 얀</w>
▁품 목</w>
▁특 검</w>
▁컨설 팅을</w>
▁차 라리</w>
▁찍 을</w>
▁지역 주민</w>
▁준비 에</w>
▁조례 를</w>
▁제한 할</w>
▁제 도의</w>
▁정신 과</w>
▁전반 을</w>
▁있 긴</w>
▁윤 곽
▁유치 에</w>
▁유 학</w>
▁웃 고</w>
▁옴 부즈
▁양 해
▁애 국
▁상 의
▁비 교</w>
▁블라디 미르</w>
▁브 루
▁불공 정
▁분 주
▁베를 린
▁방향 이</w>
▁밝히 지</w>
▁받 던</w>
▁반려동 물</w>
▁못 했다고</w>
▁맞 서
▁리 콜</w>
▁떠오 른</w>
▁대 미</w>
▁다녀 온</w>
▁다 주택
▁노 선이</w>
▁기 회</w>
▁그려 진</w>
▁경 력</w>
▁결정 은</w>
▁건설 을</w>
▁가치 와</w>
o v
학교 가</w>
지 기를</w>
중 학교</w>
조 원에</w>
작 업이</w>
인 이나</w>
안 내
아 카데
성 과
부 지사</w>
마 리가</w>
라이 언
금 리가</w>
근 무</w>
군 수는</w>
관 에서는</w>
▁흐름 에</w>
▁흉 기로</w>
▁혐 오
▁현대 모비
▁플 랜
▁표창 을</w>
▁특 이
▁카 르
▁찬 성</w>
▁중 반
▁주한미 군</w>
▁적용 될</w>
▁잔 디
▁자 외
▁육아 휴
▁원 상
▁여 당이</w>
▁없 음을</w>
▁업무 추진
▁양 호한</w>
▁양 측</w>
▁약 화
▁알 파
▁심 포지
▁스 미
▁숙 련
▁수익 성이</w>
▁수익 성</w>
▁소 진
▁비난 을</w>
▁보이 면서</w>
▁밝히 면서</w>
▁바람직 하다</w>
▁미 처</w>
▁모 임을</w>
▁망 가
▁만들 어서</w>
▁만 인</w>
▁띄 게</w>
▁뜻 하는</w>
▁들 었
▁내 면</w>
▁급 변
▁그 리는</w>
▁규 격
▁교육과 정을</w>
▁계 정</w>
해 달라</w>
통 제
킹 을</w>
초 등학교
지방경찰 청</w>
종합 지원
액 에</w>
사 회에서</w>
배 우
모 임</w>
드 래
기록 을</w>
가 격을</w>
▁혼란 이</w>
▁행정 부의</w>
▁한 쪽</w>
▁포 천
▁편 성</w>
▁테 슬
▁코스 닥
▁참석 하여</w>
▁짧 게</w>
▁중 구의</w>
▁전 면에</w>
▁저질 렀
▁재활 용</w>
▁인 정</w>
▁유 래
▁운영 되는</w>
▁오리 지
▁영유 아</w>
▁영 역에서</w>
▁역 량이</w>
▁아니 기</w>
▁아 기
▁신 발을</w>
▁시 점</w>
▁수출 을</w>
▁성북 구</w>
▁사이 즈</w>
▁불거 졌다</w>
▁부분 도</w>
▁부모 님은</w>
▁박 준
▁민간 위탁
▁민 사
▁무언 가를</w>
▁메뉴 가</w>
▁등장 한다</w>
▁넘 기
▁깨 고</w>
▁김정 숙</w>
▁급격 하게</w>
▁국가 보훈
▁구청 장과</w>
▁골 고
▁고 발</w>
▁결 승</w>
▁개선 할</w>
▁개선 하기</w>
▁개 입</w>
▁강 수
▁감추 지</w>
▁감 성
▁20 23</w>
a r</w>
프 와</w>
치 료를</w>
채 널
안 타</w>
비 전
되 나요</w>
기 금을</w>
▁호텔 을</w>
▁현실 적인</w>
▁한국 식</w>
▁평가 에서</w>
▁평가 에</w>
▁평가 는</w>
▁총 영
▁차 트</w>
▁집중 호
▁주 방
▁조사 해</w>
▁점 령
▁의 구
▁예상 치</w>
▁업체 인</w>
▁약 세를</w>
▁애 를</w>
▁수요 일</w>
▁상황 에서도</w>
▁사라 지고</w>
▁보 았습니다</w>
▁버 리고</w>
▁밝혔 지만</w>
▁발휘 할</w>
▁미세먼 지를</w>
▁못 해요</w>
▁모르 겠습니다</w>
▁명백 한</w>
▁먹 어</w>
▁다 변
▁느꼈 다</w>
▁나머 지는</w>
▁김 제
▁기 자는</w>
▁근 처에서</w>
▁국 한
▁구 형
▁공모 를</w>
▁공개 하고</w>
▁검토 해</w>
▁건강 보험</w>
▁간 판
a d
B K</w>
화 했다</w>
피 아</w>
피 아
책 으로</w>
장 이나</w>
장 까지</w>
유 는</w>
셨 는데</w>
세 트</w>
로 스</w>
동 물</w>
도 로를</w>
대 장에</w>
다 를</w>
녀 가</w>
글 라
▁흰 흰</w>
▁협의 해</w>
▁현 금을</w>
▁필요 에</w>
▁폐기 물을</w>
▁펼 쳤
▁편 편</w>
▁파 고
▁테 러</w>
▁탐 방
▁카테 고
▁출연 하는</w>
▁지 식</w>
▁중 산
▁주도 하고</w>
▁조 국</w>
▁정상회담 에</w>
▁저 감
▁장 점은</w>
▁자원봉 사</w>
▁있는 가</w>
▁임 금이</w>
▁이 의</w>
▁얼 른</w>
▁시행 한</w>
▁소통 이</w>
▁소유 자</w>
▁세 일
▁성동 구</w>
▁선 풍
▁사 냥
▁블 랙</w>
▁부분 이다</w>
▁변 동이</w>
▁박 주
▁물 량</w>
▁목 이</w>
▁막 혀</w>
▁동 대문구</w>
▁더 운</w>
▁눈 물이</w>
▁나눴 다</w>
▁기능 성</w>
▁그렇 습니다</w>
▁그 치지</w>
▁구글 이</w>
▁구 리
▁건축 물의</w>
▁건축 물
▁개선 하고</w>
▁같 았다</w>
▁가입 한</w>
▁9 1</w>
한 데다</w>
학 술
표 는</w>
폐기 물
체 육</w>
증 진</w>
장 으로부터</w>
의 원
은 혜</w>
유 아
기 소</w>
군기 무
가 락을</w>
▁학부모 들이</w>
▁학 원
▁총 무
▁체 계</w>
▁지니 고</w>
▁중장 기</w>
▁주변 에는</w>
▁주 어야</w>
▁조례 가</w>
▁적용 이</w>
▁입 지
▁임 상</w>
▁인 상과</w>
▁이하 인</w>
▁위 성
▁왔 을</w>
▁와 인</w>
▁온 종일</w>
▁예 선
▁어 업
▁알 았
▁싶 지만</w>
▁수수 료
▁수 량이</w>
▁수 급</w>
▁소요 될</w>
▁소개 한</w>
▁선생 의</w>
▁석 탄</w>
▁생 일을</w>
▁새 로
▁상하 이</w>
▁살아 있는</w>
▁사 정으로</w>
▁불과 했다</w>
▁물 리적</w>
▁무 의
▁무 상</w>
▁목 요일</w>
▁모델 은</w>
▁모 듈
▁명 문
▁랜 드
▁뚫 고</w>
▁드 리는</w>
▁뉴질 랜드</w>
▁뇌 뇌</w>
▁논 쟁
▁녹 음
▁넘 을</w>
▁내 에서도</w>
▁귀 가</w>
▁권고 했다</w>
▁권 리가</w>
▁경 진
▁가 는데</w>
▁199 1</w>
차례 에</w>
전 쟁
전 인</w>
이 동
부 품</w>
복 구
법 에서</w>
방 문</w>
밤 에</w>
리 자</w>
루 미
레 인</w>
데 스
년 대에</w>
깁 니다</w>
▁홈페이 지에서</w>
▁항 목
▁한 달</w>
▁풍 경을</w>
▁파 업</w>
▁트렌 드를</w>
▁충청 남도</w>
▁초 계
▁창 단
▁직원 들을</w>
▁지역 이다</w>
▁지 출</w>
▁중 인데</w>
▁주 석이</w>
▁제 도로</w>
▁재판 부가</w>
▁잠 수
▁일 일</w>
▁인천 광역
▁인근 의</w>
▁올라 가는</w>
▁예외 로</w>
▁여기 저
▁식 당이</w>
▁승 점</w>
▁솔루 션을</w>
▁소비 자에게</w>
▁세부 적인</w>
▁새 만
▁보건 소</w>
▁버닝 썬
▁방향 에</w>
▁발 효</w>
▁무분 별
▁무 대로</w>
▁명 성을</w>
▁면 이</w>
▁멈 춰
▁들어가 면</w>
▁듣 지</w>
▁대 안으로</w>
▁놓 치지</w>
▁근 무를</w>
▁그중 에서도</w>
▁구분 하여</w>
▁구 입</w>
▁공 립
파 의</w>
종 과</w>
이 시
요 원</w>
오 지</w>
부 평
병 의</w>
년 여</w>
국 내</w>
교육 에</w>
교 수</w>
교 섭
▁흉 기를</w>
▁현지 인들이</w>
▁해 체</w>
▁한 편
▁폭 스
▁컨 셉
▁출퇴 근</w>
▁출 전한</w>
▁촬영 이</w>
▁처리 한다</w>
▁차례 에</w>
▁차 이는</w>
▁진술 했다</w>
▁조 치는</w>
▁제한 을</w>
▁전문가 로</w>
▁전 역에서</w>
▁장학 금을</w>
▁있 네요</w>
▁입 체
▁인정 하지</w>
▁이해 와</w>
▁이야기 다</w>
▁이루 어</w>
▁이 런
▁위원 장에게</w>
▁왔 던</w>
▁영 감을</w>
▁없 을까요</w>
▁어 지
▁앨범 을</w>
▁애플 이</w>
▁스캔 들</w>
▁수 주</w>
▁설 명</w>
▁사이 트
▁빚 어
▁북 구</w>
▁본부 장은</w>
▁보 살
▁받았 는데</w>
▁민주 화
▁미 치
▁물 려
▁물 량을</w>
▁먹 기</w>
▁머 리에</w>
▁동 화
▁다짐 했다</w>
▁다 쳤
▁남 대문
▁나 무를</w>
▁끝 내
▁근무 하고</w>
▁구성 하는</w>
▁공 정</w>
▁공 군</w>
▁골고 루</w>
▁간담 회</w>
▁가져 야</w>
▁IC O</w>
S E
해 준다</w>
학교 의</w>
클 래
졌 으면</w>
운영 하는</w>
영 어
열 에</w>
아 가는</w>
심 적</w>
슨 은</w>
산업 은</w>
사 실
범 으로</w>
물 류
마 리</w>
리 라는</w>
돼 요</w>
니 깐</w>
교육 지원
공무 원은</w>
▁훼 손</w>
▁환 율</w>
▁해 법을</w>
▁포함 하는</w>
▁통 역
▁탈바 꿈
▁클 릭
▁카메 라가</w>
▁출발 해</w>
▁출 자</w>
▁촉 촉
▁지 었다</w>
▁주민 을</w>
▁종 전</w>
▁제 압
▁제 거</w>
▁정체 성을</w>
▁정 권의</w>
▁전 기를</w>
▁재 편
▁이용 해서</w>
▁음식 점</w>
▁워 킹
▁외 로
▁여 비</w>
▁안팎 에서는</w>
▁시작 되었다</w>
▁시민 과</w>
▁숨 숨</w>
▁선택 해</w>
▁서울 시와</w>
▁사 단법인</w>
▁비로 소</w>
▁변호 사
▁버 스는</w>
▁방 통
▁받 거나</w>
▁박 재
▁미국 과의</w>
▁문 희
▁목표 가</w>
▁매 장에</w>
▁맡 았던</w>
▁때 에도</w>
▁도시 가</w>
▁대학 과</w>
▁대기업 이</w>
▁놀라 게</w>
▁넘 는다</w>
▁근 대</w>
▁구성 하여</w>
▁경기도 에는</w>
▁것 이어서</w>
▁것 만으로도</w>
해 수
특 례
침 이</w>
좋 은</w>
정 의
전 문</w>
월 드</w>
소방 재난
션 에서</w>
벽 을</w>
대사 관</w>
단체 장</w>
개 인
▁화 이
▁협약 에</w>
▁현 지의</w>
▁한국전 쟁</w>
▁필요 하지</w>
▁특 혜</w>
▁특 성</w>
▁테 헤
▁테 니까</w>
▁태 도가</w>
▁초등 학생
▁체 제
▁질 문</w>
▁지켜 야</w>
▁재 임
▁자 리는</w>
▁일 괄</w>
▁이 길</w>
▁의 의가</w>
▁유 로
▁위 치가</w>
▁오르 며</w>
▁영 동
▁연동 형</w>
▁신체 적</w>
▁신 사
▁순 위
▁빚 을</w>
▁비 춰
▁밑 에</w>
▁머 릿
▁따뜻 하게</w>
▁듭 니다</w>
▁돼 지</w>
▁도시 에서</w>
▁도로 에</w>
▁도 움</w>
▁대 내
▁단 어
▁남 기
▁깔 려</w>
▁기후변 화</w>
▁기억 하고</w>
▁기 량을</w>
▁구 성이</w>
▁광주 시가</w>
▁것 입니까</w>
▁개입 한</w>
▁감소 하는</w>
▁가 사
▁가 동</w>
▁9 6</w>
it y</w>
프로 젝
프 라이
추 천
제 도의</w>
정 당</w>
전략 을</w>
장 소</w>
인 사
은 의</w>
시 마</w>
봤 습니다</w>
본 이</w>
발 의</w>
받 는다</w>
링 이</w>
론 에</w>
련 이</w>
난 히</w>
건 에서</w>
가 공
▁확인 해야</w>
▁협동 조합</w>
▁하나 금융
▁포착 됐다</w>
▁톡 톡
▁테이 블</w>
▁타 면</w>
▁충 전</w>
▁총 괄</w>
▁찾아 서</w>
▁지배 구조</w>
▁지 어</w>
▁전 역에</w>
▁재 직</w>
▁있 길</w>
▁이바지 함을</w>
▁의 정부</w>
▁음식 과</w>
▁유 소
▁유 가</w>
▁우 아
▁왕 복</w>
▁오피스 텔
▁오사 카
▁오늘 부터</w>
▁알 아서</w>
▁아침 부터</w>
▁쏟아 지고</w>
▁쌓 여</w>
▁스 코
▁소 나
▁빚 은</w>
▁방송 에서는</w>
▁발생 했을</w>
▁반영 하여야</w>
▁박 스
▁디 테
▁되 지만</w>
▁대법 원의</w>
▁대구 시</w>
▁넘 쳐
▁날카 로운</w>
▁나서 면서</w>
▁끌 려
▁길 은</w>
▁기대 에</w>
▁기 관은</w>
▁구멍 이</w>
▁교 실</w>
▁과 목</w>
▁검증 된</w>
▁갖추 어</w>
▁감소 하고</w>
▁감 시</w>
▁N H</w>
▁8 9</w>
A N</w>
총 생산</w>
정 부는</w>
재 난</w>
익 이</w>
이 민
으 시면</w>
승 인</w>
세 대가</w>
선수 권
상황 에</w>
복 합</w>
번 째
민 들의</w>
되 지는</w>
더 불
결 에</w>
▁희망 이</w>
▁호소 하는</w>
▁햇 빛
▁프랑 스의</w>
▁트 랙
▁통계 청이</w>
▁태양 광
▁타 깃
▁카자흐 스탄
▁카 지
▁침 투
▁청년 들의</w>
▁첨 가
▁천 재
▁지원 으로</w>
▁지난 번</w>
▁지 나는</w>
▁주문 할</w>
▁죄송 합니다만</w>
▁조속 한</w>
▁조성 해</w>
▁전시 회가</w>
▁장기 적인</w>
▁잡 힌</w>
▁일 찍
▁인스타 그램</w>
▁원 격
▁온 전히</w>
▁역 사에</w>
▁에 르
▁업 계에</w>
▁아르바이 트
▁성 경
▁선정 하고</w>
▁선생 님</w>
▁상승 세가</w>
▁브랜 드로</w>
▁분 쟁이</w>
▁부 구청장이</w>
▁발굴 하고</w>
▁미 미
▁무 형문화
▁모 여서</w>
▁만들어 졌다</w>
▁두 루</w>
▁대강 당에서</w>
▁대 사가</w>
▁내비 쳤다</w>
▁낮 다</w>
▁구 호
▁고령 화</w>
▁고 취
▁거 두고</w>
▁U U</w>
▁S M</w>
i t</w>
해 에</w>
하였 던</w>
하 겠지만</w>
클 러
저 히</w>
시 킨
세 출
레 인
됐 는지</w>
노동 자</w>
과 정
▁회 신</w>
▁화 면에</w>
▁할 까</w>
▁한마 디
▁한 류를</w>
▁하 청
▁품 질을</w>
▁포 상</w>
▁평양 을</w>
▁페 인
▁출 납
▁초 미세먼지</w>
▁챙 긴</w>
▁참여 하지</w>
▁지역 별로</w>
▁지난 번에</w>
▁주시 겠습니까</w>
▁정상 에</w>
▁정 차
▁자발 적인</w>
▁위 법</w>
▁오디 션</w>
▁오 지
▁오 게</w>
▁얻 어야</w>
▁알 바
▁싱 크
▁수비 수</w>
▁손흥 민</w>
▁세 상의</w>
▁성 형
▁성 별</w>
▁섰 다</w>
▁선수 로</w>
▁붙 을</w>
▁부과 하는</w>
▁부 통
▁보도 한</w>
▁번 만</w>
▁발 로</w>
▁미 투</w>
▁물어 보
▁무서 운</w>
▁무 섭
▁동 시
▁당 시에는</w>
▁달 리고</w>
▁느끼 지</w>
▁넘어 선</w>
▁내 일까지</w>
▁납 득
▁기대 해</w>
▁급 여</w>
▁금 금</w>
▁국 군기무
▁국 경을</w>
▁구속 됐다</w>
▁구 역</w>
▁구 가</w>
▁공무원 에게</w>
▁견 줘</w>
풀 이
타 의</w>
자 원을</w>
인 사</w>
원 들에게</w>
아무 개</w>
분야 의</w>
버 가</w>
들 이나</w>
되 더라도</w>
남 기</w>
가 에게</w>
▁환 율
▁합동 으로</w>
▁하 천</w>
▁폭 행한</w>
▁포함 된다</w>
▁포상 할</w>
▁판 타
▁친 절한</w>
▁총 선을</w>
▁초콜 릿</w>
▁청 계
▁첨 부</w>
▁집 주
▁진 한</w>
▁지적 한</w>
▁중 에서는</w>
▁주문 했는데</w>
▁주 시고</w>
▁조성 할</w>
▁정 지</w>
▁절반 이</w>
▁전문 성</w>
▁잘못 을</w>
▁작 고</w>
▁일 한</w>
▁인 원은</w>
▁이 씨가</w>
▁안 동
▁아티 스트</w>
▁시험 에</w>
▁시 점이</w>
▁시 의</w>
▁수 당과</w>
▁세 우는</w>
▁부 지를</w>
▁부 실</w>
▁발표 에</w>
▁발언 에</w>
▁미래 에셋
▁모르 지만</w>
▁맞 붙
▁막 상</w>
▁마 두로</w>
▁렌 터
▁독 일이</w>
▁도지 사에게</w>
▁느낀 다</w>
▁녹 아
▁기술 에</w>
▁기념촬 영을</w>
▁기 관을</w>
▁극 장</w>
▁국립 중앙
▁관객 을</w>
▁공 소시
▁골 골</w>
▁경기 관광
▁경 신
▁결 핵
▁결 론</w>
▁것 과는</w>
▁거 둘</w>
▁개선 하는</w>
▁가짜 뉴
▁가 로</w>
태평 양
지방 재정
지 원이</w>
중 견
주 자</w>
으 려면</w>
연 으로</w>
셔 널</w>
선 한</w>
랑 이</w>
놓 을</w>
구 매
▁휘 말
▁효과 도</w>
▁행사 다</w>
▁행 렬
▁한국 관광
▁한 창</w>
▁품 격</w>
▁퍼포먼 스</w>
▁팀 장
▁코 드</w>
▁카카오 톡
▁청 산
▁척 추
▁찾 는다</w>
▁집중 하는</w>
▁지속 되는</w>
▁조성 하기</w>
▁제 고를</w>
▁이미 지
▁이곳 의</w>
▁유용 한</w>
▁웹 웹</w>
▁운동 에</w>
▁온라 인으로</w>
▁영 리
▁아세 안</w>
▁실리 콘
▁신청 인에게</w>
▁솔루 션</w>
▁생산 된</w>
▁삼성전 자
▁사용 자는</w>
▁부 상이</w>
▁부 디</w>
▁보 았다</w>
▁발전 이</w>
▁반 환</w>
▁민족 의</w>
▁못 했고</w>
▁리 스트를</w>
▁등록 한</w>
▁드러 나는</w>
▁동 주민
▁달러 로</w>
▁달 고</w>
▁늘 릴</w>
▁구축 할</w>
▁관심 은</w>
▁경제부총 리</w>
▁것 인가</w>
▁강력 하게</w>
▁가 리지</w>
▁I oT</w>
▁I n
폭 을</w>
폐 소
지방 법
유 지</w>
온 은</w>
여 건이</w>
엔터테인먼 트</w>
시간 의</w>
수 인</w>
보 트
모 바
단체 들이</w>
과 로</w>
▁허용 하는</w>
▁향 토
▁폴더 블
▁폭넓 은</w>
▁평가 할</w>
▁페 미니
▁틀 을</w>
▁통 화를</w>
▁토론 이</w>
▁치러 진</w>
▁지도 자</w>
▁제공 을</w>
▁정도 였다</w>
▁전문 지
▁장 비가</w>
▁인 내
▁의견 에</w>
▁의 원에</w>
▁유니 버
▁위안 화</w>
▁연구 팀은</w>
▁알 렉
▁아우 르는</w>
▁심 도</w>
▁신 뢰</w>
▁시 를</w>
▁스프 링
▁스케줄 을</w>
▁소개 할</w>
▁설 정</w>
▁선보 여</w>
▁사용 에</w>
▁부 스
▁변 하지</w>
▁먹 어야</w>
▁만 화</w>
▁들어 올</w>
▁노 벨
▁나아 갈</w>
▁김 원
▁기본 법</w>
▁기대 하는</w>
▁국제 적인</w>
▁관람객 들이</w>
▁과 천
▁공존 하는</w>
▁곳 의</w>
▁고 사
▁거 치지</w>
▁개 방</w>
▁감소 할</w>
▁감사 해요</w>
▁간 소
학교 에</w>
칩 니다</w>
총 연합회</w>
주 에게</w>
이 전</w>
왔 다는</w>
오 면</w>
액 과</w>
스 피
방 해</w>
명 도</w>
기 계
구 조를</w>
고 객
겠 죠</w>
거 리에</w>
▁화 폐
▁한국 수
▁평가 한</w>
▁패 널</w>
▁클 리
▁코 인
▁총 수</w>
▁참 고</w>
▁좋 을까요</w>
▁졸업 한</w>
▁조선 의</w>
▁임시 정부</w>
▁이 행을</w>
▁월스트리트 저널</w>
▁운영 의</w>
▁올해 에는</w>
▁어 차피</w>
▁써 서</w>
▁싶 었다</w>
▁식 당을</w>
▁수수 료는</w>
▁수 치가</w>
▁수 위를</w>
▁수 신
▁살펴 볼</w>
▁사물 인터넷</w>
▁불 리한</w>
▁부작 용을</w>
▁본 사가</w>
▁보이스 피
▁받 으면서</w>
▁문자 메시
▁모 였다</w>
▁말 했
▁말 라고</w>
▁리 서
▁때 다</w>
▁들어 왔다</w>
▁도 전을</w>
▁대 화의</w>
▁남북 경
▁기술 개발
▁급속 히</w>
▁그다 지</w>
▁과 목을</w>
▁골 라</w>
▁개성 공
▁개 장
▁같 은
▁강조 한다</w>
▁가정 에서</w>
▁U AE</w>
▁10 1</w>
F TA</w>
. .</w>
회 초</w>
합 시다</w>
타 워</w>
졌 으나</w>
전 남
외 과</w>
소송 을</w>
산 림
로 선</w>
규 가</w>
공 연을</w>
▁활용 이</w>
▁호 전
▁협력 하여</w>
▁행동 에</w>
▁피 난
▁파악 해</w>
▁특 화된</w>
▁통 일을</w>
▁토 큰
▁캐릭 터가</w>
▁초 점이</w>
▁청소년 이</w>
▁첨 예
▁창출 과</w>
▁징 수</w>
▁지상 파</w>
▁지급 하지</w>
▁주최 로</w>
▁접수 됐다</w>
▁전해 져</w>
▁재 개</w>
▁장 마
▁자발 적</w>
▁일으 키는</w>
▁일어나 지</w>
▁인스타그램 에</w>
▁이해 하지</w>
▁유 재
▁운 반
▁연 봉</w>
▁안 희정</w>
▁아름답 고</w>
▁심 리</w>
▁실시 된</w>
▁실 습
▁세종 시</w>
▁삼 고</w>
▁비행 기가</w>
▁비주 얼
▁불편 함이</w>
▁본 사에서</w>
▁베 스트</w>
▁믿 지</w>
▁뭔 지</w>
▁물 의를</w>
▁매 장이</w>
▁때 를</w>
▁동 향을</w>
▁대단 한</w>
▁닿 지</w>
▁당사 자가</w>
▁눌 러
▁뇌 물</w>
▁납 치
▁나서 지</w>
▁고조 되고</w>
▁고맙 습니다</w>
▁갔 다가</w>
▁감면 할</w>
▁감 소가</w>
▁가 지로</w>
협 약을</w>
철 에</w>
천 명</w>
창 을</w>
지방자치 단체</w>
주 거
조 원
정 류
으 신가요</w>
용 에</w>
연구 소가</w>
어 있는</w>
시키 지</w>
센터 로</w>
사 례를</w>
비 에서</w>
보 수
베 이</w>
미 화
그 동안</w>
공 학과</w>
감독 을</w>
▁환 자들이</w>
▁확산 될</w>
▁행정 부</w>
▁합 리적</w>
▁한국 인의</w>
▁포 럼</w>
▁코 오
▁친 인
▁촘 촘
▁참석 자들은</w>
▁질병 관리
▁제 천
▁전 까지는</w>
▁이루어 졌다</w>
▁이 뤄</w>
▁위탁 받은</w>
▁원칙 에</w>
▁왕 이</w>
▁연구 소</w>
▁연 도</w>
▁여러 분은</w>
▁엄마 와</w>
▁어머니 의</w>
▁앞 에는</w>
▁수 용</w>
▁수 성
▁성균 관
▁선 점
▁생 애</w>
▁비난 이</w>
▁불 쾌
▁부 진</w>
▁봉 사</w>
▁발 산
▁묻 자</w>
▁몸 의</w>
▁목적 은</w>
▁명예 를</w>
▁동 생이</w>
▁담 임
▁단속 에</w>
▁다르 지</w>
▁늘 려
▁눈 과</w>
▁나 선
▁그 칠</w>
▁구성 한</w>
▁구 에서</w>
▁곤 충
▁갱 신
▁감 리
▁C BS</w>
현 을</w>
한 다며</w>
하 자마자</w>
척 을</w>
준 다고</w>
원 들과</w>
에 나</w>
시 대에</w>
스 톱</w>
설 계</w>
롭 다</w>
드리 면</w>
교 와</w>
경 비</w>
▁회 전
▁호텔 은</w>
▁행 보에</w>
▁표 준</w>
▁폴 란드</w>
▁패스트 트랙
▁파 티</w>
▁큽 니다</w>
▁지 적</w>
▁중부 지방
▁정 재
▁전 후</w>
▁인 허가</w>
▁이행 하지</w>
▁이뤄 져</w>
▁이 민</w>
▁유 물
▁압 박</w>
▁쓰 기</w>
▁심각 하게</w>
▁실 거래가</w>
▁시 장에게</w>
▁숙 제를</w>
▁수 시
▁선정 됐다고</w>
▁사 격
▁반 가
▁박 유
▁바라 며</w>
▁바 람</w>
▁미만 인</w>
▁물 가</w>
▁무 선</w>
▁명 절을</w>
▁뜻깊 은</w>
▁도와 줄</w>
▁대통령 도</w>
▁낳 은</w>
▁김명 수</w>
▁금융 위
▁극 히</w>
▁권 유
▁구축 하는</w>
▁공직선거 법</w>
▁공연 으로</w>
▁고객 들의</w>
▁건 넸
▁가 령</w>
or e
c h
R S</w>
행 은</w>
학교 는</w>
편 의
파 는</w>
코 노
컨 대</w>
축 제가</w>
철 은</w>
재산 권</w>
자 이자</w>
자 이
인 재</w>
인 력을</w>
용 역</w>
에 스</w>
압 을</w>
상 태를</w>
사무 의</w>
반도 체</w>
마 리를</w>
률 과</w>
대 변
대 문</w>
길 은</w>
▁회 사로</w>
▁행 운
▁하나 만</w>
▁하 향</w>
▁청구 한</w>
▁천 주
▁지원 받은</w>
▁지 킬</w>
▁주민 은</w>
▁자 궁
▁입 어</w>
▁은 폐
▁요 약
▁예상 됩니다</w>
▁여 건</w>
▁엄마 의</w>
▁않았 으면</w>
▁쓰러 져</w>
▁쓰 여</w>
▁심 혈
▁실제 로는</w>
▁시청 률</w>
▁순간 을</w>
▁세 대를</w>
▁성 관계</w>
▁사 연을</w>
▁비트코 인</w>
▁불편 함을</w>
▁불가능 합니다</w>
▁부문 의</w>
▁부드럽 게</w>
▁부 결
▁봤 어</w>
▁보이 는데</w>
▁배 기
▁반 짝
▁박 사</w>
▁면 밀히</w>
▁만 일</w>
▁마련 한다</w>
▁러시아 와</w>
▁들 어요</w>
▁돌아 와</w>
▁대학 은</w>
▁대 항
▁느껴 진다</w>
▁나타 내고</w>
▁근 거</w>
▁국민 권익
▁곤란 한</w>
▁계 좌</w>
▁경기 중소기업
▁결 실을</w>
▁강화 와</w>
▁감 옥
▁가 해</w>
▁C GV</w>
e d
. ’</w>
회 사인</w>
하 십시오</w>
인 다는</w>
운 전
실 장이</w>
슈 퍼
쇼 가</w>
사 로부터</w>
북 부
렸 어</w>
러 는</w>
구 매</w>
경기 장에서</w>
겨 운</w>
▁횡단 보
▁회담 에서</w>
▁활용 하고</w>
▁화웨 이가</w>
▁협 조</w>
▁학 업
▁풀 려
▁평가 된다</w>
▁팔 고</w>
▁청와 대에</w>
▁집 착
▁지급 한</w>
▁준비 된</w>
▁조사 하는</w>
▁제품 이다</w>
▁정 신</w>
▁절반 을</w>
▁전문 성이</w>
▁재 건축
▁잃 지</w>
▁유일 하다</w>
▁유 형의</w>
▁올 리며</w>
▁예산 에</w>
▁여행 객
▁않았 으나</w>
▁안산 시</w>
▁아이 템</w>
▁아시안 컵</w>
▁쓰 인</w>
▁싶 다면</w>
▁실 장이</w>
▁신 일
▁시작 하면서</w>
▁시도 한</w>
▁성장 동
▁설 렘
▁상승 에</w>
▁사 안이</w>
▁부 응
▁부 끄러
▁보조 금의</w>
▁보고 서에서</w>
▁발생 이</w>
▁발견 해</w>
▁반영 될</w>
▁민주 주의</w>
▁문 체
▁마크 롱</w>
▁드러 내
▁당 대표</w>
▁단 지는</w>
▁다 산
▁농 축
▁납 부한</w>
▁남양 주</w>
▁낚 시
▁나섰 지만</w>
▁꺾 고</w>
▁궁금 증이</w>
▁구매 하고</w>
▁괜찮 을</w>
▁광 장</w>
▁고용노동 부가</w>
▁고 인
▁경 비의</w>
▁강조 하며</w>
▁감안 하여</w>
en t
S I</w>
호 흡
해 달라는</w>
토 가</w>
청 년</w>
책임 자</w>
직 과</w>
지 출
작 업</w>
이스 에</w>
의 장</w>
야 할</w>
시리 즈</w>
본 부의</w>
대 인</w>
기 능</w>
공 항에</w>
고 만</w>
결 산
▁회복 을</w>
▁혁신 성장</w>
▁헬스 케어</w>
▁한반 도
▁학교 로</w>
▁프로젝 트의</w>
▁포상 금을</w>
▁편 한</w>
▁특별감 찰
▁컨테이 너
▁진 전을</w>
▁지지 하는</w>
▁지지 부
▁지 표가</w>
▁주말 에는</w>
▁주 제</w>
▁움직 일</w>
▁외국인 투자
▁오바 마</w>
▁얼마 인가요</w>
▁액 세서
▁아버 지를</w>
▁시작 했어요</w>
▁소방 당
▁세 금이</w>
▁선진 국
▁생각 도</w>
▁삭 감
▁보내 드립니다</w>
▁배 출</w>
▁밀 착
▁리 콜
▁로스 앤젤
▁뚜 껑
▁따 르는</w>
▁듣 기</w>
▁독일 에서</w>
▁도 저히</w>
▁높 기</w>
▁논 리
▁넷 마
▁네덜 란
▁낮추 는</w>
▁남한 산
▁기 쁩니다</w>
▁기 득
▁국 채</w>
▁구 하는</w>
▁관 장은</w>
▁공격 적인</w>
▁고발 한</w>
▁고 집
▁고 기</w>
▁거짓 말을</w>
▁거 는</w>
▁감염 병</w>
▁간단 하게</w>
▁간 행
▁가져 온</w>
▁가 정에</w>
▁가 만히</w>
S R</w>
S C</w>
P I</w>
하 를</w>
폐소 생
투 표</w>
토 의</w>
자 율
이 미
유 지
예 가</w>
여 부</w>
스 퀘
목 적</w>
먹 는</w>
되었 어요</w>
극 을</w>
군 수가</w>
가 들은</w>
가 구
▁회 부
▁활동 의</w>
▁협의 회의</w>
▁파 리
▁통보 를</w>
▁출발 한</w>
▁챌 린
▁참가 하여</w>
▁집중 된</w>
▁진 화에</w>
▁지정 하고</w>
▁지자 체의</w>
▁주민 에게</w>
▁정상회담 의</w>
▁정 순
▁절 감</w>
▁작동 하지</w>
▁일 괄
▁인터넷 에서</w>
▁인물 이다</w>
▁이용 자들이</w>
▁이날 은</w>
▁의약 품</w>
▁월 평균</w>
▁우 주</w>
▁오늘 이</w>
▁여행 이</w>
▁언론 을</w>
▁어 쨌
▁아파 트에</w>
▁아 기가</w>
▁신청 하는</w>
▁시 도를</w>
▁수요 에</w>
▁소 명
▁선고 받은</w>
▁상승 이</w>
▁상 여
▁사이 가</w>
▁사용 하고자</w>
▁사례 다</w>
▁사람 으로서</w>
▁브리핑 을</w>
▁불안 감이</w>
▁불 만
▁부산 지역</w>
▁부 지에</w>
▁받 도록</w>
▁미 스터
▁뮤 직</w>
▁묻 고</w>
▁명 은</w>
▁만들 었습니다</w>
▁마 쳤
▁마 약을</w>
▁동 향</w>
▁더불어민주 당이</w>
▁높아 져</w>
▁나타났 다고</w>
▁금액 으로</w>
▁국정 원</w>
▁교통 안전
▁관계 법
▁공모 전</w>
▁공개 하여야</w>
▁곡 으로</w>
▁개념 이</w>
▁개 원
▁갔 을</w>
▁간담 회에서</w>
▁T F</w>
A P</w>
혹 한</w>
호 부터</w>
일 리
일 도</w>
이 노
의 학
아 동</w>
수 행</w>
상 환
부 분</w>
림 과</w>
들 어
기 에
구 속
▁힘들 게</w>
▁후 퇴
▁현대 차가</w>
▁헤 드
▁행 위는</w>
▁해 주고</w>
▁해 상</w>
▁해 리</w>
▁한반 도에</w>
▁학습 을</w>
▁피 력
▁판결 에</w>
▁판 사
▁특성 화
▁타 격이</w>
▁클 린
▁컨트 롤
▁최 강
▁챙 기
▁직 장인</w>
▁지체 없이</w>
▁지적 한다</w>
▁지 침을</w>
▁지 수</w>
▁주의 해야</w>
▁조 항을</w>
▁장애 인이</w>
▁잔 류
▁자유한국 당의</w>
▁임 재
▁인 삼
▁이동 통신
▁용인 시</w>
▁올라 가</w>
▁오 세
▁영상 에는</w>
▁여 기가</w>
▁어려 웠던</w>
▁어려 웠다</w>
▁어 플
▁아빠 가</w>
▁실태 조사</w>
▁시가 총
▁순 차적으로</w>
▁수행 하고</w>
▁손 실이</w>
▁성접 대</w>
▁선수 와</w>
▁선 임</w>
▁산 다</w>
▁북한 과의</w>
▁바 른</w>
▁문 장을</w>
▁무 죄</w>
▁모 험
▁메이크 업</w>
▁맡 는</w>
▁맞 는지</w>
▁많 았지만</w>
▁만들어 내는</w>
▁만 끽
▁라오 스</w>
▁땅 이</w>
▁단 계를</w>
▁다르 다는</w>
▁근본 적으로</w>
▁군 의</w>
▁구입 한</w>
▁과 장</w>
▁공개 하는</w>
▁공 사에</w>
▁경 관
▁걸 립니다</w>
▁개 정이</w>
▁9 3</w>
i c</w>
201 2</w>
해 보는</w>
취 소</w>
채 는</w>
주 신</w>
제품 의</w>
재 단의</w>
원 들을</w>
왔 다고</w>
선 교
상 황이</w>
배 로</w>
명 령</w>
골 로</w>
▁활동 한</w>
▁포인 트
▁판 정
▁통일 전선
▁통 산</w>
▁토론 회</w>
▁토 너
▁컬 러</w>
▁취소 된</w>
▁춤 춤</w>
▁총 을</w>
▁진 술</w>
▁주 한</w>
▁주 소로</w>
▁존재 하지</w>
▁작업 은</w>
▁일회 용</w>
▁일 러
▁인터넷 전문
▁유 지를</w>
▁원 하시는</w>
▁오늘 날
▁예정 으로</w>
▁예 측</w>
▁열 차가</w>
▁어린 이가</w>
▁시설 물을</w>
▁수술 이</w>
▁수 돗
▁세계 유
▁선 정을</w>
▁서류 는</w>
▁상담 이</w>
▁사 운
▁부탁 드려요</w>
▁방 한
▁목소 리로</w>
▁똑 똑
▁딱 딱
▁디자이 너</w>
▁되 새
▁대우 조선
▁대 회에는</w>
▁단 절
▁다 투
▁다 름
▁높아 진다</w>
▁남 구</w>
▁끌어 들
▁기 상</w>
▁급속 도로</w>
▁그리스 도
▁국토 부가</w>
▁국공 립
▁거론 되고</w>
▁거 리에서</w>
▁거 리로</w>
▁강 하다</w>
▁감상 할</w>
▁간 부</w>
▁가 수가</w>
a g
회담 을</w>
하 성</w>
포 로</w>
킹 이</w>
코 가</w>
요 금
브 란
본 부에</w>
미 에</w>
무 용
도 우
▁휴대전 화를</w>
▁후 쿠
▁해 방</w>
▁페이스북 을</w>
▁판매 한</w>
▁판매 되는</w>
▁출 시를</w>
▁쳐 다
▁참 조
▁좋 다는</w>
▁조성 한</w>
▁제품 들이</w>
▁제 목으로</w>
▁정 해</w>
▁전 속
▁장 치가</w>
▁장 사
▁자 살</w>
▁입 입</w>
▁인센티 브를</w>
▁이루 기</w>
▁예 전</w>
▁양 을</w>
▁압도 적인</w>
▁안내 를</w>
▁실 행</w>
▁수 반
▁선정 하는</w>
▁상황 이었다</w>
▁사이 트에서</w>
▁뿌 리</w>
▁빚 고</w>
▁부 채</w>
▁보내 지</w>
▁변동 성이</w>
▁베테 랑</w>
▁베이 비
▁벗어나 지</w>
▁배 치</w>
▁목적 에</w>
▁모양 을</w>
▁매 립
▁노 란</w>
▁나타나 지</w>
▁기초 생활
▁기여 하고</w>
▁국제 유
▁광 고가</w>
▁과 잉
▁간 판</w>
▁故 故</w>
▁19 19</w>
W SJ</w>
패 로</w>
중앙 회</w>
젠 테이
장 치를</w>
이 런</w>
영 업</w>
세 포</w>
석 희</w>
블 리
분 들이</w>
받 아야</w>
대 행</w>
근 을</w>
갔 습니다</w>
▁호텔 로</w>
▁협 업</w>
▁현 상</w>
▁해 킹</w>
▁학 대</w>
▁하반 기부터</w>
▁특 성이</w>
▁추진 이</w>
▁채 용을</w>
▁창출 에</w>
▁지원 된다</w>
▁지목 된</w>
▁지금 보다</w>
▁증가 세가</w>
▁중 반</w>
▁주 기적으로</w>
▁종전 선언</w>
▁좁 혀
▁제작 해</w>
▁접 근</w>
▁전 제로</w>
▁장 치</w>
▁장 치
▁입 찰</w>
▁인정 받아</w>
▁응 용
▁음 료를</w>
▁예약 하고</w>
▁영향 은</w>
▁열 이</w>
▁연결 되는</w>
▁얼 어붙
▁압 력을</w>
▁앉 은</w>
▁안정 된</w>
▁실 은</w>
▁스튜 어드
▁수준 에서</w>
▁세워 진</w>
▁서로 에게</w>
▁생겨 서</w>
▁생각 이다</w>
▁상 의</w>
▁살아 갈</w>
▁부산 시는</w>
▁봤 습니다</w>
▁보 였던</w>
▁벽 을</w>
▁법원행정 처가</w>
▁밸 런
▁반영 하는</w>
▁밀 려</w>
▁답 장을</w>
▁날 에는</w>
▁끼 고</w>
▁김현 미</w>
▁김 소
▁기획 한</w>
▁기 장
▁극단 적인</w>
▁규 탄
▁국민연 금
▁구조 로</w>
▁교육 감
▁교 황
▁공 단</w>
▁고 령</w>
▁곁 들
▁경제 지
▁결정 적</w>
▁거 짓</w>
▁가 급
▁가 구를</w>
▁V IP</w>
향 과</w>
학 부</w>
판 으로</w>
집 행</w>
전 에서는</w>
일 리</w>
의 학과</w>
왔 는데</w>
방 문
면 서다</w>
러 시아</w>
들 에서</w>
담 이</w>
끈 한</w>
구역 의</w>
공무 원으로</w>
▁힙 합</w>
▁후 유
▁홍콩 의</w>
▁할 인을</w>
▁하 자는</w>
▁풍 요
▁표 시</w>
▁충실 히</w>
▁최 첨단</w>
▁초 기에</w>
▁철 거</w>
▁차 이로</w>
▁차 등
▁진지 하게</w>
▁직접 적으로</w>
▁중국 으로</w>
▁주 목</w>
▁종 류</w>
▁제출 해야</w>
▁전 한</w>
▁일 간</w>
▁인수 한</w>
▁인도 적</w>
▁유일 의</w>
▁유럽 에서</w>
▁위험 도</w>
▁원 한다면</w>
▁올라 갈</w>
▁열 풍이</w>
▁어렵 지만</w>
▁아시아나 항공</w>
▁아름답 게</w>
▁아동 학대</w>
▁신 기술</w>
▁시 술</w>
▁슬 라이
▁순조 롭게</w>
▁순 수
▁수 천</w>
▁소속 기관의</w>
▁소득주도 성장</w>
▁설치 하여</w>
▁설문 조사</w>
▁설명 한다</w>
▁생 명</w>
▁사이 에서는</w>
▁부산 을</w>
▁보험 료를</w>
▁바 라고</w>
▁미지 수다</w>
▁미 쳤다</w>
▁명칭 을</w>
▁맨 체스터</w>
▁매출 은</w>
▁디자 인과</w>
▁두 번째</w>
▁동 력을</w>
▁더 위를</w>
▁대응 하는</w>
▁대부분 이다</w>
▁농 구
▁넘 어서</w>
▁끝 내고</w>
▁꼽 혔다</w>
▁긴장 감이</w>
▁기 말
▁그 레이
▁그 럴
▁관계 자들은</w>
▁과 다
▁개발 제한
푸 르
컵 을</w>
층 에는</w>
진흥 법</w>
작 에</w>
우 수
영 상</w>
승 인을</w>
상 금</w>
빌 리티</w>
비 엔날
번 지</w>
버 넌
맞 이</w>
만 삭
드 민
대 장
곳 으로</w>
경제 적</w>
건 물</w>
▁힘 으로</w>
▁환경 미화
▁현 지에</w>
▁프리미 엄
▁표현 할</w>
▁판 판</w>
▁파 기
▁트 윈
▁톡톡 히</w>
▁최 영
▁청소 를</w>
▁채용 비리</w>
▁참가 한다</w>
▁주 었습니다</w>
▁제 네
▁적 잖
▁인명 피해
▁인 명</w>
▁외국 인들이</w>
▁예비 창업
▁열 을</w>
▁아 리
▁승 객이</w>
▁수 행을</w>
▁손흥 민의</w>
▁소 수</w>
▁새 겨져</w>
▁상 점
▁살 리기</w>
▁사무 처
▁사고 에</w>
▁분위 기는</w>
▁볼 을</w>
▁보 컬
▁변화 하는</w>
▁베스트 셀
▁발달 장애
▁미 혼
▁무더 기로</w>
▁두 꺼
▁당 했다고</w>
▁달 해</w>
▁논 문</w>
▁내다 보고</w>
▁남 과</w>
▁나 만의</w>
▁까 지</w>
▁금융 당국은</w>
▁근 로</w>
▁극복 하고</w>
▁그럼 에도</w>
▁구 자
▁구 도
▁교통 수
▁고 소한</w>
▁갖 춰</w>
▁간단 히</w>
▁가 전</w>
▁Q R</w>
행 과</w>
프 에</w>
침 에</w>
채 용</w>
줬 으면</w>
져 나
전 지
새 가</w>
산 분리</w>
분야 에</w>
법 인이</w>
기 상
규모 가</w>
강 도</w>
▁획 기적으로</w>
▁활용 될</w>
▁홍보 하고</w>
▁현 안을</w>
▁해 보고</w>
▁특허 를</w>
▁코 치가</w>
▁카 슈
▁충 격이</w>
▁체 류</w>
▁청 춘
▁천 연</w>
▁지켜 보는</w>
▁중요 해요</w>
▁중 점</w>
▁중 단을</w>
▁주문 하고</w>
▁존 재</w>
▁조용 한</w>
▁점 수</w>
▁재 가
▁잔 뜩</w>
▁잊 어버
▁입 구</w>
▁임종 헌</w>
▁이용 객
▁이 글
▁유 흥
▁우수 성을</w>
▁요 새</w>
▁올라 가
▁오른 쪽으로</w>
▁연 애
▁어깨 를</w>
▁양 념
▁아이 콘
▁순 수</w>
▁성향 의</w>
▁성별 을</w>
▁새 누리
▁사용 해야</w>
▁부 친
▁배 상</w>
▁방송 은</w>
▁받았 으며</w>
▁박근 혜
▁무리 하게</w>
▁무 지
▁메뉴 는</w>
▁들 이</w>
▁됐 지만</w>
▁됐 던</w>
▁동북 아</w>
▁대중교통 을</w>
▁다큐멘터 리</w>
▁꺼 내</w>
▁길 이가</w>
▁기자간담 회에서</w>
▁근로 기준
▁극 장
▁구성 돼</w>
▁고 의</w>
▁고 르
▁강 력</w>
▁6 000</w>
Y T</w>
F P</w>
질 로</w>
지 배
장 관이</w>
이 사장</w>
의료 원</w>
완 화</w>
안 건</w>
아 리
시스템 이</w>
스 틴</w>
소 상공
사업 체</w>
밴 드</w>
문화 유
모 씨가</w>
면 접
만큼 이나</w>
런 트</w>
대한민 국</w>
길 래</w>
기 자</w>
구역 으로</w>
관 에는</w>
관 도</w>
경 기가</w>
▁환경 과</w>
▁하반 기에</w>
▁파티 에</w>
▁파격 적인</w>
▁통 증을</w>
▁진술 한</w>
▁지원 하겠다</w>
▁주축 이</w>
▁주 류
▁정 함을</w>
▁전환 이</w>
▁이 별
▁의뢰 할</w>
▁음악 은</w>
▁예 금
▁열 람</w>
▁연 금</w>
▁어 제는</w>
▁애 완
▁신 중한</w>
▁산 후
▁불 량</w>
▁부회 장의</w>
▁번 호</w>
▁미흡 한</w>
▁미 팅을</w>
▁물 건은</w>
▁문희 상</w>
▁맡 겨
▁동반 한</w>
▁단 어가</w>
▁나 올
▁기념 하는</w>
▁근 접
▁그렇 기</w>
▁관계 는</w>
▁과정 과</w>
▁고 민</w>
▁경남 도
▁건조 한</w>
▁걱 정을</w>
▁거론 된다</w>
▁개최 될</w>
▁강화 된</w>
▁G TX</w>
▁3 65</w>
▁198 9</w>
E B</w>
해 줘</w>
해 는</w>
하 곤</w>
판 사</w>
파 크
준 다는</w>
주의 에</w>
적 이지만</w>
장 관은</w>
욱 이</w>
습 니다만</w>
마 한</w>
달 에</w>
단체 인</w>
네트워 크</w>
급 으로</w>
겼 습니다</w>
▁환불 을</w>
▁한국 산</w>
▁한 라
▁하 네요</w>
▁최고 위원
▁전자상 거래</w>
▁전시 를</w>
▁적절 히</w>
▁재 고
▁이 인
▁이 광
▁위 헌
▁원 료
▁예약 한</w>
▁에 에</w>
▁얘 기</w>
▁심 리가</w>
▁시너 지를</w>
▁손 실
▁선생 이</w>
▁서울 교통
▁색깔 이</w>
▁상 인들이</w>
▁살 균
▁사진 에는</w>
▁사용 되고</w>
▁사업 자
▁불 분
▁복 무</w>
▁목 욕
▁명 할</w>
▁메 디
▁들어서 면</w>
▁든든 한</w>
▁동 안
▁동 결
▁독립 을</w>
▁데 도</w>
▁단 정
▁눈 여
▁내 장
▁기 억</w>
▁금천 구</w>
▁글 글</w>
▁극 중</w>
▁국 어
▁구속영 장</w>
▁구성 됐다</w>
▁괜찮 을까요</w>
▁공급 할</w>
▁고려 해야</w>
▁고등 학생</w>
▁겨울 에</w>
▁게임 은</w>
▁게임 에</w>
▁거 머
▁강 타
▁10 5</w>
회 복
해보 험
폰 이</w>
파 인</w>
테 르
장 과의</w>
일 전까지</w>
이었 기</w>
이 상의</w>
요일 인</w>
소비 자
산업 과</w>
발 적으로</w>
미 디</w>
문화 재단</w>
면 허</w>
라 야</w>
대 원</w>
대 까지</w>
단 에는</w>
기 적</w>
▁해결 해</w>
▁한 잔
▁하 와
▁파 키
▁파 문이</w>
▁컸 던</w>
▁치 우
▁추 적</w>
▁지나 친</w>
▁중점 적으로</w>
▁중소기업 에</w>
▁조짐 을</w>
▁조선 시대</w>
▁작용 했다</w>
▁잇따 른</w>
▁이전 의</w>
▁의무 적으로</w>
▁융 자</w>
▁웃 음
▁연 수</w>
▁없었 어</w>
▁앞 을</w>
▁알아 보고</w>
▁안 건에</w>
▁아파 트에서</w>
▁싸 움을</w>
▁실 증
▁시작 하고</w>
▁세 제</w>
▁설명 회를</w>
▁선정 하여</w>
▁뽑 아
▁빅 뱅</w>
▁비 관
▁불가피 하다</w>
▁분 열
▁벗 어난</w>
▁반발 했다</w>
▁박 사는</w>
▁무릎 을</w>
▁모 금
▁먹 어도</w>
▁맞 다</w>
▁만나 면</w>
▁마무리 했다</w>
▁뛰 고</w>
▁독보 적인</w>
▁대표 팀이</w>
▁다이어 트</w>
▁놀 놀</w>
▁넓 고</w>
▁냉 각
▁납 부</w>
▁기 점으로</w>
▁구매 가</w>
▁교 사들이</w>
▁겨울 방
▁거 동이</w>
▁같 고</w>
▁가능 했다</w>
환 의</w>
특 구</w>
초 가</w>
에서 나</w>
아 프
수 리</w>
성 장의</w>
상태 가</w>
비 핵
병 원을</w>
변 에</w>
벽 이</w>
미 국이</w>
마케 팅</w>
되었 으나</w>
당 도</w>
년 부터는</w>
교육 은</w>
것 이</w>
거 리와</w>
▁활 기를</w>
▁화 학</w>
▁합 쳐
▁한 계
▁하 시면</w>
▁플랫폼 이</w>
▁플 러
▁풍 경이</w>
▁폭 발</w>
▁포상 금</w>
▁통신 은</w>
▁토트 넘</w>
▁크로 아티
▁출연 을</w>
▁초과 하지</w>
▁체결 하고</w>
▁지 시에</w>
▁중단 된</w>
▁전년 보다</w>
▁자동 차가</w>
▁이례 적인</w>
▁의 문을</w>
▁우려 의</w>
▁열 풍
▁연락 해</w>
▁여 자를</w>
▁야 당의</w>
▁않 을까요</w>
▁아니 라면</w>
▁실 려</w>
▁시 리아
▁스토 리를</w>
▁스크 린</w>
▁수사 하고</w>
▁수 위가</w>
▁서 두
▁사라 졌다</w>
▁뽑 은</w>
▁뽑 는</w>
▁빠 지는</w>
▁비난 했다</w>
▁분 들은</w>
▁부총 리가</w>
▁부분 의</w>
▁보 복</w>
▁방 학
▁밝히 며</w>
▁박정 희</w>
▁모색 하는</w>
▁멸 종
▁매출 액이</w>
▁망 설
▁만 세</w>
▁득 점</w>
▁뒤 에서</w>
▁두 지</w>
▁데이 트</w>
▁던 지는</w>
▁단 기간에</w>
▁다르 기</w>
▁다가 온</w>
▁급 히</w>
▁국 장은</w>
▁국 악</w>
▁관심 도</w>
▁고객 들에게</w>
▁경우 에만</w>
▁같 지만</w>
▁감 염</w>
▁가격 과</w>
▁가 습
l e
a y
L O</w>
훈 을</w>
해주 길</w>
한국 의</w>
츠 는</w>
지 는데</w>
인 데다</w>
위 기
수 행에</w>
수 학
배 나</w>
랜 드가</w>
동 맹
도 상
날 수록</w>
기 구를</w>
개 국에서</w>
▁항 만
▁하 는
▁표 방
▁폴 란
▁펼 치
▁판단 하는</w>
▁최우 선</w>
▁초 중
▁청년 의</w>
▁진행 돼</w>
▁지역 사회의</w>
▁주 도</w>
▁좋아 해서</w>
▁제작 에</w>
▁정 전
▁전문 인력</w>
▁장 미
▁자치법 규
▁자원봉사 자</w>
▁자 긍
▁일 들을</w>
▁인 도의</w>
▁이 사를</w>
▁의 문
▁응 원</w>
▁유 방
▁웃 음이</w>
▁오피스 텔</w>
▁예산 편
▁예 의
▁연방준비 제도</w>
▁에너 지가</w>
▁언론 인</w>
▁양 성을</w>
▁수도 권에</w>
▁소통 하고</w>
▁섞 인</w>
▁상황 으로</w>
▁살펴 보
▁살 았던</w>
▁살 리
▁보장 하는</w>
▁번 이나</w>
▁박 사가</w>
▁박 경
▁목 록을</w>
▁모 르게</w>
▁먹 었어요</w>
▁맥 주를</w>
▁마 감</w>
▁리스크 가</w>
▁뜻 뜻</w>
▁능 력과</w>
▁노동 시간</w>
▁넣 었다</w>
▁남편 의</w>
▁나쁘 지</w>
▁기원 하는</w>
▁규칙 에서</w>
▁국정 농단</w>
▁국 책
▁구축 에</w>
▁관 해서</w>
▁고양 이를</w>
▁고 의로</w>
▁계 곡
▁경찰 관</w>
▁게임 의</w>
▁검 증을</w>
▁걸 려
▁건강 검
▁객관 적인</w>
▁가톨 릭
협 상
표 로</w>
카 드가</w>
촉 진</w>
주의 와</w>
자 였던</w>
자 본</w>
이 냐</w>
심 판
신 으로</w>
부 터의</w>
명 이다</w>
되었 지만</w>
농 협
공 제</w>
▁힘들 고</w>
▁힘 힘</w>
▁함께 할</w>
▁필 로
▁투자 심
▁투 어를</w>
▁친구 들</w>
▁채 팅
▁진 입</w>
▁지방자치 단체의</w>
▁중국 과의</w>
▁준수 하여야</w>
▁주고 받
▁좌 석</w>
▁이산 가족</w>
▁이례 적으로</w>
▁이곳 이</w>
▁이 럴</w>
▁유 은혜</w>
▁원칙 적으로</w>
▁외국 인의</w>
▁오 로지</w>
▁예전 에는</w>
▁역할 은</w>
▁여론 의</w>
▁않 던</w>
▁악 화</w>
▁쏟아 지는</w>
▁신 원
▁수 락
▁손 혜원</w>
▁센 트
▁선택 의</w>
▁생산 성</w>
▁생산 과</w>
▁상 급
▁사용 합니다</w>
▁비교 할</w>
▁부 평
▁복 합</w>
▁버 려
▁민간 이</w>
▁무혐 의</w>
▁머무 는</w>
▁말씀 하신</w>
▁떨어 진다는</w>
▁따 복
▁동 국
▁도 의회</w>
▁능 동
▁노인 복지
▁노력 으로</w>
▁노 인의</w>
▁날짜 가</w>
▁난 방
▁나뉘 어</w>
▁나 을</w>
▁끝나 지</w>
▁기본 으로</w>
▁기다려 주세요</w>
▁기 자들이</w>
▁권 영
▁국가 로</w>
▁골드 만삭
▁골 자다</w>
▁계좌 를</w>
▁검토 가</w>
▁거 부</w>
▁가 정이</w>
▁D NA</w>
▁D J</w>
I N
회 장을</w>
투 스</w>
커 녕</w>
출 연
청 장이</w>
찰 이</w>
지방재정 법</w>
제 일
자 에서</w>
있 었다</w>
일 러</w>
어린이 집</w>
어 머니
아 시
소 통</w>
세 인</w>
성 에서</w>
브 는</w>
봐 야
보 증</w>
만 여
령 과</w>
대 상이</w>
내 의</w>
기준 이</w>
감 사를</w>
▁희망 한다</w>
▁호텔 이</w>
▁현대 자동차</w>
▁해 양</w>
▁학교 폭력</w>
▁하이 브리
▁하 원</w>
▁필요 하지만</w>
▁패 스를</w>
▁파악 하는</w>
▁텔레비 전</w>
▁콘텐츠 의</w>
▁카 리스
▁치 즈</w>
▁취업 에</w>
▁취득 한</w>
▁최 하
▁차 이</w>
▁차 분
▁차 단</w>
▁짐 짐</w>
▁중남 미</w>
▁준 우
▁좋 은데</w>
▁제주 시</w>
▁정보통신 기술</w>
▁저 조한</w>
▁자유한국 당은</w>
▁일으 켰다</w>
▁이 룬다</w>
▁육 성에</w>
▁유 쾌한</w>
▁옛 날</w>
▁예방 과</w>
▁어르신 들이</w>
▁심 장</w>
▁심 심
▁싫 어</w>
▁실 린</w>
▁슬 픈</w>
▁손님 들이</w>
▁성 장의</w>
▁서울 경제
▁사 안을</w>
▁부과 된다</w>
▁보 완</w>
▁벤치 마
▁발 렌
▁바다 로</w>
▁모 멘
▁맡 길</w>
▁마 스크</w>
▁레 전
▁도 전</w>
▁대 회의실에서</w>
▁김 한
▁기여 하는</w>
▁관계 자를</w>
▁공사 장</w>
▁공개 를</w>
▁경찰 관이</w>
▁경 력을</w>
▁개 헌
▁강 사가</w>
▁갑작 스럽게</w>
▁감소 로</w>
O A</w>
G DP</w>
화 하기</w>
형 사
통 지
코 스
조 부터</w>
제 공
월 에도</w>
월 로</w>
시 의회</w>
시 경</w>
보호 법</w>
만원 까지</w>
리 던</w>
더 가</w>
냈 습니다</w>
기 도
공 모
개발 기구</w>
▁활 기
▁현 안</w>
▁행사 장</w>
▁표 현</w>
▁투자유 치</w>
▁탈 퇴</w>
▁출 마</w>
▁추 세를</w>
▁질의 응
▁진술 이</w>
▁중 이야</w>
▁준비 했다</w>
▁조 경
▁전 지
▁적 을</w>
▁작 가들이</w>
▁자 란</w>
▁있 나</w>
▁일 대를</w>
▁이 혼</w>
▁이 은</w>
▁운 문
▁오 른다</w>
▁오 르면</w>
▁예비 타당
▁연 주</w>
▁엉 덩
▁없 이도</w>
▁아마 추어</w>
▁아니 었
▁심 폐소생
▁시행 하여야</w>
▁시사 했다</w>
▁스타트 업이</w>
▁수요 일에</w>
▁석 유</w>
▁생생 하게</w>
▁상 향</w>
▁사 소한</w>
▁비 행</w>
▁불 발
▁불 로</w>
▁배 석
▁배 급
▁밝혔 다고</w>
▁반도 체
▁매출 액</w>
▁동 래
▁도전 하는</w>
▁대기업 과</w>
▁늘어 난다</w>
▁노동 자
▁노 조의</w>
▁너무 나도</w>
▁납 니다</w>
▁기록 했다고</w>
▁국정감 사에서</w>
▁국내 총생산</w>
▁국가 적</w>
▁교 직
▁공연 의</w>
▁고혈 압</w>
▁개편 을</w>
▁가슴 을</w>
회 원</w>
협의 회의</w>
하셨 나요</w>
케 미
차이 나
제 주
제 공</w>
의 식</w>
원 가</w>
용 량</w>
여 름
실 적이</w>
스러 워</w>
수 준
방 위</w>
발 생
림 으로</w>
뜩 이나</w>
님 들이</w>
니 에</w>
▁흡 입
▁화 답
▁한국 인들이</w>
▁한 다며</w>
▁판단 될</w>
▁특 화</w>
▁투입 된</w>
▁택시 기
▁칠 곡
▁착 한</w>
▁증 액
▁조성 될</w>
▁재난 관리
▁있 는데요</w>
▁인 물로</w>
▁이후 의</w>
▁이르 렀다</w>
▁이루어 지지</w>
▁의원 에게</w>
▁의 장의</w>
▁음악 의</w>
▁오 시면</w>
▁아 까
▁신 재
▁시설 로</w>
▁순 서
▁수 년</w>
▁세종 학
▁선 관
▁서 해</w>
▁서 구
▁사회 로</w>
▁보 이기</w>
▁보 건</w>
▁벗 고</w>
▁범죄 가</w>
▁밝 힐</w>
▁박 씨는</w>
▁몰 라서</w>
▁멀 리
▁매 일
▁매 몰
▁맞추 는</w>
▁말씀 하시는</w>
▁레스토 랑</w>
▁되 풀이
▁동 포
▁대상 자를</w>
▁단계 로</w>
▁노 리는</w>
▁내세 워</w>
▁남녀노 소</w>
▁나라 로</w>
▁국가 들이</w>
▁교통 이</w>
▁관계 자와</w>
▁공유 재산</w>
▁경제 는</w>
▁개인 에게</w>
▁개 의
▁가 세요</w>
i d
T he</w>
M I</w>
행 사에</w>
했 나요</w>
해보 니</w>
하 십니까</w>
프 랑
지방 세
주 기를</w>
일 까요</w>
웠 지만</w>
월 이</w>
염 을</w>
연구 소는</w>
모 금
래 를</w>
되 어서</w>
도 시를</w>
대표 는</w>
기독 교
기 획</w>
기 계</w>
계획 은</w>
거 는</w>
가격 은</w>
▁후보 자를</w>
▁핵심 은</w>
▁해당 한다</w>
▁한국 인이</w>
▁퇴 원
▁청소년 들의</w>
▁챙 겨</w>
▁책 상</w>
▁진행 한다고</w>
▁지켜 볼</w>
▁주 부
▁주 간
▁조 수
▁전년 대비</w>
▁전 하며</w>
▁전 승
▁전 복
▁장애 를</w>
▁자유 무역
▁자연 스레</w>
▁입 수
▁잃어버 린</w>
▁이 천</w>
▁위협 이</w>
▁웃 는</w>
▁우 유</w>
▁외국 어</w>
▁여 수</w>
▁얼 음
▁얻 지</w>
▁않았 다면</w>
▁아카데 미</w>
▁스타 일</w>
▁수 치를</w>
▁소통 의</w>
▁서비 스와</w>
▁상황 입니다</w>
▁상용 화</w>
▁삼 겹
▁사회 적으로</w>
▁사망 했다</w>
▁사 인
▁뺀 뺀</w>
▁부 문에</w>
▁복 수의</w>
▁보도 자료를</w>
▁변 형
▁밝 고</w>
▁미술 관</w>
▁물 질이</w>
▁모 순
▁명 칭</w>
▁명 동
▁마이 너
▁러시아 월드컵</w>
▁뛰어넘 는</w>
▁디자 인의</w>
▁드러 내는</w>
▁두려 워
▁논의 하고</w>
▁노력 과</w>
▁낮 다는</w>
▁꿈 꿈</w>
▁김부 겸</w>
▁기쁘 다</w>
▁국민 들에게</w>
▁고 향</w>
▁고 온
▁경 로를</w>
▁견 적을</w>
▁것 인가요</w>
▁강 소
▁갔 어</w>
▁각 지에서</w>
l o
해왔 던</w>
체 적</w>
창 출</w>
조 형
의 견을</w>
울 을</w>
선 물
서 류</w>
란 한</w>
디 는</w>
드 림
다 보면</w>
▁확대 되는</w>
▁호선 한다</w>
▁호 주의</w>
▁행동 은</w>
▁행 보가</w>
▁평 상
▁판결 했다</w>
▁타 자</w>
▁청 정
▁차 려
▁즉 각
▁주 파
▁주 상
▁좁 아
▁정 밀</w>
▁자치 구</w>
▁일본 으로</w>
▁이 창
▁의 회의</w>
▁우려 해</w>
▁외 부에</w>
▁예방 하고</w>
▁어쨌 든</w>
▁알레 르
▁아쉽 다</w>
▁아 들
▁심의 회의</w>
▁스트리 밍</w>
▁스 릴
▁소통 과</w>
▁성 경</w>
▁서울 고
▁비 위</w>
▁불 어</w>
▁불 안이</w>
▁분 수
▁본 회의에서</w>
▁보내 야</w>
▁벨 기에
▁발견 하고</w>
▁민간 단체</w>
▁무역 갈
▁면 적이</w>
▁맥 도
▁매 입</w>
▁만나 볼</w>
▁동 굴
▁도 시에</w>
▁대체 복무
▁높 습니다</w>
▁나무 가</w>
▁긴 밀히</w>
▁구조조 정</w>
▁교섭 단체</w>
▁공동 성
▁공 포</w>
▁고용 이</w>
▁각별 히</w>
▁가입 자가</w>
▁가 치는</w>
협의 회가</w>
현 장에</w>
행 사로</w>
투 자를</w>
투 기</w>
텔레 콤</w>
코리아 가</w>
천 여
쯤 에</w>
직 은</w>
잡 을</w>
이라 고도</w>
옷 을</w>
여 객
식 당</w>
상 한</w>
리 거나</w>
라 인
라 에</w>
기본 계획</w>
권 에서는</w>
경 기를</w>
가 지
▁힘들 어요</w>
▁후 문이다</w>
▁회복 이</w>
▁화장 실에</w>
▁협 상에서</w>
▁하락 하는</w>
▁필요 하고</w>
▁편 지</w>
▁취 지
▁최 다
▁총 장이</w>
▁책임 지는</w>
▁좋아 할</w>
▁정상 화</w>
▁적 자</w>
▁인도네시아 의</w>
▁인 원을</w>
▁의원 도</w>
▁의료 기관</w>
▁의결 한다</w>
▁의 회가</w>
▁유도 하는</w>
▁유 혹
▁위촉 하는</w>
▁운 이</w>
▁용 서
▁왔 지만</w>
▁옷 은</w>
▁옮 기는</w>
▁온 천
▁오리지 널</w>
▁연결 이</w>
▁연 달아</w>
▁얼마 든지</w>
▁앞 다
▁않 고도</w>
▁안 겨
▁쓰 면</w>
▁심 사가</w>
▁시 공</w>
▁순 회
▁셀 트리
▁세 출
▁서울중앙지 검</w>
▁새벽 에</w>
▁사회 는</w>
▁사 연이</w>
▁법 적으로</w>
▁번째 다</w>
▁미 세
▁무한돌 봄
▁못 하면서</w>
▁모른 다는</w>
▁모 욕
▁매 칭
▁말씀 드
▁마 비
▁들어가 서</w>
▁대 안이</w>
▁넘 겼다</w>
▁남편 과</w>
▁김지 사는</w>
▁그동 안의</w>
▁관측 된다</w>
▁공개 하며</w>
▁경기 장에서</w>
▁개인 정보를</w>
▁C D</w>
▁2 40</w>
i f
현 장
티 는</w>
출 산
총 의</w>
증 의</w>
졌 는지</w>
업 자가</w>
사 고에</w>
베 스트
버 스는</w>
돌 을</w>
나무 가</w>
계 열
강 에서</w>
값 은</w>
▁화장 품
▁형 식의</w>
▁협조 하여야</w>
▁항소 심에서</w>
▁한 식을</w>
▁하도 급</w>
▁하 므로</w>
▁포 천</w>
▁추진 한다고</w>
▁쥐 고</w>
▁줄 은</w>
▁주도 적으로</w>
▁주 도로</w>
▁주 길</w>
▁종량 제
▁존재 감을</w>
▁조 명</w>
▁제출 하고</w>
▁정 면</w>
▁저희 도</w>
▁저 해
▁저 수
▁작 성을</w>
▁임 무
▁이슈 를</w>
▁온 다</w>
▁예술 의</w>
▁예고 한</w>
▁연결 돼</w>
▁어 필
▁아티스트 들이</w>
▁아 동을</w>
▁실시 한다고</w>
▁시 점을</w>
▁송 금</w>
▁손해배 상
▁소방 서</w>
▁선생 님은</w>
▁서 명</w>
▁상 설
▁삼성바이오로직 스</w>
▁사 면</w>
▁비 전</w>
▁블라디 보
▁북 측
▁북 서
▁북 극
▁보호 하는</w>
▁반복 되는</w>
▁바 비
▁바 나
▁무역협 상</w>
▁무 작
▁마 크</w>
▁동 승
▁대 사</w>
▁당사 자</w>
▁기숙 사</w>
▁기상 청</w>
▁기 분
▁귀 엽
▁국 도</w>
▁교 체를</w>
▁관 장
▁공개 한다</w>
▁곳 입니다</w>
▁값 이</w>
▁감 자
▁가격 도</w>
A C
한국 당</w>
플루엔 자</w>
패 가</w>
판 의</w>
파 에</w>
트 리</w>
클 리
지원 금</w>
지 까지</w>
일 자</w>
의 사
역 까지</w>
세 미
방 법을</w>
민주 화
문 서</w>
들 만의</w>
도 자
니 스
근 무를</w>
공 제
공 사에</w>
경 남</w>
거 리로</w>
▁흔 한</w>
▁휴 식</w>
▁현장 실
▁행 사와</w>
▁항공 사</w>
▁학 대
▁프레 스
▁풀 고</w>
▁치 르는</w>
▁출동 해</w>
▁출 마를</w>
▁촉 진을</w>
▁착 안
▁진행 하며</w>
▁직후 인</w>
▁지역 아동
▁증가 와</w>
▁좋 겠
▁제한 된</w>
▁제주 도에</w>
▁제시 됐다</w>
▁정 식으로</w>
▁잦 아
▁장 거리</w>
▁자 본</w>
▁있 더라도</w>
▁잃 게</w>
▁인 형
▁이 국
▁유기 농</w>
▁워크 숍</w>
▁외무 성</w>
▁연구 결과가</w>
▁연 관이</w>
▁야 당이</w>
▁않 은데</w>
▁않 겠다고</w>
▁싫어 하는</w>
▁실 태</w>
▁신중 하게</w>
▁신 나는</w>
▁시간 의</w>
▁시 군이</w>
▁세 대의</w>
▁선 배</w>
▁생각 에는</w>
▁생 태</w>
▁상응 하는</w>
▁상 처
▁사라 질</w>
▁사 정을</w>
▁비용 과</w>
▁블랙 리스트</w>
▁불 교
▁바닥 을</w>
▁만 든
▁다음 의</w>
▁뇌 물을</w>
▁남북 교류
▁기 회로</w>
▁그 늘
▁규모 에</w>
▁귀 귀</w>
▁구성 할</w>
▁광 역</w>
▁관 료
▁공정 위가</w>
▁공기청정 기</w>
▁검 사는</w>
▁갖 지</w>
▁가족 에게</w>
▁가 뜩이나</w>
H O</w>
9 000</w>
훈 의</w>
코 드를</w>
축 제
창 출
이라 이
순 으로</w>
셨 던</w>
사 리</w>
부장 관</w>
보건 법</w>
번 호
방송 이</w>
모 로</w>
기 기를</w>
계 열</w>
▁흘 러</w>
▁후 원</w>
▁파악 한</w>
▁특 혜
▁통 보</w>
▁태블 릿</w>
▁케이 크를</w>
▁캄보디 아</w>
▁취 소를</w>
▁첫 날
▁천안 시</w>
▁차지 할</w>
▁지지 율</w>
▁지급 된다</w>
▁제 약이</w>
▁정 경
▁전 광
▁잠재 적</w>
▁자체 에</w>
▁자 의</w>
▁일반 인</w>
▁이 자를</w>
▁의미 는</w>
▁은 혜
▁예술 을</w>
▁예상 되고</w>
▁영상 정보
▁알리 바
▁알 았는데</w>
▁아 라
▁실 수가</w>
▁시절 부터</w>
▁시스템 의</w>
▁시설 은</w>
▁승 소
▁스타 일의</w>
▁스 리랑
▁수 산물</w>
▁솔 로
▁서울 시의</w>
▁색 을</w>
▁상 해</w>
▁사 장의</w>
▁빅뱅 의</w>
▁불 복
▁분 홍
▁부 문은</w>
▁병 원이</w>
▁백 종
▁발행 한</w>
▁무너 진</w>
▁만나 러</w>
▁리 뷰
▁로이 터</w>
▁드 래
▁도서 관에</w>
▁대표 단이</w>
▁달 을</w>
▁다음 주</w>
▁노력 에</w>
▁낭 독
▁남아 있다</w>
▁나왔 지만</w>
▁꼼꼼 하게</w>
▁깨끗 하게</w>
▁김 천
▁길 고</w>
▁규 제로</w>
▁교수 님</w>
▁골프 를</w>
▁고용 을</w>
▁경제 적으로</w>
▁결합 한</w>
▁개최 해</w>
▁가 끔
▁3 60</w>
i on
V D</w>
A D</w>
히 나</w>
현 황</w>
현 장을</w>
해수 욕
한 반도</w>
파 와</w>
통 계
최저 임금</w>
이 나마</w>
위 해</w>
연 과</w>
양 에</w>
소 프트</w>
분 기
류 와</w>
등 하게</w>
더 라고</w>
내 륙
기 소
가족 이</w>
▁활동 할</w>
▁확정 했다</w>
▁헌 법</w>
▁피 서
▁통 과</w>
▁토 지를</w>
▁출석 위원</w>
▁출발 하는</w>
▁추 신
▁최고 치를</w>
▁참여 하게</w>
▁참가 자들의</w>
▁질문 에는</w>
▁진 로를</w>
▁주 전</w>
▁주 소가</w>
▁죄 를</w>
▁제출 하는</w>
▁정 정
▁전후 로</w>
▁전 적으로</w>
▁장 충
▁장 점
▁있었 다면</w>
▁이 은
▁의혹 으로</w>
▁위험 요
▁원 하고</w>
▁외교 적</w>
▁영 상으로</w>
▁연 방</w>
▁알고 리즘
▁시설 물의</w>
▁수 영</w>
▁소득 주도</w>
▁소 장</w>
▁성희 롱
▁성 능이</w>
▁선수 단</w>
▁서비스 다</w>
▁생활 하는</w>
▁산 정</w>
▁사 무</w>
▁사 계
▁불 안</w>
▁복 귀</w>
▁보조 할</w>
▁보내주 시면</w>
▁배우 기</w>
▁방 은</w>
▁무 렵
▁맡 기
▁만 세
▁땀 을</w>
▁드 루
▁도착 했다</w>
▁넘 었다</w>
▁낯 설
▁남 았다</w>
▁날 씨를</w>
▁나 갔다</w>
▁끌 어</w>
▁김 세
▁구성 과</w>
▁구간 을</w>
▁교육과 정</w>
▁관계 자의</w>
▁고 대
▁고 농도</w>
▁경 연</w>
▁경 부
▁겨냥 해</w>
▁검찰 과</w>
▁걷 기</w>
▁건 수는</w>
▁간호 사</w>
▁가입 할</w>
▁가이드라 인을</w>
▁199 3</w>
1 4
해 서
토 리</w>
지 길</w>
조 건
제 품이</w>
재 산을</w>
의 식이</w>
으 실</w>
아 이가</w>
시 겠어요</w>
상 태</w>
사 유가</w>
망 과</w>
레 니
량 도</w>
랜 드는</w>
라이 프</w>
라 이나</w>
남 이</w>
난 이</w>
강남 스타일</w>
▁확인 해주세요</w>
▁했 으면</w>
▁해 왔다</w>
▁한국 형</w>
▁한 복</w>
▁취 지에</w>
▁취 미
▁충 돌</w>
▁총 재가</w>
▁진 다</w>
▁지 사와</w>
▁지 사를</w>
▁주시 길</w>
▁종료 된</w>
▁조사 와</w>
▁전두 환</w>
▁재 벌</w>
▁장 단
▁잠 실</w>
▁일으 켰
▁이슈 로</w>
▁이 진
▁윤 종
▁유발 하는</w>
▁유 학을</w>
▁웹 툰</w>
▁워 터
▁영수 증</w>
▁역 으로</w>
▁업체 들의</w>
▁언 어로</w>
▁실 력</w>
▁시 인
▁시 뮬
▁수탁 자가</w>
▁수 단
▁소속 으로</w>
▁소개 한다</w>
▁성폭 행을</w>
▁섬 세한</w>
▁삼성 은</w>
▁살 리는</w>
▁사업 장을</w>
▁사랑 은</w>
▁부담 하는</w>
▁별 개로</w>
▁방 에서</w>
▁미얀 마
▁모델 의</w>
▁말 아
▁말 라</w>
▁많아 지고</w>
▁되었 어</w>
▁되 니</w>
▁도 움으로</w>
▁대법원 장의</w>
▁남북 한</w>
▁낙동 강</w>
▁나 들
▁기획 조정
▁기여 를</w>
▁기다 릴</w>
▁기관 에서</w>
▁극단 적</w>
▁구 하
▁구 분</w>
▁경찰 서</w>
▁경기 국제
▁것 에서</w>
▁거부 하고</w>
▁개인 별</w>
▁개발 할</w>
▁갖 췄
▁가이 드</w>
▁O ECD</w>
협의 회는</w>
항 서</w>
타 임</w>
켓 을</w>
친 다는</w>
채 와</w>
중 은</w>
주의 보가</w>
정 원
저 축
이 요</w>
와 야</w>
없 다</w>
수 입</w>
수 들이</w>
부 문
부 모</w>
번 이</w>
모 와</w>
노동 위원회</w>
구 조가</w>
경 연
걸 로</w>
▁후 기</w>
▁확인 되면</w>
▁화 이트</w>
▁현저 한</w>
▁현 안에</w>
▁해소 될</w>
▁해결 될</w>
▁풍 경
▁토 종</w>
▁터키 의</w>
▁터 트
▁터 널
▁치 안
▁청구 할</w>
▁청 원</w>
▁지금 처럼</w>
▁지 점에서</w>
▁주 제에</w>
▁종전선언 을</w>
▁조 처
▁제출 하면</w>
▁제작 하는</w>
▁제작 을</w>
▁적 폐
▁저 조
▁재미 가</w>
▁장 면</w>
▁일 조
▁인 연을</w>
▁이상 이면</w>
▁의심 하고</w>
▁위임 된</w>
▁원 전
▁우려 하고</w>
▁용 역을</w>
▁용 산</w>
▁연휴 를</w>
▁여 부
▁에 코
▁업그레이 드</w>
▁아파 트의</w>
▁실 현</w>
▁신 산업</w>
▁시드 니</w>
▁시 세</w>
▁스 틸
▁슈 퍼</w>
▁소송 이</w>
▁섬 세
▁선진 국</w>
▁서 예
▁서 남
▁생기 지</w>
▁생 명의</w>
▁사고 의</w>
▁봄 이</w>
▁벌 일</w>
▁버 섯
▁무역분 쟁
▁모 터
▁맞춰 서</w>
▁말 과</w>
▁리 더</w>
▁따 르지</w>
▁등 급을</w>
▁등 급</w>
▁들어 선다</w>
▁대사 관</w>
▁단 지가</w>
▁다시 금</w>
▁농 악
▁남 자를</w>
▁깎 아
▁김 인
▁금융 위</w>
▁금메 달</w>
▁구 본
▁교육 청이</w>
▁교 역
▁관계 자들의</w>
▁과징 금</w>
▁과정 의</w>
▁공 공</w>
▁골프 장</w>
▁경기도지 사와</w>
▁격 차를</w>
▁개정 안에</w>
▁개선 된</w>
▁간 직
▁가격 의</w>
▁B BC</w>
학생 의</w>
팀 으로</w>
터 미널
콘서 트</w>
전 국
염 이</w>
손 이</w>
소 매
상 업
분 양</w>
보 단</w>
동 기</w>
대 장을</w>
담당 관은</w>
내 역을</w>
남 북</w>
공 원을</w>
공 예
거 가</w>
▁화장 품을</w>
▁형 형</w>
▁향 하고</w>
▁해소 하고</w>
▁필요 하
▁팝 팝</w>
▁판매 되고</w>
▁파 주시</w>
▁튀 어나
▁태어 났
▁추정 했다</w>
▁추 세가</w>
▁최근 까지</w>
▁청소년 을</w>
▁찾아 오는</w>
▁지역 특
▁지나 가는</w>
▁지 을</w>
▁증 진에</w>
▁주관 하고</w>
▁주 석의</w>
▁주 기로</w>
▁조 각</w>
▁전 념
▁입 국</w>
▁일제강점 기</w>
▁일각 에선</w>
▁운 송</w>
▁오르 내
▁오 버
▁영화 와</w>
▁영장 전
▁영 종
▁연 인</w>
▁에이 스</w>
▁없었 다면</w>
▁양 호
▁알 린</w>
▁아이템 을</w>
▁시 까지</w>
▁스타 가</w>
▁쇼트 트랙</w>
▁쇄 도
▁세 종</w>
▁선사 할</w>
▁서 산
▁생각 했던</w>
▁사용 될</w>
▁불법 으로</w>
▁부 위에</w>
▁버스 정류
▁먹 습니다</w>
▁맞이 하는</w>
▁만 전을</w>
▁만 료</w>
▁마음 대로</w>
▁마 신</w>
▁러 브
▁라 벨
▁라 디오
▁디자 인으로</w>
▁도입 할</w>
▁도 요
▁데뷔 한</w>
▁대표 팀의</w>
▁대 사는</w>
▁누 리고</w>
▁농 구</w>
▁넓 혀
▁내 몰
▁김대 중</w>
▁김 홍
▁구성 했다</w>
▁과 언이</w>
▁공격 이</w>
▁고 정</w>
▁검토 하는</w>
▁가능 하
t er
협동 조합
타 임을</w>
커 스</w>
질 은</w>
지 식
지 금</w>
주 며</w>
조 리</w>
제 작</w>
을 지도</w>
율 로</w>
연 에</w>
수 행을</w>
수 영
복 구</w>
미디 어
로 그</w>
됐 다가</w>
더 러</w>
농 어
녀 의</w>
공무 원을</w>
경 기에</w>
견 과</w>
▁확 확</w>
▁홍보 에</w>
▁허 용</w>
▁허 브
▁한국 계</w>
▁하 신</w>
▁필수 적인</w>
▁특 활
▁투명 하게</w>
▁측 근
▁총 선에서</w>
▁청 각
▁책 에</w>
▁질 적</w>
▁직 격
▁지방 분
▁지났 지만</w>
▁지나 면서</w>
▁지 문
▁주택 담보
▁주문 하신</w>
▁제 때</w>
▁정순 균</w>
▁정보 에</w>
▁정 통
▁정 립
▁점 진
▁전 제
▁적 다</w>
▁자리 에는</w>
▁일 대는</w>
▁이야기 하고</w>
▁음식 의</w>
▁은행 에서</w>
▁윤 석
▁유익 한</w>
▁유 휴
▁원자 력
▁운영 한</w>
▁열 기를</w>
▁어디서 나</w>
▁어 촌
▁어 깨</w>
▁애 정을</w>
▁악 성</w>
▁싸 이의</w>
▁신 재생에너지</w>
▁식 이다</w>
▁시작 하면</w>
▁숨 은</w>
▁숨 겨진</w>
▁설 비를</w>
▁생활 폐기물</w>
▁삼성 생
▁사용 하던</w>
▁사망 자가</w>
▁뿐 입니다</w>
▁불 교</w>
▁부 정한</w>
▁보유 세</w>
▁벤 처</w>
▁베트남 의</w>
▁바빠 서</w>
▁멤버 가</w>
▁래 퍼</w>
▁대 명
▁놓 여
▁높 인</w>
▁노 트</w>
▁꾸 려
▁기대 하기</w>
▁기 쁘게</w>
▁구축 이</w>
▁구조 다</w>
▁과거 를</w>
▁공감 대가</w>
▁공 기를</w>
▁경 의
▁경 계를</w>
▁거 부한</w>
▁가 진다</w>
L A</w>
I oT</w>
향 후</w>
프 린
체육 회</w>
천 억</w>
책 에</w>
지역 인</w>
지 주
장 벽</w>
임대 주택</w>
이었 다면</w>
이 후</w>
운동 에</w>
언더 파</w>
억 원에서</w>
실 에는</w>
스러 워
센 트</w>
부르 크</w>
보 호를</w>
버 를</w>
모 의</w>
매 치</w>
라이 트</w>
들 며</w>
더 리
대 도</w>
기 능을</w>
개 소가</w>
▁회 신
▁홍 남기</w>
▁현실 에서</w>
▁항 구
▁푸 는</w>
▁평소 보다</w>
▁패턴 을</w>
▁특 히나</w>
▁통계 청</w>
▁토론 토</w>
▁터 치
▁코 스</w>
▁침 착
▁취 득</w>
▁최 재
▁청 량
▁주 재로</w>
▁주 장</w>
▁정치 권</w>
▁절 실한</w>
▁전망 에</w>
▁재 선
▁자치 회관</w>
▁의존 도가</w>
▁응답 했다</w>
▁유의 해야</w>
▁예산 으로</w>
▁예 멘</w>
▁여 권을</w>
▁아 동이</w>
▁쓰 나
▁심 해
▁시작 되기</w>
▁쇼핑 을</w>
▁서 기</w>
▁생산 할</w>
▁생각 엔</w>
▁새 삼</w>
▁상 하이
▁사실 로</w>
▁사 형
▁빌 보드</w>
▁비 하면</w>
▁불 렀다</w>
▁분 임
▁부여 하는</w>
▁부담 해야</w>
▁부 서에</w>
▁베 르
▁방문 은</w>
▁바이 러스</w>
▁민 중
▁목 적이다</w>
▁모스크 바
▁모 임이</w>
▁메신 저</w>
▁멈추 지</w>
▁돌 며</w>
▁대학교 에</w>
▁대상 인</w>
▁닮 은</w>
▁뉴 뉴</w>
▁노 출</w>
▁넘겨 졌다</w>
▁금융 기관</w>
▁근무 한</w>
▁그래 야</w>
▁관광 을</w>
▁관객 들에게</w>
▁공정 하게</w>
▁경우 엔</w>
▁겨울 을</w>
▁거 액의</w>
▁강 도가</w>
▁강 경</w>
' ,</w>
하 기까지</w>
피 는</w>
컨 벤션
축 제는</w>
채 널</w>
지 회</w>
지 출</w>
야 를</w>
시설 에서</w>
사업 장</w>
목 적
대 금</w>
급 한</w>
광 고</w>
관 제
곳 은</w>
▁휘 둘
▁필 라
▁평가 와</w>
▁투입 돼</w>
▁투 숙
▁텃 밭
▁측 과</w>
▁충 주
▁챔피 언</w>
▁중소벤처기업 부</w>
▁중 시하는</w>
▁중 시
▁줄 게</w>
▁준 하는</w>
▁존재 가</w>
▁조 건에</w>
▁제공 했다</w>
▁전화 번호를</w>
▁전자 담
▁적용 돼</w>
▁장애 인을</w>
▁장 과</w>
▁임대 주택</w>
▁임 의로</w>
▁일 제의</w>
▁인정 받은</w>
▁이 튿
▁이 마트</w>
▁이 들도</w>
▁응원 하는</w>
▁음 반</w>
▁유 저
▁위협 하는</w>
▁위원 과</w>
▁위반 으로</w>
▁원 유
▁운영 하기</w>
▁연구 팀이</w>
▁연구 진이</w>
▁연 습</w>
▁없 으나</w>
▁약 물</w>
▁알려 줄</w>
▁악 수를</w>
▁싶 었던</w>
▁숨 지는</w>
▁소 환</w>
▁서 로가</w>
▁생산 량이</w>
▁생각 된다</w>
▁상 봉
▁삼 척
▁비 정상
▁불 펜
▁북한 산</w>
▁부르 며</w>
▁보 낼
▁백 남
▁방 영</w>
▁무 기</w>
▁무 거
▁몸 싸
▁먹 어요</w>
▁머물 고</w>
▁매 트리
▁맞 벌이</w>
▁만나 기</w>
▁만 남</w>
▁동 물의</w>
▁대기업 의</w>
▁다르 지만</w>
▁다 하고</w>
▁눈앞 에</w>
▁높 인다</w>
▁내 밀
▁끊 은</w>
▁깨닫 게</w>
▁금액 의</w>
▁규칙 이</w>
▁국민건강 보험
▁과학 기술</w>
▁과태 료가</w>
▁곡 곡</w>
▁고 성</w>
▁곁 에</w>
▁경제 적인</w>
▁견 해를</w>
▁겪 어
▁거세 게</w>
▁G DP</w>
휴 양
회 관의</w>
형 태
택 시
지 금
주의 적</w>
전 철</w>
재 단과</w>
일 이나</w>
웠 어</w>
용 소방
요 청
연 설
었 는지</w>
소 장은</w>
부 서는</w>
방 향을</w>
령 으로</w>
려 고요</w>
당 하는</w>
남 에</w>
기 부</w>
걸 이</w>
▁힐 링
▁회계 연
▁환상 적인</w>
▁향 했다</w>
▁해결 이</w>
▁한국 당의</w>
▁하락 을</w>
▁하도 급
▁포함 되어야</w>
▁폐 쇄</w>
▁특 산
▁태극 기</w>
▁카슈 끄
▁친구 들에게</w>
▁집중 된다</w>
▁지 점
▁조치 다</w>
▁정 형
▁정 해져</w>
▁정 당이</w>
▁접 수를</w>
▁전망 입니다</w>
▁전 과</w>
▁저 장</w>
▁자연 의</w>
▁임종 석</w>
▁이 철
▁이 전을</w>
▁이 사는</w>
▁의도 적으로</w>
▁영화 에서</w>
▁영 예를</w>
▁영 농
▁어울 려</w>
▁애로 사항을</w>
▁싸 움이</w>
▁신 학
▁시 점이다</w>
▁스트레 스가</w>
▁스타 일을</w>
▁순 매
▁소 음
▁셧 다운</w>
▁설치 와</w>
▁선사 한다</w>
▁서 류가</w>
▁생각 으로</w>
▁상반 기에</w>
▁사우디아라 비아</w>
▁사법행정 권</w>
▁사랑 스러운</w>
▁빌 린</w>
▁비핵 화가</w>
▁부 근</w>
▁보여 줍니다</w>
▁보 장을</w>
▁보 석</w>
▁법 원에서</w>
▁백 성
▁발언 으로</w>
▁발 매</w>
▁믿 음이</w>
▁민 속</w>
▁뮤직비 디오</w>
▁무 단</w>
▁목 의</w>
▁면 적</w>
▁먹 었습니다</w>
▁매 티스</w>
▁맞 이한</w>
▁마을 이</w>
▁마 인
▁도착 하는</w>
▁대 여</w>
▁대 검찰
▁단 원
▁뉴욕타임 스</w>
▁노력 한</w>
▁기각 했다</w>
▁극복 하기</w>
▁그 것</w>
▁과학기술정보통신 부</w>
▁공 천
▁골 이</w>
▁고속 도로
▁걸 리지</w>
▁감안 할</w>
▁가수 들의</w>
▁가 마
a p
N A
1 7
프 리</w>
이었 을</w>
억원 대</w>
심 의회</w>
수 요</w>
세 다</w>
성 장이</w>
비용 은</w>
분 기에</w>
부 지사가</w>
범 을</w>
번 호가</w>
방 식</w>
모 터
만 명으로</w>
드리 며</w>
건축 물</w>
㎡ )</w>
▁홍 역</w>
▁포함 될</w>
▁팬 클럽</w>
▁콘텐츠 로</w>
▁코오 롱
▁컴퓨 터가</w>
▁최 신
▁처음 엔</w>
▁참여 하며</w>
▁집 안</w>
▁지 낼</w>
▁제안 에</w>
▁전화 해</w>
▁전 진
▁잡 혔다</w>
▁임직 원들이</w>
▁인보 이
▁의 왕
▁육 아</w>
▁유 사</w>
▁위 함
▁원산 지</w>
▁용 기</w>
▁옹 호
▁오 해를</w>
▁심의 위원회</w>
▁신 이</w>
▁식중 독</w>
▁승 인이</w>
▁스마트폰 으로</w>
▁순 이었다</w>
▁쇼 쇼</w>
▁서 강
▁샀 는데</w>
▁사태 에</w>
▁사 려고</w>
▁비즈니 스
▁분위 기에</w>
▁분 실</w>
▁부 르고</w>
▁복 원</w>
▁보 육</w>
▁반 영</w>
▁미안 합니다</w>
▁미 치고</w>
▁물 은</w>
▁몫 을</w>
▁명 동</w>
▁마드리 드</w>
▁들어 가지</w>
▁됐 으면</w>
▁대 국민</w>
▁대 결을</w>
▁달성 할</w>
▁노 는</w>
▁넣 을</w>
▁날 씨에</w>
▁그러 는데</w>
▁규칙 을</w>
▁권 위
▁국가주 석이</w>
▁교 수를</w>
▁관 통
▁공 적이</w>
▁고 분
▁계속 된</w>
▁경기 둔
▁경 미한</w>
▁가파 른</w>
▁가급 적</w>
E A</w>
D B</w>
체 계가</w>
찾 아가는</w>
지원 과</w>
지 진</w>
지 정
조 사는</w>
자 재</w>
이스 트</w>
이 서</w>
의 무를</w>
실질 심사</w>
센터 장</w>
비 도</w>
부 에서는</w>
률 도</w>
료 에</w>
로 그
력발전 소</w>
도 에는</w>
더불 어민주
노 무
난 다고</w>
권 도</w>
구 도</w>
▁확대 한다</w>
▁화 상
▁협동 조합
▁핵 시설</w>
▁한 남
▁플라 스틱
▁평 을</w>
▁탑 승</w>
▁침 략
▁취임 한</w>
▁충격 적인</w>
▁최소화 하기</w>
▁초 기에는</w>
▁체 제가</w>
▁천 천</w>
▁창원 시</w>
▁참석 을</w>
▁진 지한</w>
▁지역 인</w>
▁지 어진</w>
▁중 복</w>
▁주목 받는</w>
▁주 시는</w>
▁존재 를</w>
▁정 면으로</w>
▁전달 해</w>
▁장 수
▁자리 하고</w>
▁있 는데도</w>
▁인천 의</w>
▁이름 의</w>
▁이 자</w>
▁유 병
▁위탁 하는</w>
▁위 생</w>
▁우리나라 에</w>
▁요 리는</w>
▁엿 보
▁에 디
▁업무 는</w>
▁심 재
▁신 태
▁식약 처는</w>
▁시행 계획을</w>
▁소방 재난
▁생 존</w>
▁상 원</w>
▁사회 복지</w>
▁분노 를</w>
▁부 흥
▁변호 사를</w>
▁발표 한다</w>
▁발전 하고</w>
▁발 맞
▁받 기도</w>
▁바 우
▁미추홀 구</w>
▁미 뤄</w>
▁물 꼬
▁목 을</w>
▁모 자를</w>
▁면 허</w>
▁만족 도</w>
▁뒀 다</w>
▁되었 을</w>
▁데이비 드</w>
▁댓글 이</w>
▁당직 근무
▁다음 은</w>
▁눈 부
▁누군 가를</w>
▁남 산
▁끈 끈</w>
▁기 분을</w>
▁금융감독 원은</w>
▁금 전
▁그 랜드
▁국 장</w>
▁국 경</w>
▁구 단이</w>
▁공 적</w>
▁공 로가</w>
▁경 인
▁갓 갓</w>
▁2 20</w>
O ECD</w>
협의 회를</w>
행 으로</w>
집 의</w>
야 한다</w>
사랑 의</w>
사 무</w>
박근 혜</w>
바람 이</w>
문화 재</w>
론 은</w>
란 다</w>
드 렸습니다</w>
가 구의</w>
▁후 배</w>
▁황 희
▁환불 이</w>
▁화 요일</w>
▁화 면이</w>
▁홈 런</w>
▁허 리</w>
▁해결 하고</w>
▁해 본</w>
▁하루 하
▁포인 트가</w>
▁팔레 스타
▁타 인의</w>
▁친구 랑</w>
▁출연 한다</w>
▁추억 이</w>
▁초래 할</w>
▁체결 했다고</w>
▁집 안
▁지원 하기로</w>
▁중 에도</w>
▁정리 하고</w>
▁재생 에너지</w>
▁장 영
▁자동차 에</w>
▁자 식
▁인 성
▁이 색</w>
▁의결 권</w>
▁위 상이</w>
▁오스트 리아</w>
▁예 배를</w>
▁영업 이익</w>
▁영 국이</w>
▁여러분 들이</w>
▁언론 과</w>
▁양 자
▁실 수요
▁신속 하고</w>
▁식 당에</w>
▁시작 하였다</w>
▁소비 를</w>
▁소 정의</w>
▁소 음</w>
▁선사 했다</w>
▁선 인
▁서울시 장이</w>
▁서 쪽</w>
▁상 업</w>
▁사 임
▁사 야</w>
▁빠 지지</w>
▁분석 하는</w>
▁부과 할</w>
▁부 여</w>
▁부 스를</w>
▁배 경</w>
▁방 출
▁받아 왔다</w>
▁반 송
▁바꿔 야</w>
▁미국 프로
▁물 질을</w>
▁말씀 이</w>
▁말 아</w>
▁라이 브
▁돌파 했다</w>
▁당 기
▁다 듬
▁높 았고</w>
▁놀 고</w>
▁노 인이</w>
▁노 골
▁내 어</w>
▁낳 고</w>
▁김태 우</w>
▁김 우
▁긴 장이</w>
▁금감 원이</w>
▁글 과</w>
▁규모 와</w>
▁공 방이</w>
▁고객 과</w>
▁건 넨</w>
▁개정 된</w>
▁가능 하지만</w>
▁A BC</w>
P EC</w>
M O</w>
> (</w>
후 에</w>
해주 면</w>
키 가</w>
청 구</w>
차 산업
째 인</w>
전 자가</w>
심 리
스 튜
스 케이
손 으로</w>
속 의</w>
메 달을</w>
된 다며</w>
대학교 가</w>
기 록</w>
강 은</w>
가 맹
▁확 고한</w>
▁협의 체</w>
▁협약 식에는</w>
▁합 시다</w>
▁하나 입니다</w>
▁판문 점
▁판매 에</w>
▁코 드를</w>
▁초 월
▁찬 반</w>
▁차 관의</w>
▁중소기업 과</w>
▁주 입
▁자부 심을</w>
▁자 주
▁입 고
▁일으 켜</w>
▁인수 합
▁유 족</w>
▁유 리</w>
▁웹 툰
▁월 급
▁운행 하는</w>
▁용 도
▁왔 고</w>
▁오 키
▁예측 이</w>
▁열 리며</w>
▁양해 각
▁안 았다</w>
▁아내 의</w>
▁아 쿠
▁신 영
▁신 약</w>
▁수탁 자에게</w>
▁성과 에</w>
▁색 상이</w>
▁사이 즈를</w>
▁사 장과</w>
▁불가피 할</w>
▁부모 님</w>
▁본 연의</w>
▁반복 적으로</w>
▁바 다가</w>
▁맡 아
▁만족 도를</w>
▁막 히
▁드 나
▁뒤 덮
▁독 일을</w>
▁도서 관의</w>
▁던 졌다</w>
▁달성 하기</w>
▁달 부터</w>
▁단 점이</w>
▁다 르고</w>
▁누 워</w>
▁논 쟁이</w>
▁논 문을</w>
▁냉 동
▁나 흘</w>
▁그려 졌다</w>
▁그러 지</w>
▁그 친</w>
▁규 제에</w>
▁구 역
▁광범위 한</w>
▁게스트 하우
▁건립 을</w>
▁개 통</w>
▁각 계</w>
a b
환 자가</w>
풍 의</w>
팀 장</w>
참 모
차이나 모닝
중 심</w>
주택 은</w>
장 비를</w>
월 을</w>
워 진</w>
우 에</w>
시 대를</w>
서 부터</w>
서 부
분 에는</w>
본 부를</w>
벌 을</w>
례 로</w>
러 의</w>
됐 어요</w>
대 법
대 기
단 지가</w>
규 정에</w>
공 연이</w>
경제 에</w>
개 국이</w>
▁히 로
▁회 상
▁함 을</w>
▁학생 부
▁팬 클럽
▁통신 이</w>
▁케이 티</w>
▁출 근</w>
▁축 제에</w>
▁총괄 하는</w>
▁챔피언 십</w>
▁창의 적</w>
▁지역주 민의</w>
▁지급 에</w>
▁증가 율이</w>
▁준 결
▁정 치를</w>
▁작은 도서
▁자연 을</w>
▁자 재</w>
▁임직 원이</w>
▁일 축
▁일 삼
▁일 산</w>
▁인 물을</w>
▁이야기 하는</w>
▁이 들
▁이 경
▁이 것</w>
▁유 죄</w>
▁원 도
▁운동 의</w>
▁예정 대로</w>
▁연속 으로</w>
▁어린이 와</w>
▁어 땠
▁싸 게</w>
▁실시 하여</w>
▁신 상
▁시스템 으로</w>
▁스 며
▁숙 소</w>
▁선발 투
▁서 는</w>
▁사이 를</w>
▁사라 지는</w>
▁불 출
▁부 부는</w>
▁보내 줄</w>
▁보내 면</w>
▁받아들 여</w>
▁반 기
▁바이 어</w>
▁바라 보
▁물 고
▁말 해요</w>
▁말 라
▁많 았습니다</w>
▁마 냥</w>
▁딴 딴</w>
▁디자 인은</w>
▁등 으로부터</w>
▁됐 는데</w>
▁돌 이
▁당 하는</w>
▁금 연구
▁귀 하의</w>
▁국민 의
▁국내 외
▁국 영
▁관광 지</w>
▁골 자로</w>
▁고 부가
▁건의 했다</w>
▁건물 로</w>
▁감 탄
▁간 격으로</w>
▁가슴 에</w>
▁가 세
▁4 50</w>
a k
협 의</w>
협 을</w>
혁 명</w>
피 고
평 가가</w>
킵 니다</w>
종합 지원센터</w>
요 를</w>
무 대에서</w>
르 의</w>
다 의</w>
나 지</w>
길 로</w>
교 수가</w>
공 단은</w>
경쟁 력</w>
경 궁</w>
거 에요</w>
간 다고</w>
▁현실 과</w>
▁허 익
▁학 원에</w>
▁프리 랜
▁팬 들</w>
▁파 인
▁통 영
▁코 미디</w>
▁처 분이</w>
▁창 설
▁참고 로</w>
▁차 장</w>
▁직 원과</w>
▁직 업이</w>
▁직 속</w>
▁지나 고</w>
▁줄 기
▁정상 은</w>
▁정부 도</w>
▁정도 면</w>
▁정 화
▁정 시</w>
▁재 래
▁임진왜 란</w>
▁임 의
▁인 형을</w>
▁이곳 에는</w>
▁응답 자</w>
▁유 람
▁예측 했다</w>
▁열 리지</w>
▁어렵 기</w>
▁아르바이 트를</w>
▁아 저
▁순 수한</w>
▁소식 통을</w>
▁섞 여</w>
▁생각 하며</w>
▁상세 히</w>
▁산 악
▁비 난</w>
▁분석 에</w>
▁부 쩍</w>
▁본 회의
▁법 과</w>
▁벌어 질</w>
▁버 린</w>
▁배 고
▁방 침</w>
▁발생 했다고</w>
▁발 사</w>
▁발 돋
▁반발 을</w>
▁박 인
▁박 민
▁바람 직한</w>
▁무너 뜨
▁무 용</w>
▁마 주</w>
▁마 산
▁라이 트
▁라 인을</w>
▁라 면</w>
▁또 다른</w>
▁두 터
▁대 입</w>
▁노동 조합
▁노동 자들의</w>
▁길 거리</w>
▁기 조를</w>
▁기 둥
▁금융감독 원이</w>
▁금 고</w>
▁그때 는</w>
▁규정 에도</w>
▁구 하기</w>
▁구 름
▁과 열
▁계약 서를</w>
▁걱정 하는</w>
▁갤러 리</w>
▁강 좌</w>
▁간절 히</w>
▁W W</w>
토지 주택
치 유
증후 군</w>
전 도</w>
재 무
작 품</w>
월 은</w>
시 장으로</w>
스 케
선 택
상 가</w>
사 들을</w>
벤 져
명 당</w>
르 자</w>
단 장은</w>
군수 에게</w>
계 약이</w>
겼 고</w>
강 한</w>
▁협력 하여야</w>
▁혁신 이</w>
▁할머니 의</w>
▁할 인이</w>
▁한 발</w>
▁투입 되는</w>
▁태 안
▁캠퍼 스</w>
▁캘리포니아 주</w>
▁치료 에</w>
▁추 경
▁책임 감을</w>
▁진흥 을</w>
▁진 짜
▁지원 금</w>
▁중심 을</w>
▁주민 들</w>
▁존 속
▁조성 과</w>
▁조 류
▁저희 의</w>
▁자 세가</w>
▁있 듯이</w>
▁입장 에선</w>
▁인센티 브</w>
▁인 력과</w>
▁유 격
▁요청 하신</w>
▁요 인</w>
▁옛 날
▁예 컨대</w>
▁어 리
▁알 았다</w>
▁실효 성</w>
▁승 계
▁수행 한</w>
▁수 색</w>
▁소 시
▁살 려
▁사업 도</w>
▁불 길이</w>
▁부 속
▁부 는</w>
▁보여 줬
▁보냈 어요</w>
▁보고 서가</w>
▁변경 하는</w>
▁벌 인다</w>
▁배 당</w>
▁방송 된다</w>
▁발 레
▁반대 하고</w>
▁맡 을</w>
▁만들 지</w>
▁라 고</w>
▁두 께
▁대학 생들이</w>
▁다문화 가족</w>
▁늦 춰
▁뇌 졸
▁농 농</w>
▁내부 적으로</w>
▁내년 에도</w>
▁기록 은</w>
▁기 조가</w>
▁기 쁜</w>
▁국회의 원이</w>
▁국가 는</w>
▁관광 명
▁공간 은</w>
▁공 룡
▁곡 이</w>
▁객관 적</w>
▁개별 적으로</w>
▁간 섭
▁가 디
▁2 30</w>
I MF</w>
현 동</w>
해 당</w>
판 은</w>
컨설 팅</w>
카 이
층 에게</w>
차 량을</w>
연 준</w>
업무 에</w>
양 성
야 의</w>
실 태</w>
성 장과</w>
서비 스의</w>
삼 성</w>
산업 진흥원</w>
미 투</w>
명 예
림 에</w>
두 의</w>
도 로가</w>
결 정</w>
개 소에</w>
▁형성 하고</w>
▁형 태</w>
▁허익 범</w>
▁폭로 한</w>
▁팀 장은</w>
▁티 브
▁틀 어
▁투자 자가</w>
▁코 트
▁커 버</w>
▁치 닫
▁취 하여야</w>
▁충돌 이</w>
▁추가 해</w>
▁최 씨가</w>
▁차지 해</w>
▁차지 하며</w>
▁차 관은</w>
▁짚 었다</w>
▁종 전의</w>
▁조 업
▁정도 만</w>
▁점 쳐
▁재 료로</w>
▁재 도
▁이 모</w>
▁의 장에게</w>
▁은 산분리</w>
▁윤 지
▁요 금은</w>
▁왜냐 면</w>
▁오후 부터</w>
▁옆 으로</w>
▁연 준이</w>
▁연 세
▁여 론</w>
▁업체 들은</w>
▁아시아 의</w>
▁아니 며</w>
▁쓰러 진</w>
▁실패 했다</w>
▁실 적에</w>
▁신 제품을</w>
▁신 제품
▁신 비
▁스마트폰 이</w>
▁수사 하는</w>
▁소 재가</w>
▁색깔 을</w>
▁살아 온</w>
▁살 린</w>
▁사업 자는</w>
▁사람 에게는</w>
▁사과 했다</w>
▁블라디보 스토
▁분 데스
▁보호 에</w>
▁보고 하고</w>
▁보 상이</w>
▁발생 합니다</w>
▁반 품
▁무소 속</w>
▁목 사의</w>
▁떨어 지
▁딸 기</w>
▁들 썩
▁동아 시아</w>
▁도와 드리겠습니다</w>
▁대 진
▁당선 된</w>
▁내놓 지</w>
▁김 순
▁기업 체</w>
▁기본 계획을</w>
▁권 력</w>
▁군 인</w>
▁국민연 금의</w>
▁광 산
▁관광객 의</w>
▁고 가의</w>
▁경기도 의
▁경 복
▁결혼 식을</w>
▁가능 해진다</w>
▁가능 해졌다</w>
▁O ST</w>
E F</w>
합 이</w>
푸 드
진 에게</w>
제 도는</w>
자 금이</w>
위원 장과</w>
십 을</w>
쇼 를</w>
세 에서</w>
상공회의 소</w>
베트 남</w>
법 인
배 의</w>
모 는</w>
만원 씩</w>
만 개</w>
린 이</w>
때 로</w>
돼 지
극 장</w>
고 양
가 다</w>
▁회의 록
▁활용 을</w>
▁환 자에게</w>
▁화장 실을</w>
▁피 자</w>
▁틀 림
▁태풍 의</w>
▁타 야</w>
▁칼 럼
▁카메라 에</w>
▁추 는</w>
▁최 순
▁청 원이</w>
▁준 공</w>
▁주 방</w>
▁정 답
▁전쟁 의</w>
▁전당 대회</w>
▁잘 할</w>
▁입 지가</w>
▁일본 에서는</w>
▁일 이에요</w>
▁일 깨
▁인명피해 는</w>
▁이전 에는</w>
▁이 슈</w>
▁의뢰 한</w>
▁의결 로</w>
▁원 정</w>
▁원 리
▁완료 한</w>
▁영 역이</w>
▁열 흘</w>
▁어머니 를</w>
▁양 주</w>
▁야 당
▁아내 를</w>
▁식 당은</w>
▁스토 리</w>
▁수 소</w>
▁소홀 히</w>
▁세 분
▁성 능</w>
▁선출 된</w>
▁선고 됐다</w>
▁선거 법</w>
▁서포 터
▁사업 장에</w>
▁비판 도</w>
▁불합 리한</w>
▁봐 서</w>
▁보호 와</w>
▁보험 금</w>
▁무시 하고</w>
▁모아 진다</w>
▁머 물</w>
▁맺 었다</w>
▁따 돌
▁돼지 고기</w>
▁동남 아시아</w>
▁도 박
▁대통령 과의</w>
▁대 하는</w>
▁꿈 에</w>
▁극 장에서</w>
▁국 산
▁교 과</w>
▁가족 들은</w>
▁가져 가
▁가능 하면</w>
▁가 보고</w>
▁가 던</w>
▁I S
a v
T R
G O</w>
협 회
해 드릴게요</w>
피 해를</w>
특 수
투자 증
킥 을</w>
커 뮤니
조 사와</w>
있 어요</w>
임 용
이 신가요</w>
운 전</w>
오 픈</w>
았 으면</w>
안 정을</w>
아 몬
씨 도</w>
신 속
수 원
사이 버
봐 요</w>
버 닝
문 제에</w>
리 어</w>
락 에</w>
동 향</w>
대 급</w>
단 계로</w>
년 제</w>
너 는</w>
기간 으로</w>
골 의</w>
겼 던</w>
개월 의</w>
강 과</w>
▁확인 하지</w>
▁확 연히</w>
▁확 고
▁협약 은</w>
▁할인 된</w>
▁할머니 는</w>
▁한 지
▁피 가</w>
▁편 입니다</w>
▁판단 된다</w>
▁트 랜
▁탄 소
▁타이 어</w>
▁친 척
▁축 복
▁추천 할</w>
▁총 동
▁첫 날인</w>
▁첨부 파
▁진입 을</w>
▁진 화</w>
▁지향 하는</w>
▁지급 하고</w>
▁중단 하고</w>
▁주요 한</w>
▁주 위에</w>
▁조 지</w>
▁점유 율을</w>
▁전파 를</w>
▁잠재 력을</w>
▁자녀 들이</w>
▁자기소 개
▁임명 된</w>
▁인 위
▁유 난히</w>
▁위 를</w>
▁우즈 벡</w>
▁우 우</w>
▁요 리가</w>
▁예산 안을</w>
▁예 치
▁예 멘
▁열 기로</w>
▁여자친 구가</w>
▁압 축
▁알려 주시기</w>
▁아버 지와</w>
▁아 트</w>
▁아 미
▁싣 고</w>
▁시상 식에서</w>
▁시간 대에</w>
▁시각 을</w>
▁승용 차가</w>
▁순간 이</w>
▁수 분</w>
▁수 만</w>
▁소통 할</w>
▁소집 한다</w>
▁세 로</w>
▁성 분
▁생태 계가</w>
▁상품 과</w>
▁상 대를</w>
▁삼 각
▁사우스 차이나모닝
▁사 장을</w>
▁불안 정
▁부모 님의</w>
▁보 기에는</w>
▁베를 린</w>
▁반 가운</w>
▁뭔 가요</w>
▁무 색
▁머물 렀
▁말 입니다</w>
▁마지막 에</w>
▁마라 톤</w>
▁동 력이</w>
▁대형 마트</w>
▁대법 관이</w>
▁대구 시
▁누구 인지</w>
▁논의 될</w>
▁남 의</w>
▁깊 다</w>
▁기준 금리를</w>
▁기아 차</w>
▁기 운이</w>
▁기 리는</w>
▁공론 화
▁공 장에</w>
▁경제협력 개발기구</w>
▁가 담
▁7 000</w>
T R</w>
협동 조합</w>
협 회와</w>
하였 다고</w>
하기 보다는</w>
카 운
지 방</w>
자 입니다</w>
인천 광역시
사 와의</w>
사 각
부동 산</w>
봅 시다</w>
병 원의</w>
명 주
메 라
랭 킹</w>
등 과</w>
동 계
대 요</w>
대 구
네 마</w>
구역 에</w>
경찰 이</w>
갔 고</w>
갈 지</w>
가 루</w>
▁훈련 이</w>
▁파악 하기</w>
▁특수 활동
▁트럼 프의</w>
▁테이블 에</w>
▁캐나다 에서</w>
▁카 라
▁책임 지고</w>
▁참석 하지</w>
▁지금 까지는</w>
▁증 시에</w>
▁제 고</w>
▁정치 적으로</w>
▁정 원을</w>
▁전 할</w>
▁적정 성</w>
▁장 하성</w>
▁작성 해</w>
▁자동차 의</w>
▁자 처
▁인사 말을</w>
▁이 코노
▁의견 으로</w>
▁유 상
▁원 칙</w>
▁원 가
▁외국 에서</w>
▁예 선을</w>
▁연구 원</w>
▁알려주 실</w>
▁알려 지자</w>
▁안 건이</w>
▁씨 앗
▁시청 자들을</w>
▁슬 프
▁스스 로가</w>
▁손 길이</w>
▁소유 하고</w>
▁소식 통은</w>
▁서울중앙지 검
▁생 긴
▁산 입
▁블로 그</w>
▁붙 인</w>
▁불공 정</w>
▁복 숭
▁보 기에</w>
▁베트남 은</w>
▁번 호가</w>
▁백 신</w>
▁발표 하면서</w>
▁박 항서</w>
▁박 씨가</w>
▁모으 는</w>
▁매 체를</w>
▁매 매</w>
▁마을 공동체</w>
▁류현 진은</w>
▁딱 히</w>
▁단 장</w>
▁농 경
▁기자 들에게</w>
▁구성 원</w>
▁교 복을</w>
▁관람 할</w>
▁공격 에</w>
▁경기도농업기술 원</w>
▁격 리
▁거 치
▁N N</w>
▁L PG</w>
▁J Y
▁1 200</w>
iv e</w>
홍 보</w>
플 랜
철 의</w>
착 륙
종 인</w>
음 식</w>
어 가는</w>
식 도</w>
사 건의</w>
부 담</w>
바 가</w>
미술 관</w>
메 르
드 레
노 동</w>
과 장에게</w>
공동 모금
계획 과</w>
경 북</w>
결 한</w>
▁후보 에</w>
▁해결 되지</w>
▁한반 도를</w>
▁학부모 들의</w>
▁프로그램 과</w>
▁표현 했다</w>
▁폐 지를</w>
▁판 사가</w>
▁트위 터를</w>
▁탔 다</w>
▁치열 하게</w>
▁추진 해야</w>
▁체결 하여야</w>
▁찾아 보
▁줄 게요</w>
▁주 지
▁제출 하지</w>
▁제 천</w>
▁접 속</w>
▁적 발</w>
▁재무 제
▁일방 적인</w>
▁이 통
▁이 들과</w>
▁의 상을</w>
▁유지 했다</w>
▁운영 하며</w>
▁요즘 에는</w>
▁오페 라</w>
▁안전 성을</w>
▁쌍용 차</w>
▁심 어
▁시행 되는</w>
▁시청 자들이</w>
▁시 정을</w>
▁스스 로를</w>
▁스 케이
▁수행 에</w>
▁수입 증
▁수영 장</w>
▁성실 하게</w>
▁성 탄
▁설문 조사를</w>
▁방법 이다</w>
▁발표 될</w>
▁반영 하여</w>
▁면 을</w>
▁리버 풀
▁리 스트</w>
▁롯데 백화점</w>
▁랭 킹</w>
▁때문 이야</w>
▁딸 은</w>
▁등 지에서</w>
▁도로 의</w>
▁도 발
▁데이 트
▁더 해
▁남 용
▁끼 치는</w>
▁끔찍 한</w>
▁깔끔 한</w>
▁까다 로운</w>
▁김 보
▁기관 으로</w>
▁급여 를</w>
▁급 성장
▁궁금 해요</w>
▁관계 공무원</w>
▁고 공
▁경기 지사가</w>
▁결혼 식</w>
▁강화 한</w>
▁198 6</w>
L B</w>
F A
해주 시고</w>
풍 과</w>
페이 스
페스티 벌</w>
코 는</w>
캐피 탈
초 부터</w>
체 에서</w>
지 수는</w>
자 리가</w>
아 메
심사 위원회</w>
신 청이</w>
신 다고</w>
생 들은</w>
본부 장이</w>
별 이</w>
밖 의</w>
목 과</w>
립 을</w>
당 사
달러 로</w>
농 산
기업 들의</w>
그 리
구 호
과 세</w>
과 거
▁후 생
▁황 해
▁환경 의</w>
▁환 기
▁행 진을</w>
▁해촉 할</w>
▁하여 서는</w>
▁폭 력을</w>
▁투 여
▁통 제</w>
▁태 운</w>
▁캘리포 니아</w>
▁카 드가</w>
▁체포 된</w>
▁차 장이</w>
▁직면 한</w>
▁지역 적</w>
▁지방 에</w>
▁중 학생</w>
▁재 료가</w>
▁재 단의</w>
▁작성 된</w>
▁자료 로</w>
▁자 문에</w>
▁이 색
▁읍 읍</w>
▁위 치는</w>
▁월드컵 에서</w>
▁운영 될</w>
▁외부 에서</w>
▁온 열
▁온 도를</w>
▁오 름
▁예상 한다</w>
▁예상 돼</w>
▁연 령</w>
▁여 주</w>
▁에 릭
▁엉 뚱
▁언 덕
▁압 수
▁안 무
▁아시 나요</w>
▁시즌 이</w>
▁수립 할</w>
▁수 거</w>
▁소 문
▁세 력
▁선 에서</w>
▁상대 방의</w>
▁사 퇴</w>
▁분 은</w>
▁부 시</w>
▁보고 한</w>
▁모양 이</w>
▁모멘 텀
▁맞 은
▁마을 에서</w>
▁마련 될</w>
▁리모델 링
▁라이 온
▁등 극
▁득 점을</w>
▁드러 난다</w>
▁둘 째
▁돌 보
▁도모 하고</w>
▁도 정</w>
▁도 둑
▁대다 수가</w>
▁다운 로드</w>
▁다 쳐</w>
▁눈높 이에</w>
▁노출 된</w>
▁넘어 섰
▁낮 춰
▁기재 한</w>
▁기 온</w>
▁기 기를</w>
▁글 쓰
▁교 원
▁관계 자들을</w>
▁과 장은</w>
▁곤 두
▁고려 인</w>
▁경제 협력</w>
▁경제 사회
▁경우 의</w>
▁경영 에</w>
▁경 각
▁것 일</w>
▁가 성
V P</w>
홀딩 스</w>
티 의</w>
테 마
총 회를</w>
천 억원</w>
창 작
진 단
지 정</w>
정 신을</w>
점 용
자 라고</w>
인 도
완 전
오 니</w>
연 했다</w>
역 량</w>
안 도</w>
술 이</w>
솔 루
생 물
분 쟁
부 지</w>
디지 털
드 려</w>
년 차</w>
냈 고</w>
곡 동</w>
개 인</w>
가 스를</w>
▁힘들 다는</w>
▁획 기적인</w>
▁확대 됐다</w>
▁협력 체계를</w>
▁혐의 는</w>
▁해결 책을</w>
▁한 숨
▁폐 업
▁통 지를</w>
▁털어 놓
▁클 라
▁캐스 팅
▁칼 을</w>
▁침 수</w>
▁치명 적인</w>
▁총 회</w>
▁초과 한</w>
▁창업 에</w>
▁찍 힌</w>
▁집 의</w>
▁질 환을</w>
▁지원 했다</w>
▁지방선거 에서</w>
▁주말 을</w>
▁주 주</w>
▁주 머니
▁제 반</w>
▁정규 직으로</w>
▁접촉 을</w>
▁전기 요금</w>
▁재 개발
▁장 담
▁있 는데다</w>
▁인정 받
▁인 류의</w>
▁인 구는</w>
▁유지 될</w>
▁유 학생</w>
▁유 아</w>
▁요청 하고</w>
▁온 도
▁연 초</w>
▁여의 도
▁알 았어</w>
▁아랍에미 리트</w>
▁신분 증을</w>
▁소비 자들에게</w>
▁센터 에</w>
▁성장 률이</w>
▁설명 한</w>
▁상황 이라</w>
▁삼성 화
▁사진 도</w>
▁사업 장
▁사 직
▁사 적</w>
▁불 허
▁분야 에서는</w>
▁부 검
▁보 보</w>
▁법 규
▁발걸 음을</w>
▁바른미래 당이</w>
▁무더 위가</w>
▁모습 이었다</w>
▁만드 는데</w>
▁막 힌</w>
▁떨어 진다</w>
▁들어서 고</w>
▁데려 다
▁대만 에서</w>
▁당신 께</w>
▁당국 자는</w>
▁답 한</w>
▁달성 했다</w>
▁높 지만</w>
▁내 신
▁극 적인</w>
▁그리 스</w>
▁권 한</w>
▁국무총 리</w>
▁국 유
▁구 실을</w>
▁교 회에서</w>
▁광주 의</w>
▁관 세가</w>
▁계양 구</w>
▁개인 투자
▁개인 적</w>
▁갖 췄다</w>
▁강 하고</w>
▁감 찰
▁간 이</w>
▁가깝 게</w>
▁가 지의</w>
▁C on
E R
활동 의</w>
합창 단</w>
하는 가</w>
하 고있다</w>
주시 겠습니까</w>
이 야
예 비
아 직</w>
수도 권</w>
세 기에</w>
선 정
분 에서</w>
듯 한</w>
더 는</w>
능력 개발
년 도에</w>
나 이</w>
기 원</w>
관리 관은</w>
관계 자는</w>
경제 자유구역
겼 다는</w>
격 한</w>
▁흡 연</w>
▁환 율이</w>
▁화 상을</w>
▁학 과</w>
▁필요 성에</w>
▁품 은</w>
▁포르투 갈
▁평택 항</w>
▁특 감
▁터 진</w>
▁첨 부한</w>
▁차례 만</w>
▁지정 해</w>
▁지난해 와</w>
▁즐겁 고</w>
▁주민 들과</w>
▁정착 을</w>
▁전화 해서</w>
▁전 의</w>
▁재 산이</w>
▁자리 한</w>
▁잃 었다</w>
▁일 이라고</w>
▁인상 적인</w>
▁이 르고</w>
▁의 사의</w>
▁의 병
▁유 영
▁원 재
▁울 려</w>
▁운전 기
▁역할 과</w>
▁양 재
▁아메 리카
▁아 팠
▁실시 된다</w>
▁실 천</w>
▁신 화
▁승 리로</w>
▁스마트폰 에</w>
▁수사 관이</w>
▁수 호
▁성 향이</w>
▁생각 과</w>
▁상 해
▁삼 은</w>
▁삼 는</w>
▁사태 로</w>
▁사용 하게</w>
▁북미정상회담 을</w>
▁부진 으로</w>
▁방 범
▁발전 하는</w>
▁문재인 정부</w>
▁무역전쟁 의</w>
▁면 담을</w>
▁멈 춰</w>
▁말씀 해주세요</w>
▁마 다</w>
▁때 때로</w>
▁등 기
▁동 점
▁돌 보는</w>
▁당신 한테</w>
▁달러 에</w>
▁단 거리</w>
▁다 쳤다</w>
▁높 이가</w>
▁농업 인</w>
▁노래 와</w>
▁끼 칠</w>
▁김 씨를</w>
▁기대 와</w>
▁기 차를</w>
▁기 금은</w>
▁그러 고</w>
▁귀 농
▁구 원
▁골 라
▁고위 급
▁고 통</w>
▁고 쳐
▁계 란
▁겨울 이</w>
▁간 혹</w>
▁가 수의</w>
’ )</w>
A IST</w>
항 으로</w>
피 니
제 출</w>
제 안</w>
전 화</w>
인 프라
이 네</w>
용 품을</w>
요 금이</w>
영 장
신 데</w>
생활 이</w>
상담 을</w>
망 의</w>
로 우
디 를</w>
더 라면</w>
댄 스</w>
대 강</w>
기술 과</w>
계획 서를</w>
검 사가</w>
개월 에</w>
▁흔 적을</w>
▁휩싸 인</w>
▁훔 친</w>
▁확산 되는</w>
▁헷 갈
▁허 물
▁하 차
▁필요 했다</w>
▁포함 해서</w>
▁테마 로</w>
▁추 궁
▁책 으로</w>
▁창출 하는</w>
▁차별 을</w>
▁증권 거래
▁준공 영
▁주택 의</w>
▁주 인</w>
▁죄송 해요</w>
▁정준 영</w>
▁정부서울 청사에서</w>
▁정 진
▁정 거
▁전통 적으로</w>
▁적 자를</w>
▁작 가와</w>
▁자금 조
▁인정 받고</w>
▁인 권을</w>
▁이 력이</w>
▁이 노
▁의미 에서</w>
▁은행 들이</w>
▁원내대표 의</w>
▁예 선</w>
▁영 암</w>
▁연 면적</w>
▁어린 이를</w>
▁얇 은</w>
▁않 아야</w>
▁악 재가</w>
▁아시 안</w>
▁아니 더라도</w>
▁아 산
▁싱가포르 에</w>
▁시행 규칙
▁시간 으로</w>
▁시간 에는</w>
▁수석 부
▁수립 을</w>
▁수 화
▁세 인
▁성격 의</w>
▁설 레
▁생활 폐기
▁생산 에</w>
▁생산 되는</w>
▁생 명과</w>
▁뽐 냈다</w>
▁비치 하고</w>
▁비 중</w>
▁분 할</w>
▁분 당</w>
▁부 위를</w>
▁보 청
▁믿 음을</w>
▁문 구를</w>
▁무 실
▁몸 으로</w>
▁몸 무
▁모 양</w>
▁말 하자면</w>
▁리더 십</w>
▁라 스
▁도착 해서</w>
▁도 의원</w>
▁당 선</w>
▁노 년
▁나오 는데</w>
▁기 한</w>
▁금호 아시아
▁그것 들은</w>
▁국 빈
▁관리 한다</w>
▁공감 하는</w>
▁고려 하고</w>
▁고 른</w>
▁결과 와</w>
▁감 각을</w>
▁가르 치고</w>
▁가 구에</w>
▁t he</w>
▁19 45</w>
향 은</w>
행 동
필 드</w>
측 정
은 행을</w>
운 반
오 자</w>
연 하게</w>
사 단</w>
사 건을</w>
보건 환경
문 제로</w>
들 지</w>
도 미사일</w>
더불어민주 당</w>
대 체
기 한을</w>
공 장을</w>
결 과
개월 을</w>
▁활성화 하기</w>
▁혜 택</w>
▁포트폴 리오
▁포 스터
▁태 도</w>
▁커 진다</w>
▁커 넥
▁추진 되고</w>
▁추 모</w>
▁참여 와</w>
▁차량 으로</w>
▁지 점에</w>
▁좋 겠다는</w>
▁전환 하는</w>
▁전 시가</w>
▁재 능이</w>
▁일 환
▁인문 학</w>
▁인 체에</w>
▁이어 가
▁이야 기에</w>
▁응 원을</w>
▁음악 적</w>
▁유 형</w>
▁와이파 이</w>
▁올 리면</w>
▁오피 스</w>
▁오 전까지</w>
▁오 승
▁오 거
▁영향 력</w>
▁에 드
▁양 측의</w>
▁애 널
▁알려 드리겠습니다</w>
▁안 되는</w>
▁아내 와</w>
▁실천 하는</w>
▁시 인</w>
▁스 쿨
▁수치 다</w>
▁쇼 케이
▁소재 의</w>
▁소방 서
▁소 식은</w>
▁센 터가</w>
▁성장 해</w>
▁석 탑
▁살아 야</w>
▁사이 에는</w>
▁사업 계획</w>
▁북미정상회담 이</w>
▁북 적
▁북 방
▁부합 하는</w>
▁부 서를</w>
▁복 수
▁보 였고</w>
▁변 동</w>
▁받아 온</w>
▁므 누
▁마 중
▁드라마 와</w>
▁동 기
▁대 웅
▁대 림
▁단 원</w>
▁누 르고</w>
▁논의 에</w>
▁논란 과</w>
▁넘어 가는</w>
▁내 며</w>
▁기 탁
▁그만 두
▁그것 의</w>
▁공인중 개사</w>
▁공시 가격이</w>
▁공 세를</w>
▁고 인의</w>
▁고 독
▁경기도 에서는</w>
▁것 이지만</w>
▁검출 된</w>
▁거 버넌
▁거 리는</w>
▁개최 했다고</w>
▁가게 를</w>
▁EX O</w>
o m</w>
a m</w>
U AE</w>
회 사에</w>
한테 는</w>
팀 장은</w>
진 들이</w>
지 표</w>
전 망
인 천</w>
으로 까지</w>
위 반</w>
오 의</w>
승 의</w>
소 리
본 부와</w>
법 인의</w>
방송 을</w>
명 인</w>
당 했다</w>
경 정
거래 를</w>
▁흔들 리는</w>
▁후 원을</w>
▁회 고
▁행사 할</w>
▁하락 세가</w>
▁하나 이다</w>
▁포기 하고</w>
▁포 부를</w>
▁타이틀 곡</w>
▁출전 해</w>
▁초 빙
▁참 전
▁쫄 깃
▁지방 세
▁주택 이</w>
▁주 당</w>
▁조 상
▁잠 깐
▁자 릿
▁임 기를</w>
▁일으키 고</w>
▁이 서
▁의혹 의</w>
▁응급 처
▁유치 원
▁월 등
▁영향 에</w>
▁열 렸던</w>
▁연 합</w>
▁어머니 와</w>
▁약 물
▁앤 앤</w>
▁압수수 색을</w>
▁암호화폐 를</w>
▁안 개가</w>
▁쌀 쌀
▁심 경을</w>
▁신청 서</w>
▁신 약
▁시작 합니다</w>
▁시작 하기</w>
▁시작 되자</w>
▁시드 니
▁시 티</w>
▁솔 릭
▁소상공 인의</w>
▁설명 회</w>
▁선제 적으로</w>
▁선 순환</w>
▁서 산</w>
▁분 배
▁부모 님께</w>
▁보이스피 싱</w>
▁보내 기</w>
▁보 트
▁변 하는</w>
▁배 드민
▁발견 되지</w>
▁반환 하여야</w>
▁반영 하고</w>
▁반 찬
▁바 를</w>
▁물 어</w>
▁묶 어</w>
▁마련 이다</w>
▁마 닐
▁띄 었다</w>
▁돋보 인다</w>
▁더 이상</w>
▁대 금을</w>
▁대 가를</w>
▁달리 던</w>
▁단 연</w>
▁농 협</w>
▁내 건</w>
▁나 뭇
▁근육 이</w>
▁국제 통화
▁구축 한</w>
▁구 호를</w>
▁관측 이다</w>
▁공정 성을</w>
▁공 약을</w>
▁계획 대로</w>
▁경쟁 률이</w>
▁거부 하는</w>
▁P O</w>
▁D B</w>
▁A S
L S</w>
태 에</w>
창 이</w>
주택 의</w>
이 야말로</w>
였 다면</w>
연합 회가</w>
안 정</w>
씩 을</w>
사 유
바 른
러 리</w>
년 생</w>
감 정
▁회의 실에서</w>
▁확 진
▁화장 실이</w>
▁함께 했다</w>
▁하나 하나</w>
▁피 를</w>
▁판매 된</w>
▁파이 낸
▁콜 로
▁컨 벤션
▁취 재</w>
▁출신 이</w>
▁출시 했다</w>
▁추천 하고</w>
▁초 음
▁첫 번째</w>
▁창출 할</w>
▁짚 어
▁지 리적</w>
▁증 인</w>
▁종 목을</w>
▁조 인
▁전문 가는</w>
▁재정 적</w>
▁자격 으로</w>
▁이슈 에</w>
▁의혹 도</w>
▁의 향이</w>
▁위해서 라도</w>
▁외국 에</w>
▁외국 계</w>
▁올해 가</w>
▁오래 전부터</w>
▁오 셔서</w>
▁연 주를</w>
▁여성 에게</w>
▁여 고
▁어떨 까</w>
▁양 식을</w>
▁양 상을</w>
▁압도 적으로</w>
▁안타깝 게도</w>
▁아이스크 림</w>
▁아이 와</w>
▁아 가
▁심 의가</w>
▁신 호가</w>
▁승 진</w>
▁수소 차</w>
▁수 량</w>
▁소 수의</w>
▁세워 져</w>
▁세 심한</w>
▁선 호</w>
▁상 권</w>
▁살 게</w>
▁사 료
▁비 수
▁부모 들이</w>
▁부담 은</w>
▁부 스</w>
▁본 관</w>
▁보 였지만</w>
▁변경 하고자</w>
▁범죄 에</w>
▁무 겁
▁맹 활
▁마찬가 지다</w>
▁마련 하여</w>
▁때문 일</w>
▁때 나</w>
▁되 겠
▁동두 천
▁동 부</w>
▁덩 달아</w>
▁노트 북</w>
▁너 희가</w>
▁기대 되고</w>
▁기 동
▁급증 했다</w>
▁급증 한</w>
▁금 품</w>
▁그룹 을</w>
▁규제 개혁
▁공정거래 법</w>
▁공무 원에</w>
▁고백 했다</w>
▁고 질
▁고 작</w>
▁계약 서</w>
▁경 향을</w>
▁거듭 나
▁가 량의</w>
▁K O
T T</w>
E FA</w>
D MZ</w>
확 대</w>
해 줘서</w>
하기 엔</w>
플랫 폼</w>
편 은</w>
패 션
컴 퓨
처 리가</w>
차 에서</w>
지방 공무원</w>
중 간</w>
작 가
의 와</w>
월 부터는</w>
언 은</w>
아 산
신 탁
스 페
물 품
대표 이사</w>
대 병원</w>
[...]
