#version: 0.2
h e</w>
i n
▁t he</w>
t i
e r
e n
e d</w>
a n
o n
a ▁
o r
o n</w>
▁o f</w>
a r
t ▁
e ▁
in g</w>
n d</w>
o u
e r</w>
o ▁
i ▁
e s
▁t o</w>
▁t h
e a
e s</w>
e c
i t
r o
i c
▁a nd</w>
o s
a l</w>
a ti
i s
i l
o r</w>
▁i n</w>
- @</w>
t h
o m
a l
e l
a t
a t</w>
@ -@</w>
u r
en t</w>
q u
a n</w>
▁i s</w>
t he</w>
a s</w>
t r
t s</w>
e n</w>
e m
p os
o t
c e</w>
o l
u s
v e</w>
t▁ he</w>
▁i n
a s
▁w h
a c
ati on</w>
l y</w>
i s</w>
i d
▁th at</w>
r e
n g</w>
▁ e</w>
i r
▁T he</w>
ot ;</w>
l e</w>
u c
i n</w>
t h</w>
i g
u l
r e</w>
u ▁
c h
▁f or</w>
pos ;
p ▁
an d</w>
a m
& a▁
▁o n</w>
ti on</w>
v er
e t
er e</w>
▁p ro
f f
s ▁
a g
qu ot;</w>
a y</w>
u n
r ▁
▁a s</w>
o f</w>
p l
it h</w>
▁i t</w>
i m
▁c on
t o</w>
▁b e</w>
t ed</w>
er s</w>
o o
▁r e
t er</w>
h ▁
&a▁ pos;
a▁ nd</w>
▁b y</w>
r es
o c
▁e x
u t</w>
o p
w ▁
▁s h
m ent</w>
il l</w>
o t</w>
▁c om
u d
o u</w>
s t
▁w ith</w>
i on</w>
s e</w>
▁h a
▁s t
▁w as</w>
o w
p or
a b
r i
it y</w>
e t</w>
c ▁
a d
on g</w>
▁a re</w>
e v
ou n
a p
p er
on s</w>
f ▁
l ▁
r ea
i c</w>
e▁ n
d ▁
s t</w>
t er
i▁ ng</w>
in ▁
at e</w>
al l</w>
i ti
▁w ill</w>
▁a l
u m
l d</w>
i t</w>
i d</w>
on g
a k
d uc
▁a t</w>
▁K or
& quot;</w>
ro m</w>
▁c h
a y
▁y ou</w>
f or
i v
e x
e e</w>
ic e</w>
▁th e
t y</w>
u b
m ▁
c i
▁T h
e a</w>
an ▁
▁, ,</w>
o w</w>
e d
ti ▁
e ar
c h</w>
c on
▁ s</w>
▁b e
&a▁pos; s</w>
i z
an g
th ▁
b ▁
▁ha ve</w>
p ro
ic h</w>
t ur
n ▁
y e
▁f rom</w>
ea r</w>
o ver
r ou
d s</w>
e p
s i
en ts</w>
p ec
i es</w>
e g
en ▁
▁r es
i m</w>
▁h as</w>
▁u n
on al</w>
u e</w>
c om
a r</w>
th er</w>
▁a c
▁p l
▁a n</w>
c l
d ing</w>
ar y</w>
en t
ig h
a t▁
i r</w>
▁I n</w>
e▁ r
▁p ar
▁C h
▁n ot</w>
a in
es s</w>
▁I t</w>
▁wh ich</w>
an ce</w>
t ing</w>
an t</w>
▁t r
& a
▁th is</w>
l l</w>
o▁ n</w>
t e</w>
▁p er
▁e n
s o</w>
▁w or
g ▁
d er</w>
o v
ou t</w>
es t</w>
▁o n
a id</w>
over n
th ▁e</w>
& ▁
e▁n t</w>
▁o r</w>
i al</w>
g h</w>
at ed</w>
g e</w>
▁ ed</w>
u p
▁wh o</w>
a▁ r
▁c an</w>
ff ic
▁com p
ag e</w>
▁a n
ou ld</w>
w i▁
▁( (</w>
uc h</w>
▁d is
o▁ n
or e</w>
▁a b
w h
ati ▁
ea n</w>
es s
▁ u
e w</w>
s s
im e</w>
il l
ar e</w>
i f
▁sh all</w>
▁b ut</w>
▁& quot;</w>
e l</w>
o▁ r
▁Kor ea</w>
em ent</w>
a▁ n
f ter</w>
on ▁
e▁ d</w>
ou r
s h
an y</w>
ti c
▁r ec
a us
in is
ea d</w>
r e▁
o g
▁a d
▁& qu
ol l
em b
o t▁
i▁ n
t en
▁a p
ye ong
▁ t</w>
u ng</w>
in ce</w>
i b
a in</w>
▁i m
k e</w>
as t</w>
ea s
u t
ou r</w>
i t▁
o▁ t
an g</w>
en ce</w>
ou s</w>
e y</w>
in g
tr y</w>
e m</w>
ak e</w>
▁th ere</w>
▁w ere</w>
▁h e</w>
ou ▁
▁f ir
op le</w>
▁W h
er v
am e</w>
ar ▁
f▁ or</w>
m e</w>
o d
u n</w>
o▁t ;</w>
k s</w>
▁c l
f or</w>
▁t ime</w>
e ople</w>
▁b ec
es ti
- ▁
▁be en</w>
▁y ear</w>
▁e v
om e</w>
▁a g
-▁ @</w>
& qu
0 0</w>
por t</w>
a m</w>
ec t</w>
in e</w>
el y</w>
p r
in▁ g</w>
cl ud
p▁ os
g i</w>
; s</w>
▁f or
k ing</w>
ati▁ on</w>
▁o r
oo d</w>
▁i f</w>
or ▁
▁I n
tur e</w>
e f
ot▁ ;</w>
aus e</w>
ub l
pos ▁
s tr
▁s aid</w>
an d
a f
▁al so</w>
@ -▁@</w>
a d</w>
▁Kor ean</w>
s ed</w>
al ly</w>
▁r el
a ir
t▁ o</w>
th▁ at</w>
iti es</w>
al l
ro v
igh t</w>
▁s o</w>
for m
b e</w>
a v
▁s uch</w>
ati ons</w>
ar d</w>
▁wh en</w>
ati onal</w>
id e</w>
q ▁u
▁p r
▁d o</w>
▁the y</w>
o▁ f</w>
▁the ir</w>
o m</w>
▁a fter</w>
▁p eople</w>
on e</w>
e▁ s</w>
w▁ h
▁m ore</w>
i ve</w>
e en</w>
a e</w>
or s</w>
res id
om m
p ar
▁K im</w>
▁con t
an▁ d</w>
e e
en c
o b
@ ▁
ad e</w>
u l</w>
u m</w>
ur e</w>
e▁ c
@▁ -@</w>
an c
o▁ s
▁ ot;</w>
▁a t
b y</w>
e▁ r</w>
ti v
y ▁
t▁ h
an s</w>
c or
o on</w>
▁th an</w>
il e</w>
▁ab out</w>
pos ;</w>
▁p re
o o</w>
▁S e
a ce</w>
t u
ea l
er ▁
i ke</w>
▁G yeong
o in
ab le</w>
os t</w>
▁d i
i l</w>
u s</w>
▁2 0
it t
us t</w>
ar k
e a▁
▁& a
▁in v
d i
▁h ead</w>
el l</w>
▁m e
▁fir st</w>
ubl ic</w>
overn ment</w>
▁ es</w>
▁com m
▁f ac
C h
w o</w>
▁pro v
▁s tr
▁w e</w>
ar t
p en
an ag
▁Th is</w>
t▁ er</w>
pos; s</w>
▁o ut</w>
re e</w>
▁h is</w>
i▁ n</w>
d ed</w>
es e</w>
e w
n ing</w>
it h
ver s
▁a r
ay s</w>
al ▁
p res
▁m ay</w>
s ti
p ol
▁s ec
ev el
▁in clud
▁u p</w>
▁A c
an s
wi▁ th</w>
al s</w>
▁con s
▁m y</w>
▁s up
▁re g
l is
▁h el
ci al</w>
▁s ub
▁in ter
d us
▁m on
▁on e</w>
i ous</w>
m e▁nt</w>
t▁ ed</w>
s u
▁p ol
d er
es t
ig n
d is
ti▁ on</w>
▁bec ause</w>
i p
ig h</w>
c rea
▁e m
s ec
K or
▁Gyeong gi</w>
g h
▁pro duc
or y</w>
rou gh</w>
us in
&a p▁os
oo l</w>
▁o ffic
g r
▁s p
▁c oun
t or</w>
▁I f</w>
ur r
▁s ch
il ▁
or th</w>
as e</w>
it e</w>
b l
ou l</w>
o p</w>
o d</w>
ati ve</w>
i a</w>
e on</w>
b er</w>
ti ons</w>
oo k</w>
a▁ s</w>
▁i ts</w>
▁wh ere</w>
a ve</w>
w as</w>
S e
oc al</w>
ti ci
a il
ic al</w>
▁ h
▁al l</w>
ow n</w>
&▁ a
▁P ar
▁A s</w>
a w
▁ac c
▁m e</w>
s ing</w>
o y
ic ▁
▁per s
l ec
ill ion</w>
s ion</w>
▁ha d</w>
q▁u ot;</w>
▁o ther</w>
os e</w>
▁f in
▁g overnment</w>
▁G u</w>
ol d</w>
s u▁
▁q u
w▁ as</w>
▁st ud
▁@ -@</w>
d r
ear s</w>
m s</w>
k ed</w>
et w
pro v
e ed</w>
a▁ t</w>
▁d ue</w>
▁p os
y st
K ▁
ea se</w>
I n
por t
▁d ec
en d</w>
f r▁
▁a m
at ing</w>
p r▁
▁y our</w>
e b
r ec
▁o p
a▁ l
it s</w>
an n
▁W e</w>
u r</w>
e▁r s</w>
▁on ly</w>
ir ec
s es</w>
, 0
▁w on</w>
▁w ith
ti ve</w>
g an
f er
h ed</w>
▁p ublic</w>
▁l ea
▁o per
▁m emb
s i▁
a▁ re</w>
ri v
o▁ r</w>
▁Th ere</w>
in c
j u</w>
▁p ur
▁S t
▁includ ing</w>
ac k</w>
▁t wo</w>
th at</w>
▁th rough</w>
ing s</w>
ac h</w>
en ti
e▁ re</w>
ul t</w>
ou gh</w>
s t▁
b le</w>
ig n</w>
ul ar</w>
a i▁
i ed</w>
w▁h o</w>
▁U n
el l
r y</w>
i tion</w>
▁p res
▁l ast</w>
f ir
ar ge</w>
▁N orth</w>
ec h
tici p
e h
s pec
▁m at
p h
gan iz
f l
e ti
▁un der</w>
▁d ay</w>
evel op
▁in crea
enc y</w>
S .</w>
i▁ ty</w>
resid ent</w>
▁s m
j ect</w>
▁l ike</w>
itt ee</w>
in k</w>
▁P rov
S ▁
s el
ark et</w>
▁t ea
h e▁
r o▁
▁A r
i p</w>
▁f l
an ies</w>
▁w ould</w>
▁k n
wi▁ ll</w>
w h▁
m inis
et y</w>
2 0
sti tu
▁M inis
c er
en▁ t</w>
v er</w>
il ity</w>
▁d r
s s</w>
▁n um
v is
w ith</w>
t ly</w>
a▁ n</w>
ou th</w>
at es</w>
▁d es
▁n o</w>
cor ding</w>
en ter</w>
t ers</w>
o▁ ng</w>
▁n ew</w>
esti g
ter n
r el
&a▁ pos▁
▁m any</w>
ex t</w>
ol og
v ▁
ff er
▁20 1
il y</w>
ent ly</w>
it ed</w>
i▁ c
et ro
▁&qu o▁t;</w>
▁b u
i▁ ch</w>
id ed</w>
u g
▁Ch in
fr▁ om</w>
ff ice</w>
i▁ s</w>
tr ▁
com p
▁h igh</w>
en d
▁m anag
is t
▁Wh en</w>
v i
▁the m</w>
en er
▁s pec
▁ex pec
▁s erv
e ther</w>
i vers
b e▁
▁m ed
ow ing</w>
em s</w>
a▁ c
▁num ber</w>
▁ap p
d o</w>
ur ing</w>
▁d el
ti▁ ng</w>
w or
p on
▁sh ould</w>
a▁ ll</w>
k ▁
yst em</w>
usin ess</w>
ro w
ab lis
▁rec e
a▁ te</w>
un ▁
▁s c
v en
▁m ade</w>
o▁ m
u tion</w>
ang e</w>
▁s e
▁v is
ic ation</w>
is e</w>
ap o▁s
▁C omm
ec ▁
ar g
str uc
u p</w>
a▁ l</w>
if e</w>
duc ation</w>
e o
j ▁
for e</w>
. S.</w>
ec ess
iz ed</w>
etro pol
▁l ocal</w>
,0 00</w>
ac t</w>
ech n
d ay</w>
o▁n s</w>
w on</w>
ou nd</w>
ic es</w>
▁comp anies</w>
▁&qu ▁ot;</w>
▁L ee</w>
▁an n
us t
et ing</w>
▁y ears</w>
&ap▁os ;
ti f
m an</w>
p le</w>
▁in to</w>
m er</w>
▁g r
▁hel d</w>
rou nd</w>
▁com pl
▁Se oul</w>
l l
d in
ou s
i ons</w>
a w</w>
▁H e</w>
i▁ al</w>
▁c ar
ev er</w>
t▁ s</w>
con om
▁o ver</w>
▁comp any</w>
▁p h
as s
▁e st
ow er</w>
s c
ul tur
▁u se</w>
▁T r
etw een</w>
t ro
at er</w>
▁c r
r ap
f ac
an ts</w>
re a</w>
on d</w>
▁re qu
&a▁pos; ▁s</w>
minis tr
s p
c▁ h
oc i
▁t ake</w>
▁m ake</w>
▁pro c
▁v ar
▁r ea
&▁ qu
▁wor k</w>
er y</w>
▁b etween</w>
▁ch il
ti es</w>
s id
▁f oll
at▁ ion</w>
▁b as
▁d o
ver y</w>
em ▁
▁b l
▁ex per
is ▁
▁N ational</w>
ud g
▁ n
▁sup port</w>
s ur
o ve</w>
y ing</w>
er e
▁e ach</w>
gh t</w>
c oun
▁ap pl
▁th ink</w>
▁sch ool</w>
com m
▁m arket</w>
P rov
▁or der</w>
▁st ar
h a▁
el ec
▁P resident</w>
& q▁uot;</w>
er g
&a▁pos; ▁t</w>
a u
▁w ant</w>
▁memb ers</w>
u al</w>
▁ev en</w>
ecess ary</w>
in v
▁t er
▁in dus
i e
h▁ as</w>
▁par ticip
▁wh ile</w>
iz e</w>
s a▁
el ▁
es ▁
on▁ al</w>
▁d ep
▁b usiness</w>
▁d et
j ec
▁g o</w>
i▁ on</w>
▁s ince</w>
tic le</w>
&▁ quot;</w>
ou ng</w>
e ong</w>
▁Ac cording</w>
v ir
in d</w>
rou p</w>
▁Y ou</w>
▁s u
▁U .S.</w>
n ot</w>
m e
o▁ ut</w>
f r
ch ▁
▁inv estig
i▁ ce</w>
▁b r
pl ▁
▁pro m
▁at ten
il ities</w>
▁n ecessary</w>
h as</w>
c ed</w>
w ill</w>
&a pos;s</w>
l i
ol ▁
&▁a pos;</w>
ur es</w>
▁d on</w>
o l</w>
▁&a pos;s</w>
▁tr ans
en g
t▁ h</w>
wh i▁ch</w>
i als</w>
ay ing</w>
▁g et</w>
▁Prov ince</w>
▁d evelop
▁th ree</w>
▁e ar
▁be ing</w>
▁est ablis
m a▁
e▁ n</w>
at▁ ed</w>
1 ▁
▁J ap
d e</w>
▁s ystem</w>
▁f e
▁f am
▁c oll
u▁ r
▁g o
▁w ell</w>
▁g ood</w>
▁P l
▁res id
is t</w>
▁c rea
&qu o▁t;</w>
pl oy
▁s ome</w>
s e▁
▁Par k</w>
ap p
▁D o</w>
t a▁
i ence</w>
&qu ▁ot;</w>
▁in d
▁A l
b u
p re
▁S h
y ear</w>
▁e t
ou se</w>
▁pers on</w>
▁m a
l i▁
u ation</w>
▁a ss
am p
t a
ul ▁
o k</w>
tr ic
▁per form
e o</w>
▁expec ted</w>
▁&qu ot▁;</w>
▁pl ace</w>
si ble</w>
re g
w ay</w>
▁ al</w>
h er</w>
i▁ es</w>
▁c ould</w>
art ment</w>
▁Minis try</w>
▁i ss
e ed
▁a m</w>
eas on</w>
s he</w>
ak ing</w>
ati o▁n</w>
er m
▁r em
▁d irec
▁c as
▁an y</w>
form ation</w>
an cial</w>
▁s ur
▁ er</w>
▁b el
▁n ext</w>
d y</w>
▁pol ice</w>
▁1 0</w>
▁n eed</w>
▁m ov
▁E n
u▁ n
▁p oin
▁stud ents</w>
▁o ur</w>
▁bu il
Kor e▁
▁c ase</w>
tr ies</w>
e ts</w>
n am</w>
oun t</w>
an▁ ce</w>
al e</w>
i onal</w>
dr en</w>
b▁ ut</w>
▁h ea
▁manag ement</w>
p p
▁ac tiv
▁O n</w>
▁or ganiz
y e▁
▁var ious</w>
un g
o ther</w>
an k</w>
on▁ g</w>
ab ▁
m o▁
▁m ost</w>
▁e conom
▁) )</w>
i▁ t</w>
▁r a
ti me</w>
ain ed</w>
▁g u</w>
▁ex c
d iti
; t</w>
▁al l
▁d uring</w>
▁g u
▁offic ial</w>
▁c er
b e
▁be fore</w>
t e▁
▁s ame</w>
vir on
G yeong
en s</w>
▁pro bl
▁re por
om ▁
▁t a
▁Chin a</w>
h o▁
▁tea m</w>
p o▁s
▁c or
oo per
▁Ar ticle</w>
▁ann oun
emb er</w>
el d</w>
overn or</w>
n o▁
or t</w>
n ed</w>
▁a rea</w>
▁d ays</w>
s on</w>
our t</w>
th ing</w>
pr o▁
iv ing</w>
p▁ l
▁m in
▁F or
▁u sed</w>
▁h ow</w>
▁wh at</w>
r u
ff ▁
oc k</w>
sh ip</w>
d▁ er</w>
en▁ ts</w>
P ▁
i▁ s
ultur al</w>
tr ib
▁A t</w>
o or</w>
h▁ is</w>
i od</w>
p s</w>
as s</w>
▁cont in
&a▁pos; t</w>
▁S outh</w>
it al</w>
oc ial</w>
▁w r
p o▁r
t ac
olog y</w>
e ong
▁e l
▁m illion</w>
af t▁er</w>
▁e ff
air s</w>
m ents</w>
T he</w>
▁l ot</w>
op e</w>
ic y</w>
r ed</w>
▁n ow</w>
▁pro ject</w>
ain ing</w>
f rom</w>
ti o▁n</w>
▁C on
&qu ot▁;</w>
l e▁
us ▁
i um</w>
▁e lec
▁a s
h is</w>
ul ture</w>
un d
▁di ffer
o▁ ul</w>
C ▁
g u</w>
ch eon</w>
▁1 9
l es</w>
m is
th is</w>
▁s l
ic s</w>
▁di ffic
th er
o o▁
t ain</w>
▁s it
si ve</w>
K im</w>
▁ex pl
w n</w>
▁c urr
▁g ener
M ▁
ib er
A ▁
e x</w>
ivers ity</w>
▁me eting</w>
ac ▁
a▁r y</w>
o b</w>
s aid</w>
o k
▁con cer
y p
in▁ ce</w>
f ul</w>
ear ch</w>
m e▁
wh o</w>
f f</w>
▁a ff
▁v i
▁mon th</w>
▁A m
y ou</w>
iv ed</w>
▁par tic
&a▁pos▁ ;s</w>
▁res pon
▁C ity</w>
it an</w>
K or▁
▁wor ld</w>
▁t ri
m on
&a pos;</w>
c .</w>
▁l ong</w>
t ors</w>
▁“ “</w>
▁P ro
o ti
▁pl an</w>
ag rap
u▁ re</w>
▁con duc
▁kn ow</w>
▁h er</w>
od ay</w>
o w▁
c ri
▁A ss
an t
▁with out</w>
▁rel ated</w>
&a▁ po▁s
▁f i
sel f</w>
com e</w>
th e▁
l a▁
l ed</w>
▁d em
▁s al
id ent</w>
ow ed</w>
rou ▁
m y</w>
▁in formation</w>
is m</w>
&a▁pos; m</w>
em e▁nt</w>
is h
n▁ ot</w>
is h</w>
▁with in</w>
m ed</w>
ha▁ ve</w>
m ed
anc es</w>
r i▁
▁e ducation</w>
c o▁
▁w ee
s h▁
▁a round</w>
ev ▁
▁f u
▁sm all</w>
▁f r
▁foll owing</w>
ot al</w>
c c
y m
▁fac t</w>
en t▁
en tr
▁Comm ittee</w>
▁Pl ease</w>
om en</w>
w ang
e t▁
▁produc ts</w>
s▁ t
ic k
▁partic ular</w>
in d
▁ex p
f o▁r</w>
2 ▁
s an</w>
▁H y
▁sec ond</w>
▁serv ice</w>
t ment</w>
▁c ity</w>
k ers</w>
is ion</w>
▁l arge</w>
Se o▁ul</w>
a ir</w>
▁s ee</w>
it ing</w>
a▁ tion</w>
▁o ffice</w>
d u
ci l</w>
K▁ or
▁b o
al ity</w>
en se</w>
U n
th ough</w>
▁re f
f i▁
▁c o
▁g row
di tion</w>
h ave</w>
ow s</w>
▁o ut
▁j ust</w>
al y
▁ev ent</w>
l▁ y</w>
s erv
il it
L ▁
ab or</w>
overn me▁nt</w>
a e
▁r ight</w>
▁d id</w>
Kor▁ ea</w>
ati on
ent al</w>
▁Ac t</w>
por ts</w>
struc tion</w>
s up
▁ch ec
us e</w>
s▁ h
▁O r
m it</w>
▁resid ents</w>
h ere
▁pre v
▁b ro
eal th</w>
af ety</w>
▁pr ice</w>
▁m eas
d e▁
▁d e
for m</w>
um p</w>
ro w</w>
ac k
▁indus try</w>
▁m uch</w>
ul t
Kor ea</w>
e ign</w>
all ed</w>
ust om
▁h igh
& apo▁s
v en</w>
▁l ife</w>
▁f ood</w>
Kore▁ an</w>
b ut</w>
ea l</w>
as ▁
er ing</w>
ai▁ d</w>
s ide</w>
▁M oon</w>
▁spec ial</w>
s l
ur ▁
▁cons id
t▁h at</w>
iti z
▁coun try</w>
h y
i an</w>
s ung</w>
i k
ati on▁al</w>
▁s ti
▁cas es</w>
▁pro f
ea s</w>
a k</w>
ag es</w>
b ▁e</w>
l ine</w>
▁s ol
a p▁
re t
es ted</w>
▁be g
z e</w>
n e▁
y ung</w>
▁ p
▁t otal</w>
▁t echn
ac c
i or</w>
▁A n
▁m us
ee p</w>
▁e nd</w>
▁per iod</w>
o▁ l
▁fac ilities</w>
v ing</w>
iz ation</w>
im es</w>
▁increa se</w>
ar ds</w>
▁ter m</w>
o i</w>
at ely</w>
▁ma j
▁ th</w>
b een</w>
▁chil dren</w>
th s</w>
▁w ay</w>
th▁ er</w>
v es</w>
▁f un
▁Th at</w>
▁f ri
▁am ong</w>
▁f il
ati c</w>
g u
i e</w>
at a</w>
▁v ery</w>
tr ac
n er</w>
t▁ r
uc c
i g</w>
▁p op
ot h</w>
os p
C omm
ow ever</w>
▁in st
a u▁
▁r ate</w>
▁re port</w>
un ity</w>
▁wh ether</w>
here in
oo m</w>
ain st</w>
▁ex pen
▁dis c
ec tion</w>
an u
▁oper ation</w>
▁o b
▁A fter</w>
pos e</w>
o p▁
a▁ ge</w>
al f</w>
en▁ ce</w>
ak es</w>
us an</w>
▁r eal
ch ed</w>
ti l</w>
si b
▁announ ced</w>
or k</w>
air man</w>
el f
pl em
pos▁ ;s</w>
▁th ▁e</w>
▁h ear
▁g l
▁G overnor</w>
t▁ y</w>
u th
a▁ m
ul ts</w>
a z
agrap h</w>
▁b illion</w>
in cial</w>
M etropol
u te</w>
d ic
il▁ l</w>
0 ,000</w>
b u▁
d i▁ng</w>
▁g rea
ot e</w>
▁un der
▁Par ty</w>
▁ad v
ar t</w>
m ak
▁ch ang
▁des ign
▁f ound</w>
▁o cc
▁produc t</w>
it▁ an</w>
y o▁
u▁ c
oc r
con ▁
jec ts</w>
G ▁
an ese</w>
p ri
pres ent
iti ▁
d en</w>
R W</w>
ew s</w>
▁pl ay
▁Wh at</w>
▁th ose</w>
▁J e
og ether</w>
▁S am
a ff
▁G ang
i▁ d
▁e as
ar m
▁th ese</w>
r em
ffic i
T ▁
▁g roup</w>
ep t</w>
w ard</w>
n▁ d</w>
is ed</w>
l o▁
▁investig ation</w>
. ▁
u ty</w>
▁proc ess</w>
in es</w>
▁et c.</w>
▁in stitu
th a▁t</w>
c ent</w>
▁re v
ut es</w>
▁E x
om e
w▁ on</w>
l▁ ed</w>
en s
▁in tro
▁w ater</w>
▁for mer</w>
▁inv est
▁fin ancial</w>
a▁ t
▁r et
▁c enter</w>
ol e</w>
a i</w>
▁r o
h ib
ev el</w>
▁t al
▁develop ment</w>
▁s aying</w>
eas ed</w>
N ▁
igh ts</w>
ar k</w>
p ly</w>
▁u s</w>
o y</w>
▁l oc
t▁ ion</w>
▁e very</w>
od y</w>
d i▁
an ding</w>
▁d oc
▁b udg
o▁n e</w>
▁s ay</w>
ie f</w>
▁mat ters</w>
▁in ten
er ▁s</w>
▁o pen
w▁ ill</w>
e▁ ss</w>
▁cont ro
▁H owever</w>
in ter
▁Al though</w>
c o▁n
▁s us
in ation</w>
it▁ h</w>
▁perform ance</w>
▁s ign
i ev
K▁ im</w>
b▁ er</w>
▁com e</w>
▁at tac
m▁ an</w>
▁im port
▁U S</w>
i▁ l
s ch
▁i d
▁am ount</w>
c es</w>
▁d ef
▁ex am
ob al</w>
s ub
▁r eason</w>
▁h im</w>
e▁c t</w>
tic s</w>
d ers</w>
ac h
din ance</w>
▁diffic ult</w>
enti al</w>
ur ity</w>
be▁ en</w>
▁ ot▁;</w>
en ds</w>
▁s k
s ai▁d</w>
s um
▁pur su
he▁ ad</w>
D ▁
▁ch ange</w>
eg al</w>
u ed</w>
▁par ty</w>
▁repor ted</w>
ar ac
u es</w>
▁u s
▁ch arge</w>
▁bec ome</w>
m en▁t</w>
v ed</w>
ec ted</w>
d▁ ed</w>
a▁n t</w>
u▁ l
in al</w>
ul l</w>
in ed</w>
▁pro t
i ver
▁par t</w>
▁s ocial</w>
esti v
ec u
▁i t
m .</w>
s e
▁a ud
n s</w>
riv ate</w>
l oc
▁n o
▁fir e</w>
ef t</w>
▁ad ministr
emb ly</w>
▁probl em</w>
etropol itan</w>
w e▁
▁& q▁uot;</w>
if ic
at t
ou▁ ld</w>
▁st at
r d</w>
▁t rea
ev ant</w>
p ing</w>
er ed</w>
▁con struction</w>
▁en ter
esti c</w>
▁en tr
▁ag ain</w>
▁ag re
an ds</w>
▁h ome</w>
▁pro sec
▁l o
& q▁u
ea t</w>
c r
m anag
▁Th ey</w>
b e▁c
f t
at ur
s o▁
et ter</w>
n ow</w>
▁C enter</w>
▁hel p</w>
▁ad dition</w>
▁b ack</w>
pl o
ou ght</w>
&a pos;
tr ial</w>
▁fam ily</w>
▁wor king</w>
▁prov ide</w>
ir e</w>
oun d
▁J ae</w>
sa▁ id</w>
ti c</w>
▁h ere</w>
c an</w>
▁pro gr
on t</w>
c▁ an</w>
▁s elec
p ed</w>
▁c ustom
▁sh ar
▁M y</w>
▁pos sible</w>
▁h um
b▁ y</w>
▁offic ials</w>
l s</w>
▁o ver
H ▁
s m
e▁ x
▁ ts</w>
▁F or</w>
S t
▁comp eti
▁coun tries</w>
▁go ing</w>
rea s</w>
▁par agraph</w>
ou▁ n
▁a uth
Metropol it▁an</w>
er ▁e</w>
for m▁
▁d om
r▁ ed</w>
m▁ ent</w>
20 1
▁ag ainst</w>
▁S ince</w>
our s</w>
fer red</w>
c as
▁inter n
▁sit uation</w>
ir ed</w>
▁wh y</w>
▁u sing</w>
f▁ f
du ce</w>
▁Jap an</w>
▁differ ent</w>
▁con fir
ov ▁
▁sti ll</w>
u▁ n</w>
▁m od
en ted</w>
▁M ar
f in
s▁ ed</w>
eh ic
d ep
▁s et</w>
▁th ▁
c a▁
a▁ y</w>
▁sal es</w>
▁compl et
a▁ ng</w>
tric t</w>
A ss
d le</w>
▁p as
▁B usan</w>
▁Chin ese</w>
d ec
ain s</w>
ug g
▁2 0</w>
w o▁r
▁inter est</w>
▁C oun
▁s im
id ▁
▁rece ived</w>
▁d am
▁m ain
ul ation</w>
is ts</w>
▁n ational</w>
▁Tr ump</w>
iv es</w>
oin t</w>
B ▁
uc l
i o</w>
▁d ata</w>
p▁ le</w>
▁maj or</w>
▁w at
k i▁ng</w>
at ure</w>
ea m</w>
▁th en</w>
n ess</w>
ir ▁
▁en viron
ig ▁h
i▁ ts</w>
si a</w>
▁rec or
▁d own</w>
▁p ower</w>
▁t oday</w>
▁mon ey</w>
th▁ is</w>
w ere</w>
oun ▁
i o▁n</w>
ea d
▁3 0</w>
w e▁re</w>
duc ed</w>
▁P ol
▁c aus
▁s he</w>
ch ing</w>
o ol
t▁ or</w>
po▁r t</w>
▁Sam sung</w>
▁rel evant</w>
t o▁
ri ed</w>
o tion</w>
iv id
▁an aly
pos ed</w>
▁g ive</w>
vi ew</w>
▁J ung</w>
▁c ap
is sion</w>
iv ▁
air per
▁meas ures</w>
tr act</w>
▁import ant</w>
on ed</w>
▁in c
▁m ain</w>
▁bas ed</w>
ye ong</w>
▁r oom</w>
▁dep artment</w>
em ocr
▁a reas</w>
▁memb er</w>
▁e qu
▁Minis ter</w>
▁res ult</w>
▁In tern
lis h</w>
▁f our</w>
r a▁
b ec
▁s er
on ▁s</w>
ar s</w>
en ing</w>
▁pre par
tr uc
ov er</w>
a p</w>
am ▁
o▁ us</w>
▁em ploy
sib ility</w>
su▁ ch</w>
▁pursu ant</w>
t e▁r
on y</w>
i x</w>
▁p rivate</w>
rea dy</w>
▁un til</w>
▁for eign</w>
u nd</w>
elf are</w>
i▁ t
ur n</w>
▁econom ic</w>
▁f ive</w>
c o▁m
▁per cent</w>
▁Un iversity</w>
▁p ay</w>
▁dec ided</w>
▁ n</w>
▁fu ture</w>
ex p
c t</w>
▁Jap anese</w>
a un
▁v al
▁t imes</w>
▁c ame</w>
re a▁
in clud
▁h ope</w>
▁attac hed</w>
▁w omen</w>
C h▁
▁increa sed</w>
ti ce</w>
G overnme▁nt</w>
▁l oo
e▁ st</w>
▁l ear
▁w in
a il</w>
ilit ary</w>
estiv al</w>
h av
el s</w>
th▁ ey</w>
ti▁ me</w>
▁b est</w>
▁Wh ere</w>
▁p ay
J ▁
h i▁
▁t ogether</w>
▁res ults</w>
▁A n</w>
ev en</w>
▁Or dinance</w>
▁G wang
t or
n o</w>
res s</w>
▁med ia</w>
am es</w>
▁h ol
▁budg et</w>
▁ab le</w>
p o▁
▁l im
▁chec k</w>
▁ear ly</w>
e ir</w>
itiz ens</w>
v ▁e</w>
▁O n
▁exper ience</w>
re d
y▁ ou</w>
is ing</w>
▁s um
o s</w>
▁n eed
▁n eg
▁t em
▁ st</w>
f o▁
▁w ar
▁t oo</w>
it▁ y</w>
p e</w>
E n
▁in spec
ep ar
as ter</w>
▁gener al</w>
ver y
m it
un ic
▁pur pose</w>
pro duc
g r▁
▁vis it</w>
▁im prov
▁t ook</w>
wh▁ en</w>
con t
n▁ g</w>
f o▁r
a fter</w>
▁comm ittee</w>
▁c ulture</w>
▁activ ities</w>
tur es</w>
p a▁
&▁qu o▁t;</w>
d es
is tr
▁b ur
ic▁ h</w>
▁pl ans</w>
at eg
▁h alf</w>
n ew</w>
ir d</w>
al▁ so</w>
o h
0 th</w>
▁atten tion</w>
o ffic
▁l aw
▁p ic
▁op in
▁En g
m in
▁s ome
▁m ust</w>
ay or</w>
▁w ea
▁tr ad
▁ta x</w>
id n</w>
es ts</w>
c al</w>
. m.</w>
pos ition</w>
s▁ o</w>
▁l eft</w>
ub l▁
ex ▁
▁do es</w>
er ation</w>
w il▁l</w>
g s</w>
▁&a pos;</w>
l▁ d</w>
▁p ast</w>
in dus
t▁ ry</w>
iti ▁es</w>
▁c ooper
u le</w>
us ed</w>
▁rea l</w>
A r
i▁n e</w>
▁sur v
id dle</w>
▁S up
r ic
a in▁
a th
or ganiz
▁F in
or ity</w>
e e▁
re qu
y s</w>
el f</w>
th▁ an</w>
oc ▁
il i
▁g ame</w>
▁l evel</w>
L ee</w>
▁w ent</w>
▁ex pres
▁grea t</w>
▁r ul
b as
▁c ol
▁wee k</w>
▁s ucc
▁s afety</w>
yo▁ u</w>
w ays</w>
▁y oung</w>
and id
▁l ow</w>
▁cons um
▁u r
▁E ducation</w>
▁j ob</w>
▁p aid</w>
▁s ite</w>
w a▁s</w>
▁dom estic</w>
y e</w>
ye es</w>
or▁ th</w>
a▁n y</w>
the▁ ir</w>
▁c iv
i▁ g
▁h ard</w>
▁requ est</w>
ib le</w>
res ▁
▁H ow</w>
▁E ven</w>
▁en j
▁fin d</w>
▁mat er
b r
E O</w>
▁expen ses</w>
▁ph ot
i al
d r▁
C ▁h
no▁ t</w>
▁c ar</w>
is si
l ike</w>
▁prov ince</w>
▁S ec
▁st and
1 9
on om
▁st or
▁vi ol
p▁os ;s</w>
ann ot</w>
▁m ar
per ▁
m ore</w>
ar ed</w>
▁iss ue</w>
e▁ m
d irec
▁S erv
▁t our
▁o ff</w>
ear ▁
th ers</w>
ad ▁
▁K RW</w>
fir ▁st</w>
▁h ouse</w>
▁pol icy</w>
▁A d
h▁ er</w>
▁s end</w>
sh a▁ll</w>
▁n ame</w>
e et</w>
▁pl ease</w>
ir st</w>
▁v ehic
▁buil ding</w>
in a</w>
s y
ar ▁e</w>
e duc
▁m aking</w>
p re▁
ti s
▁v id
at or</w>
ool s</w>
▁h ou
iz ▁ed</w>
▁fe el</w>
u▁ ng</w>
is ting</w>
▁ch arac
▁N ew</w>
▁c alled</w>
tr on
at ten
▁sub sid
▁pres cri
ab▁ le</w>
▁pur ch
w e</w>
g o</w>
K o▁
a ther</w>
a▁ r</w>
▁re present
▁techn ology</w>
▁on ce</w>
▁b rea
en ter
un▁ g</w>
l ea
▁se ems</w>
▁ev al
id es</w>
ie ve</w>
▁l abor</w>
ti c▁
ar ding</w>
▁20 0
ati o▁ns</w>
si an</w>
ubl▁ ic</w>
em ents</w>
y u</w>
▁wor kers</w>
z ed</w>
▁m or
ir c
▁h ours</w>
▁f oc
eo p▁le</w>
et t
▁s ing
h ▁e</w>
▁det erm
l ▁e</w>
l ing</w>
h ead</w>
▁v ol
ul ly</w>
▁D a
ye▁ ar</w>
h a▁s</w>
▁prosec ution</w>
▁curr ent</w>
▁b ea
▁re p
or m
▁em erg
d ong</w>
▁rece ive</w>
▁W ith</w>
2 0</w>
i e▁s</w>
f am
0 s</w>
▁sh ow</w>
b ed</w>
d en
▁W or
as te</w>
y o</w>
oci ation</w>
▁o w
rou▁ gh</w>
▁c os
ous ly</w>
d o▁
▁C om
▁h ist
▁aff airs</w>
▁a ut
▁pro jects</w>
u k</w>
▁app ly</w>
pos▁ ;</w>
op er
P ro
ar▁ ty</w>
▁c ou
▁appl ication</w>
t wo</w>
5 th</w>
▁su per
i f</w>
▁l ik
as h
t e▁d</w>
es si
l d
plo yees</w>
▁disc us
tic al</w>
ac es</w>
v i▁
s ure</w>
f ri
s▁ t</w>
▁p ut</w>
▁ex ch
s p▁
at▁ ional</w>
e▁ ly</w>
at▁ e</w>
▁t yp
wh▁ o</w>
▁R es
▁rel eased</w>
st ud
1 0</w>
▁al ready</w>
ac tiv
O r
▁l ook</w>
ess es</w>
▁M etropolitan</w>
s▁ on</w>
enc es</w>
l▁ l</w>
▁con c
sur ance</w>
▁expl ained</w>
a▁n s</w>
ag ▁
re fer
▁s w
ch ool</w>
R ▁
ro▁ m</w>
ti m
▁prov incial</w>
em ony</w>
re en</w>
▁res earch</w>
▁c ri
oo ds</w>
un e</w>
▁fr ont</w>
▁c ultural</w>
C on
erg y</w>
oci ety</w>
i qu
▁pay ment</w>
for ▁
ati▁ ve</w>
▁in t
▁med ical</w>
▁C ourt</w>
in s
e▁ t</w>
b o
p a▁r
e er</w>
ent ary</w>
h igh</w>
▁star t</w>
▁D ec
au▁ se</w>
▁mon ths</w>
Se oul</w>
▁o wn</w>
m at
▁l aw</w>
iv en</w>
s w
8 th</w>
e a▁r
u b</w>
og n
mo▁ re</w>
l ess</w>
▁conduc ted</w>
▁im plem
ig▁h t</w>
7 th</w>
▁c our
▁pl an
stitu te</w>
p ur
ret ary</w>
▁d ate</w>
ar i
▁D is
▁c annot</w>
p▁ ro
im ▁
▁pr ices</w>
an ks</w>
Prov in▁ce</w>
▁Ass embly</w>
▁& apo▁s
▁g ot</w>
um ▁
▁re ferred</w>
▁mus ic</w>
k er</w>
▁m an
▁gl obal</w>
▁grow th</w>
ous eh
ex pec
4 th</w>
g er</w>
▁invest ment</w>
all s</w>
▁sch ed
3 ▁
▁m ilitary</w>
▁v ic
tu al</w>
▁str ong</w>
▁poin t</w>
▁b ody</w>
pro ve</w>
▁O ffice</w>
▁h ealth</w>
es t▁
▁ha pp
u ally</w>
e▁ l
airper son</w>
ati s
w ang</w>
▁tr av
▁a v
fr as
tif ic
amp ;</w>
▁ac cording</w>
&a▁pos▁ ;t</w>
▁se ver
or row</w>
▁s en
wh ich</w>
o ff
. 5</w>
c▁ ed</w>
n ov
s ol
▁Ch airman</w>
▁cor por
er c
l ast</w>
g y</w>
al▁ l</w>
ig h▁
▁p ri
itt le</w>
▁b oth</w>
it t▁
tr ans
osp ital</w>
es s▁
▁f ree</w>
em p
▁rec omm
com pl
y ang</w>
▁u n</w>
N ation▁al</w>
em or
▁d riv
▁me ans</w>
▁f ull</w>
▁S o</w>
▁Pol ice</w>
▁m is
▁me th
▁G overnment</w>
inc ▁e</w>
comp an
med i
▁d iv
ul ar
i ally</w>
▁pol iti
▁B ut</w>
f i
e es</w>
N or▁th</w>
▁Eng lish</w>
d el
g over
al so</w>
▁Ch oi</w>
▁l ess</w>
▁R ep
refer r▁ed</w>
al▁ ly</w>
▁c are</w>
ou▁ r
a im
ai▁ r
es ter
▁H ong</w>
▁P r
a▁r d</w>
p e▁
d▁ s</w>
▁l et</w>
▁I s</w>
l o
▁c ourt</w>
n i▁ng</w>
en ef
▁agre ement</w>
d▁ uc
b usin
▁p er</w>
▁str eng
▁ex hib
iv er</w>
▁et c</w>
▁l aun
▁S u
ta ur
is es</w>
▁ta x
▁l ive</w>
▁op en</w>
▁cl os
en e</w>
d▁ ue</w>
▁a f
ail s</w>
▁st ate</w>
▁c itizens</w>
am s</w>
3 0</w>
c y</w>
c ement</w>
1 st</w>
ay ▁
▁wh ▁
▁econom y</w>
▁c ost</w>
trib u
p▁ er
▁o ld</w>
r a
▁h ar
o▁r s</w>
▁Wh ile</w>
e on
duc tion</w>
&qu ▁ot▁;</w>
ang u
▁serv ices</w>
▁C an</w>
ep t
p er</w>
anu fac
▁D ep
e▁ on</w>
c t
▁b ig</w>
Gyeong ▁
20 ▁
▁s ide</w>
5 0</w>
▁gr ad
pro f
M inis
▁ag ency</w>
▁environ ment</w>
c l▁
▁i ll
▁Th en</w>
ti onal</w>
d ance</w>
▁d idn</w>
W e</w>
▁under st
▁s epar
herein aft▁er</w>
ess ed</w>
wor k</w>
o ice</w>
u ro
p e▁r
▁as ked</w>
▁direc tor</w>
un t
ov ▁er</w>
▁hum an</w>
▁m ark
ti o▁ns</w>
i▁c t</w>
▁th ings</w>
im um</w>
▁l iving</w>
ft en</w>
▁a ▁s</w>
▁t op</w>
j in</w>
er al</w>
▁In cheon</w>
▁t ak
▁M ay</w>
bu▁ t</w>
m or
en t▁s</w>
▁establis h</w>
▁F r
▁Un ited</w>
ch er</w>
bu k</w>
i▁ le</w>
6 th</w>
▁pro per
ym p
▁H an
w it▁h</w>
▁particip ate</w>
ail ed</w>
t ain
ic t</w>
▁a w
on es</w>
▁selec ted</w>
▁em ployees</w>
▁establis hed</w>
K▁or ean</w>
g▁ u</w>
▁c anc
▁&a pos;
u ly</w>
▁Coun cil</w>
▁h and
o▁r y</w>
▁star ted</w>
P ar
a▁l s</w>
n ers</w>
▁me et</w>
&a▁pos; ▁
▁p ubl
▁kn own</w>
pr▁ o
&▁qu ot▁;</w>
re f
▁tr ade</w>
0 ▁
▁p en
▁vid eo</w>
▁g overn
om s</w>
▁prov ided</w>
et ting</w>
▁t est</w>
▁& ▁
▁l ove</w>
d▁ o</w>
air m▁an</w>
n el</w>
▁b oo
▁ad diti
▁produc tion</w>
er ic
m ark
▁1 5</w>
en t▁er</w>
▁m an</w>
▁app oin
m ing</w>
er n
▁del iber
▁establis h
d e
e▁ s
ab ility</w>
▁b ook</w>
at ory</w>
▁l ed</w>
um ents</w>
ay ed</w>
la▁ st</w>
▁rec ently</w>
p are</w>
▁lik ely</w>
I t</w>
F ▁
▁R eg
ess or</w>
e ung</w>
m o
&▁qu ▁ot;</w>
ess ion</w>
▁D ong</w>
C om
fras truc
c▁ h</w>
▁acc ident</w>
▁an other</w>
▁tr aining</w>
in t
&a pos▁;s</w>
▁S ome</w>
T r
w▁ ith</w>
a▁ g
ex per
▁s oon</w>
▁J ong</w>
o▁ re</w>
▁Y es</w>
▁fi eld</w>
iti onal</w>
▁a way</w>
▁cer emony</w>
ill age</w>
hav ▁e</w>
▁1 00</w>
▁con tract</w>
y n
L▁ ee</w>
g et</w>
ob ile</w>
▁In dus
eal ed</w>
b o▁
u▁ s
ur ch</w>
▁Serv ice</w>
▁chil d</w>
ec ts</w>
▁acc oun
d▁ ay</w>
a▁ ce</w>
▁or ig
w an</w>
▁bec ame</w>
i▁ ll
entr al</w>
▁dr am
ud ▁
▁s ent</w>
▁pers ons</w>
▁M ayor</w>
m ost</w>
▁mov ie</w>
iz ing</w>
▁h old</w>
resid e▁nt</w>
▁pl ay</w>
ill s</w>
p ic
&ap▁os ▁
ther n</w>
▁sub ject</w>
▁crea te</w>
▁administr ative</w>
ul ations</w>
▁ f</w>
fer ence</w>
eg ▁
▁me an
ob s</w>
e ff
Gyeong▁ gi</w>
; m</w>
▁prev ent</w>
▁dem and</w>
▁e very
▁confir med</w>
o▁ on</w>
▁poin ted</w>
▁p resident</w>
▁Je ju</w>
pri l</w>
▁n ew
pro c
▁f ine</w>
in ten
al k</w>
o▁ w
▁pop ular</w>
▁competi tion</w>
&apo▁s ;s</w>
▁progr am</w>
▁S p
re es</w>
▁con diti
in ess</w>
▁open ing</w>
eg e</w>
all ing</w>
ag ed</w>
re v
g o▁
f▁ or
▁o ften</w>
ou ▁t</w>
ch es</w>
em ed</w>
e qu
▁organiz ations</w>
w or▁
b an</w>
he▁ ld</w>
c▁ on
ent ation</w>
em e</w>
c▁ l
y our</w>
i et
e um</w>
▁c ause</w>
▁B r
Kor ean</w>
▁t ▁
▁t aking</w>
▁mor ning</w>
a▁ b
▁par ents</w>
▁a ir
ci es</w>
▁beg an</w>
ti l
▁stud y</w>
or por
m emb
om orrow</w>
▁dam age</w>
is hed</w>
▁st ock</w>
▁fl oor</w>
c o
t ory</w>
▁b etter</w>
n▁ ed</w>
eo k</w>
▁l ate</w>
▁pr in
ur i▁ng</w>
oc k
▁w a
par ticip
ot ing</w>
▁u p
f er</w>
▁probl ems</w>
ti▁ ve</w>
h ad</w>
▁cl ass</w>
mit ted</w>
mis sion</w>
ill i▁on</w>
ic ies</w>
d u▁c
f oll
g ency</w>
; ▁s</w>
▁ex ecu
ail y</w>
e o▁
▁pre dic
E ▁
rea d</w>
▁T o</w>
ch ers</w>
A ct</w>
▁al ong</w>
urr ed</w>
h▁ ad</w>
▁sch ools</w>
r is
bu il
s it
▁im prove</w>
▁pr ac
▁p ati
▁E lec
con s
l ocal</w>
includ i▁ng</w>
an k
▁p at
▁s elf</w>
▁n ight</w>
em b▁er</w>
t u▁
m os
ip ment</w>
o▁ p
▁th ought</w>
▁th ird</w>
▁con ven
▁sp ace</w>
s is</w>
ic▁ al</w>
&a▁po▁s ;s</w>
ed ly</w>
ec ause</w>
▁in come</w>
th an</w>
▁pre pare</w>
c ar
▁trea tment</w>
ati▁ ng</w>
▁loc ated</w>
▁vis ited</w>
P a▁r
p ubl▁ic</w>
as ed</w>
▁v er
▁caus ed</w>
g est</w>
w ▁e</w>
▁min utes</w>
rel at▁ed</w>
e p</w>
▁m iddle</w>
▁l ine</w>
▁ind ivid
ot el</w>
ill ed</w>
▁al ways</w>
anc ▁e</w>
G u</w>
▁t ur
▁Y oung</w>
w ith
▁K ang</w>
▁res taur
ex c
g o
m eas
ch il
th r▁
ld n</w>
l and</w>
▁intern ational</w>
r .</w>
▁des ign</w>
on al
inv estig
▁contin ue</w>
e▁r y</w>
as t
if ication</w>
▁sh owed</w>
c ooper
S h
▁institu tions</w>
rem e</w>
c oll
a▁ me</w>
h o</w>
▁comm unity</w>
n▁ ew</w>
▁lea st</w>
▁res ol
d et
▁In stitute</w>
▁qu ality</w>
▁organiz ation</w>
▁1 2</w>
▁exper ts</w>
th rou▁gh</w>
▁chang ed</w>
▁5 0</w>
▁auth or
▁additi onal</w>
t echn
▁con n
d evel
▁in fl
▁o vers
ver age</w>
▁Mar ch</w>
▁a ir</w>
ic ▁e</w>
cl os
▁sh ort</w>
▁l arg
ow n
▁bro ad
id ents</w>
wh e▁re</w>
▁c ard</w>
J ap
▁Gwang ju</w>
e▁ nd</w>
ci ence</w>
▁Comm ission</w>
itt en</w>
f t</w>
▁inspec tion</w>
ro ss</w>
em ploy
v y</w>
per s
▁l os
e f</w>
▁ch arg
o th
▁t ell</w>
eg r
ib r
im in
▁f ar</w>
iti▁ on</w>
▁D emocr
i▁ m
G ang
i b▁
▁l and</w>
e▁ en</w>
ad v
▁1 1</w>
g ue</w>
b or
▁s em
▁st ore</w>
▁st age</w>
i▁ ll</w>
en ess</w>
m an
w▁h ich</w>
it al
e d▁
o g▁
at ors</w>
w o▁n</w>
▁r is
▁l ittle</w>
es ▁s</w>
si▁ on</w>
▁fe es</w>
▁1 0
iti ve</w>
id ay</w>
&q▁u o▁t;</w>
▁a ge</w>
ap e</w>
or ts</w>
res pon
a▁n ce</w>
▁c irc
ter ed</w>
▁no tif
▁n ews</w>
▁re vis
ound ation</w>
ap er</w>
▁sec urity</w>
itt▁ ee</w>
▁l ater</w>
▁S he</w>
▁in surance</w>
▁bas ic</w>
▁ad ded</w>
▁T a
▁b us</w>
▁appl ied</w>
▁ap prov
▁Wor ld</w>
it er
u t▁
▁n atur
▁an y
ou▁ nd</w>
i▁ n▁g</w>
oc c
▁For m</w>
▁w elfare</w>
id ing</w>
cl es</w>
▁j udg
e k</w>
▁n on</w>
d evelop
▁play ers</w>
h▁ ave</w>
an ted</w>
d em
▁val ue</w>
▁g iven</w>
p o</w>
▁prev ious</w>
▁ex isting</w>
qu art
▁con f
ou t
▁c andid
▁Ch o</w>
▁direc tly</w>
f ied</w>
▁St ates</w>
und ai</w>
▁B ecause</w>
▁hist ory</w>
ac y</w>
us tice</w>
p eop▁le</w>
▁o ff
c are</w>
if ied</w>
▁a n▁d</w>
y ou▁
m a
in king</w>
▁b enef
ann oun
ad em
▁rec ogn
▁ha ving</w>
sl and</w>
▁prom ote</w>
ea th</w>
r up
▁b or
o o▁n</w>
p tion</w>
au gh
anufac tur
u▁ st</w>
g ed</w>
▁1 1
r▁ es
▁E m
ic k</w>
O ▁
▁f ans</w>
▁Am ong</w>
▁pers on
g en
▁enj oy</w>
ministr ation</w>
▁Am eric
a▁r s</w>
▁bu y</w>
▁fac ility</w>
▁d eb
ab o▁ut</w>
e y
vers y</w>
our ces</w>
t ak
in der
▁surv ey</w>
▁fri ends</w>
▁Intern ational</w>
E x
▁at trac
▁G roup</w>
▁k eep</w>
▁wor ks</w>
ea ce</w>
d ent</w>
▁ac cor
▁s ociety</w>
▁op port
i on
j ur
o▁n g
Gyeong gi</w>
▁tak en</w>
&ap▁os ;s</w>
tiv ely</w>
pl ac
ye on</w>
ucl ear
ati ves</w>
▁ro ad</w>
▁Prov ided</w>
rou ps</w>
e ans</w>
af f</w>
▁On e</w>
▁ 00</w>
ear ed</w>
▁en g
h▁ ed</w>
▁mater ials</w>
H y
▁custom ers</w>
an▁ g</w>
Y ▁
▁th ough</w>
s us
▁h om
un d▁er</w>
aff ic</w>
▁s ix</w>
▁employ ment</w>
▁real ly</w>
▁for m
▁for m</w>
▁f ace</w>
▁” ”</w>
▁sup ply</w>
▁o thers</w>
W ▁
▁d ev
n am
t▁ wo</w>
S▁ e
▁ra ised</w>
▁fun ds</w>
▁F irst</w>
c▁ om
▁f ea
▁ev ents</w>
on▁ ly</w>
il ar</w>
e ep
▁Ass ociation</w>
▁represent ative</w>
rec e
om an</w>
▁high er</w>
▁complet ed</w>
af e</w>
▁h ouseh
▁a ch
▁civ il</w>
c i▁
▁conditi ons</w>
▁j oint</w>
▁particip ated</w>
S ec
▁l ead</w>
▁c all</w>
ob er</w>
▁fin al</w>
loc ▁al</w>
b ro
s▁ uch</w>
s uch</w>
li er</w>
por ted</w>
c le</w>
▁trad itional</w>
▁vic ti
th em</w>
o▁ ol</w>
c▁ es</w>
e▁n ts</w>
s ite</w>
▁m ove</w>
▁R us
angu age</w>
▁overs eas</w>
or din
ic ial</w>
▁p ass
▁r ights</w>
st▁ em</w>
em ale</w>
▁m akes</w>
w ell</w>
▁reg ion</w>
▁activ ely</w>
▁L et</w>
d ef
▁bec om
j e▁ct</w>
▁sub mit</w>
a▁ ti▁on</w>
n ext</w>
ip s</w>
▁exch ange</w>
e▁ v
▁s o
▁s ize</w>
en cies</w>
▁ap pro
o es</w>
ea k</w>
▁n ear</w>
ap pl
▁s eason</w>
es n</w>
▁pos sibility</w>
form▁ er</w>
o th▁er</w>
th ey</w>
i er</w>
olog ical</w>
t e▁r</w>
el t</w>
e igh
u▁ m
re w</w>
▁offic er</w>
str ▁
com p▁
a▁ tio▁n</w>
c r▁
▁atten ded</w>
th e▁re</w>
ar d
i▁ ed</w>
▁contro l</w>
frastruc ture</w>
▁eff ect</w>
▁streng th
▁Fin ancial</w>
ex ual</w>
eg u</w>
e▁ e</w>
si ons</w>
per form
▁ph one</w>
id ence</w>
J e
el ing</w>
▁sh are</w>
▁H ouse</w>
ag n
a ud
ti al</w>
W ▁e</w>
▁rul ing</w>
▁rec ent</w>
on▁ g
▁exhib ition</w>
▁ret urn</w>
▁ag o</w>
a▁ n▁d</w>
w it
n eg
ot ed</w>
▁A pril</w>
▁dr aw
ul d</w>
C oun
▁wh i▁ch</w>
▁fri end</w>
o i▁n
▁n ever</w>
ee k</w>
e an
▁stud ent</w>
▁cos ts</w>
i▁ c</w>
it▁ ed</w>
J ae</w>
red it</w>
qu ▁
▁ex ten
ex p▁
d own</w>
▁dec ision</w>
▁i ▁n</w>
re h
es ting</w>
▁f ur
ati v
▁tr y</w>
pl ▁e</w>
ur al</w>
▁eval uation</w>
▁eas y</w>
&a▁ p▁os;s</w>
▁doc uments</w>
▁fun c
ea ch</w>
ul a</w>
pl ace</w>
▁i ▁s</w>
t on</w>
▁hou sing</w>
port ation</w>
T h
▁conduc t</w>
rec ▁
▁accor dance</w>
▁oper ate</w>
▁im p
der ed</w>
m ov
▁acc ount</w>
▁c al
a▁ d
a▁ s
▁g o▁
em▁ ent</w>
▁wor ds</w>
c s</w>
▁increa sing</w>
▁ar res
ver ▁
ro ad</w>
▁it ems</w>
▁neg oti
b ur
▁oper ating</w>
anc ed</w>
a ther
u ment</w>
i▁ ve</w>
in t▁
m ental</w>
▁A b
ud e</w>
▁w ar</w>
▁Sup reme</w>
A d
▁author ities</w>
U .▁
▁vol unt
▁respon se</w>
▁dec rea
▁J une</w>
▁D ong
▁Sh in</w>
u▁ t</w>
com ▁
and ed</w>
w a</w>
in▁ to</w>
▁cour se</w>
▁a verage</w>
f e</w>
il ies</w>
▁E uro
it ors</w>
▁appl ic
us ing</w>
&ap▁os; l▁l</w>
inder g
▁J uly</w>
e▁ a</w>
el eb
t▁ e</w>
en ding</w>
▁op position</w>
▁b usin
▁sign ific
▁qu esti
▁d eg
▁cooper ation</w>
i ety</w>
&q▁u ot▁;</w>
trib ution</w>
es tion</w>
▁St ation</w>
ig ▁
pl ay
ept ember</w>
un ication</w>
tron ics</w>
o▁ me</w>
o h</w>
ag ▁e</w>
ec h</w>
▁Democr atic</w>
▁prom otion</w>
▁en ti
&apos; ▁s</w>
ph as
▁trav el</w>
▁comp ared</w>
▁@ -▁@</w>
e▁n ce</w>
▁h ospital</w>
▁s een</w>
ven tion</w>
t u▁re</w>
▁r eas
d▁ ing</w>
▁plan ning</w>
▁ar t</w>
▁Hy undai</w>
▁B l
▁d u
▁emerg ency</w>
▁tem per
s▁ ec
▁elec tion</w>
▁e ffici
ar▁ ge</w>
▁o ▁f</w>
v ice</w>
ar▁ y</w>
p op
ep end
▁lea ve</w>
o▁ se</w>
i x
er▁ al</w>
c our
&▁ apo▁s
▁grow ing</w>
▁r un</w>
er n</w>
▁ex tr
▁d ust</w>
uc ▁
▁p us
an▁ t</w>
▁e r
▁g en
for t
ear ly</w>
u k
ec on
▁r ole</w>
cl us
il▁ l
es ▁t</w>
ap p▁
ct ober</w>
▁pos ition</w>
te▁r m</w>
▁inv ol
w▁ ay</w>
a g</w>
▁p ain
▁e at</w>
20▁ 1
c al
▁r un
us ted</w>
c o</w>
▁some thing</w>
y s
if t</w>
R es
e▁ t
▁f ew</w>
d on
r▁ e
ultur ▁al</w>
U.▁ S.</w>
▁m inis
▁tri al</w>
▁hear d</w>
▁&apos; ▁s</w>
g ood</w>
▁&a pos▁;s</w>
▁tr illion</w>
a▁ p
▁sec tor</w>
▁rev ealed</w>
ic i
▁S chool</w>
▁re view</w>
▁bel ieve</w>
a▁c k</w>
▁wr itten</w>
▁st ory</w>
s▁ es</w>
▁reg is
ou r▁
fir st</w>
▁ra ther</w>
f e▁
▁lea der</w>
▁adv ance</w>
us tr
▁diffic ul
▁as k</w>
ov e▁r
s▁ aid</w>
S e▁
P ark</w>
▁1 st</w>
p▁ ol
▁res pec
▁l egal</w>
▁d aily</w>
th y</w>
▁cl as
▁str uc
ar m</w>
▁out side</w>
en▁ cy</w>
is is</w>
in crea
a▁ use</w>
▁im medi
▁includ e</w>
▁f estival</w>
▁g roups</w>
P ar▁ty</w>
▁cl ose</w>
D is
▁dis p
oun tain</w>
▁politi cal</w>
K▁or ea</w>
b all</w>
▁purch ase</w>
oun ds</w>
▁intro duced</w>
en ded</w>
dis ▁
a▁c t</w>
ff airs</w>
▁Tr ans
▁pol icies</w>
▁N o</w>
▁j oin
if ic</w>
c ap
u▁ p</w>
ma▁ de</w>
▁meth od</w>
▁Y oon</w>
▁1 2
s▁ he</w>
dis c
i j
▁w age</w>
o .</w>
p eople</w>
ish ing</w>
pos al</w>
og rap
▁establish ment</w>
▁b ir
quart ers</w>
▁t omorrow</w>
▁ ation</w>
▁4 0</w>
pl es</w>
h eld</w>
▁l ower</w>
g▁ et</w>
▁u su
▁d en
▁Pr ime</w>
▁prepar ed</w>
ou▁ th</w>
2 nd</w>
▁d ro
g overnme▁nt</w>
▁reg ular</w>
un der
in ing</w>
▁B ank</w>
th eir</w>
l ar
ar r
rel ▁
pl ement</w>
enc ed</w>
wor k
▁opin ions</w>
▁curr ently</w>
▁need ed</w>
▁sh ows</w>
▁k ey</w>
▁M any</w>
ug ust</w>
j o▁
e el</w>
▁develop ed</w>
Pa▁r k</w>
▁Gang won</w>
▁s ugg
en ti▁
▁r ise</w>
con c
▁t old</w>
▁deliber ation</w>
herein after</w>
or t
▁l eg
▁indus trial</w>
▁dis ab
▁c ities</w>
etw e▁en</w>
h n</w>
anu ary</w>
t al
compan i▁es</w>
▁m ess
n um
g re
▁spec ial
. 3</w>
ed ge</w>
eb ru
▁s old</w>
▁concer ning</w>
ev▁ en</w>
ow l
l iv
▁bel iev
u ture</w>
u▁ d
ev▁ el</w>
ec tive</w>
▁vehic le</w>
▁f av
spec ially</w>
ef ul</w>
▁Ch ung
▁med ium</w>
▁loo king</w>
▁m en</w>
▁cont ents</w>
▁crea ted</w>
op s</w>
g round</w>
▁id enti
. 2</w>
▁cl aim
a▁ m</w>
i very</w>
ail able</w>
▁opin ion</w>
▁aud it</w>
▁Tr ade</w>
i o▁ns</w>
ti▁ ons</w>
d ro
▁L and</w>
l aw
3 rd</w>
C i▁ty</w>
on ▁e</w>
on ly</w>
us ▁ed</w>
m any</w>
▁th a▁t</w>
ell ing</w>
ye a▁r</w>
in c▁
s y</w>
at▁ ic</w>
tif ul</w>
ex pl
▁sever al</w>
a i▁n
ar ant
▁P ublic</w>
wh en</w>
ar ter</w>
▁R ec
ir ect</w>
iqu e</w>
inc l▁
e un</w>
▁j obs</w>
▁design ated</w>
▁cl ear</w>
a▁n g
or ry</w>
▁need s</w>
ch airm▁an</w>
▁prof essi
▁en ough</w>
▁happ y</w>
k n
ann ed</w>
rea m</w>
▁D ae</w>
▁par ties</w>
▁chang es</w>
y ears</w>
a▁ ys</w>
▁sim ilar</w>
▁f arm
▁equ ipment</w>
c ul
b us
▁t▁ o</w>
en ed</w>
▁pres ent</w>
▁at t
n▁ ow</w>
▁fil m</w>
▁m om
fac il
▁l anguage</w>
▁dis trict</w>
▁A gency</w>
ab il
▁S ung</w>
▁iss ues</w>
▁administr ation</w>
▁on line</w>
sup po▁rt</w>
op ping</w>
s ang
▁cont ent</w>
mos ph
▁phot o</w>
ol o▁
an▁ g
l ow</w>
in▁ gs</w>
in s</w>
gr ic
▁stat us</w>
▁pres s</w>
▁an sw
ch e▁on</w>
▁k ind</w>
t▁ ing</w>
▁m anufactur
▁poin ts</w>
ick ly</w>
▁J i</w>
ot t
▁open ed</w>
con ven
▁us ers</w>
um e</w>
m ar
i▁ r
▁re port
ro om</w>
ae j
ester day</w>
a▁ le</w>
t w
▁P h
ti on
Kore▁ a</w>
▁pas sed</w>
▁includ ed</w>
▁e duc
▁St ate</w>
▁det ails</w>
▁o il</w>
wh i▁le</w>
▁t arg
h ea
en d▁
mon th</w>
▁reg ulations</w>
ch ang
▁en ergy</w>
for cement</w>
▁1 3</w>
▁A sian</w>
tur al</w>
▁t akes</w>
s er
▁s ports</w>
▁c am
n er
sti m
▁sus pec
▁un iversity</w>
▁exper i
▁en ter</w>
au ght</w>
▁contro versy</w>
▁ill egal</w>
▁ch ief</w>
u▁ se</w>
m a▁r
▁ter ms</w>
▁l ost</w>
. 1</w>
e▁ ty</w>
p▁ ar
o▁ nd</w>
▁rec ru
▁H an</w>
t ee</w>
oo k
▁pic ture</w>
▁A nd</w>
ucl ear</w>
ou▁ l</w>
▁prin ci
t▁ ly</w>
g overn
. 6</w>
tern oon</w>
m i▁n
l ife</w>
▁g etting</w>
▁natur al</w>
▁f inis
▁recor d</w>
▁progr ams</w>
I ▁
d on▁g</w>
▁m et
c ▁e</w>
▁pl aces</w>
as tic</w>
▁s ett
iv ely</w>
▁buil t</w>
ol ds</w>
▁t as
▁D uring</w>
▁comm issi
▁Elec tronics</w>
ent ers</w>
▁S eptember</w>
j ust</w>
t▁ ime</w>
▁Dep artment</w>
▁contin ued</w>
▁V iet
▁inter ested</w>
i▁ m</w>
▁re duce</w>
▁ac tive</w>
tr ic</w>
▁su ffer
▁Y ang</w>
d ings</w>
▁f ee</w>
ow▁ er</w>
▁1 3
our th</w>
▁s even</w>
▁sp read</w>
▁m et</w>
v ari
s k
▁par ts</w>
▁d on
▁an im
. 4</w>
od e</w>
▁t w
▁manag er</w>
▁exp and</w>
▁f all</w>
irec tor</w>
an tly</w>
▁sc ene</w>
▁1 6</w>
▁Intern et</w>
▁govern ments</w>
is ions</w>
&apo▁s ;</w>
▁g ave</w>
▁f emale</w>
▁d evel
at▁ es</w>
o ot
b ers</w>
&▁a pos;s</w>
an▁ ge</w>
ov ember</w>
l▁ ike</w>
l ong</w>
G ye
i ent</w>
▁tri p</w>
▁L iber
et ary</w>
y le</w>
orpor ation</w>
j ong</w>
e▁ se</w>
wh ere</w>
f u▁
g n
ad ministr
▁underst and</w>
enc ▁e</w>
▁st aff</w>
▁cons ult
▁com b
J ung</w>
▁busin esses</w>
b etwe▁en</w>
ain▁ st</w>
▁d eath</w>
pl ay</w>
ad s</w>
▁h y
▁G od</w>
b▁ e
▁determ ined</w>
▁consid ered</w>
or ed</w>
▁typ e</w>
▁sched ule</w>
f un
▁tr affic</w>
▁ et</w>
eti tion</w>
▁inten ds</w>
f ro▁m</w>
p ite</w>
p as
▁s ea
▁be h
&a▁po▁s ;t</w>
▁ret ur
▁O ctober</w>
est ablis
▁prescri bed</w>
ear ing</w>
tu ally</w>
in ning</w>
▁w oman</w>
▁t ow
onal d</w>
▁sum mer</w>
e ight</w>
▁Ad ministration</w>
g ener
▁iss ued</w>
p t</w>
h s</w>
gover ▁n
. 8</w>
▁b ig
e ering</w>
con sid
▁l ist</w>
▁eas ily</w>
▁charac ter
▁E conom
▁wee k
i▁ ly</w>
▁st ation</w>
▁infl u
an ch</w>
▁in side</w>
t in▁g</w>
p ar▁
▁sen ior</w>
at e▁d</w>
▁fam ous</w>
ell ent</w>
▁B e
▁b us
s al
a▁ e</w>
d ays</w>
art ph
▁s aw</w>
▁201 6</w>
y▁ ear</w>
▁M us
t eam</w>
▁r ice</w>
▁C l
▁l ec
p▁ ublic</w>
▁&qu ▁ot▁;</w>
istr i▁ct</w>
9 th</w>
▁sus pen
▁g oods</w>
▁ac qu
▁t ick
l ev▁el</w>
▁b ack
▁M anag
U .S.</w>
▁devel op</w>
N orth</w>
▁l ight</w>
▁de emed</w>
▁comm er
▁P er
di ff▁
▁institu tion</w>
ea▁ r</w>
▁av ailable</w>
▁d oll
▁p .m.</w>
oc ks</w>
a em
om ic</w>
c a▁n</w>
um st
&a▁ pos;</w>
▁tea ms</w>
s en
▁s ou
k no▁
is tics</w>
in ter</w>
▁trans portation</w>
▁improv ement</w>
▁immedi ately</w>
▁hea t</w>
▁A ffairs</w>
an▁ s</w>
c urr
▁con fl
▁Hy un</w>
di ffic
▁pati ents</w>
▁min imum</w>
pr is
▁l ack</w>
▁J anuary</w>
G over
▁par king</w>
▁Wh y</w>
al l▁
▁requ ir
▁contin u
s ucc
A n
▁2 nd</w>
in st
▁mat ch</w>
ot te</w>
incl▁ ud
rea n</w>
g▁ h</w>
▁w anted</w>
wi▁ t▁h</w>
sc ri
os ▁
▁Da egu</w>
at ch</w>
▁stand ards</w>
▁requ ired</w>
▁compl ex</w>
en sive</w>
b us▁
▁S pec
▁201 8</w>
u tiful</w>
▁ind ic
▁do esn</w>
▁v ac
▁person nel</w>
▁car ried</w>
vi ew
a x
▁est ate</w>
g▁ h
▁du ties</w>
▁Th ese</w>
tiv es</w>
▁h and</w>
▁$ $</w>
ti t
. 7</w>
▁hea d
s ome</w>
o▁ c
com ▁p
▁larg est</w>
▁ch airperson</w>
com m▁
▁F estival</w>
G wang
0 0
ic on
▁e stim
▁individ ual</w>
a▁ in</w>
▁vehic les</w>
▁us er</w>
▁stand ard</w>
▁m ight</w>
i f▁
ab ly</w>
,0 ▁00</w>
▁al one</w>
is ted</w>
e▁ m</w>
av ▁
▁M r.</w>
p▁ or
th ly</w>
T▁ he</w>
▁Se ung</w>
ebru ary</w>
▁do ing</w>
▁g ather
h y</w>
▁tal k</w>
▁r ap
ur s</w>
erv ation</w>
Ch ina</w>
d o▁ng</w>
▁A ugust</w>
ab out</w>
▁proper ty</w>
s iz▁ed</w>
r en
▁pro g
res ent
bas ▁ed</w>
▁g ir
em entary</w>
D istri▁ct</w>
▁sub mitted</w>
s ay
busin e▁ss</w>
▁m obile</w>
▁en d
vis ▁
▁h on
s s▁
▁l ives</w>
n▁ or</w>
▁car s</w>
▁C urr
▁c old</w>
der ly</w>
▁v illage</w>
▁go al</w>
w ide</w>
▁approv al</w>
inc i▁al</w>
p u▁
te▁ am</w>
▁ad ver
s ign
at s</w>
▁A ir
▁S ing
▁b ill</w>
▁th ing</w>
b er
▁A ll</w>
st ar
ag re
▁W a</w>
er it
si b▁
art ments</w>
Ko▁ rean</w>
▁n etw
▁fur ther</w>
y i▁ng</w>
oo▁ k</w>
▁j ud
a▁r t</w>
▁cont act</w>
w o▁
ow i▁ng</w>
E duc
▁analy sis</w>
ti▁ es</w>
▁str ateg
▁M ed
li▁ ke</w>
5 ▁
▁oper ated</w>
▁fam ilies</w>
▁T V</w>
▁expres sed</w>
▁proc ed
▁C EO</w>
▁Pro f
p o▁l
o ds</w>
▁m other</w>
▁questi ons</w>
et ed</w>
▁sing le</w>
ou l▁d</w>
h el
▁rel ation
▁bel ow</w>
▁b ank</w>
ins ula</w>
h▁ in</w>
▁w it▁h</w>
▁Prov incial</w>
on d
ef o▁re</w>
▁p oor</w>
ong er</w>
▁y outh</w>
pro sec
f il
il d</w>
f y</w>
▁& a▁
ac t▁
&a▁pos;▁ d</w>
▁y et</w>
▁cr isis</w>
▁Dec ember</w>
▁201 7</w>
▁im plement</w>
mor ▁e</w>
▁comp ens
▁19 9
▁pers onal</w>
▁lear n</w>
▁S tr
ati▁ onal</w>
▁restaur ant</w>
be i▁ng</w>
▁del ivery</w>
▁orig inal</w>
▁1 8</w>
y er</w>
k y
S u
hi▁ gh</w>
▁1 4</w>
o ff▁
▁P en
▁sh ip
▁aut om
▁ap artment</w>
▁temper ature</w>
▁L abor</w>
p ay
▁fu nd</w>
an d▁
k et</w>
▁star ting</w>
▁ind epend
▁h it</w>
▁appoin ted</w>
▁S ong</w>
▁s t▁
▁mod el</w>
a x</w>
ell ig
an▁ y</w>
▁trans fer</w>
▁coll ege</w>
ul ate</w>
▁s ent
▁em phas
▁b ad</w>
▁ur ban</w>
▁consid ering</w>
▁D ef
ul es</w>
l der</w>
&ap▁os; ve</w>
▁execu tive</w>
▁ch airman</w>
▁f elt</w>
▁exam ple</w>
▁c redit</w>
li k
▁man age</w>
▁J in</w>
ig r
ic ▁es</w>
wo▁r k</w>
▁1 ,
l eg
▁wh ole</w>
▁all eg
▁ag ric
o ke</w>
▁h o</w>
▁G u
▁C orporation</w>
ear▁ ch</w>
d u▁
cont in
▁wor k
▁J ang</w>
in to</w>
&ap▁os; re</w>
▁u til
▁lo an</w>
ul ed</w>
f a▁
m arket</w>
▁ch o
▁V ice</w>
▁high est</w>
▁ac tual</w>
▁ag encies</w>
qu al
m▁ ay</w>
▁O h</w>
▁rece iving</w>
p ublic</w>
i▁ de</w>
pr ec
i▁g n</w>
▁th ere
b r▁
▁g ames</w>
p riv
or ing</w>
c▁ il</w>
ong s</w>
m▁ it</w>
a ult</w>
▁lea ding</w>
you▁ ng</w>
ta▁ ke</w>
tr▁ y</w>
▁U .
▁K yung</w>
▁boo ks</w>
▁&▁ amp;</w>
U ▁
▁consum ers</w>
▁c entral</w>
▁J ustice</w>
c os
▁Y oo</w>
. 9</w>
▁T echn
l ea▁
a o</w>
▁v en
▁h e▁
▁exam ination</w>
l obal</w>
▁opport unity</w>
▁2 5</w>
▁d one</w>
o▁ u
D ec
▁M on
▁Kor eans</w>
▁B y</w>
▁un ion</w>
em en▁t</w>
pos sible</w>
▁ha p
▁ac tion</w>
▁a ▁
▁ref lec
▁in nov
o ch
▁e y
▁M ot
e▁ ment</w>
h ing</w>
▁r e▁
▁f re
▁F rom</w>
▁sk in</w>
▁f ell</w>
▁cer tain</w>
i▁n ce</w>
ec t▁ed</w>
▁bea utiful</w>
si▁ te</w>
Prov ince</w>
▁or dered</w>
▁I r
erm any</w>
▁A re</w>
eleb r
▁dis aster</w>
oo t</w>
h im</w>
I n</w>
▁cap ital</w>
o ts</w>
eed ed</w>
f▁ rom</w>
&ap▁os; ▁
▁reg arding</w>
▁qu ickly</w>
▁sec retary</w>
ti on▁s</w>
mosph ere</w>
▁c amp
▁con ference</w>
u g</w>
e▁n t
af t</w>
ol l▁
ib er▁
▁S m
o▁r t</w>
▁eff orts</w>
▁del iver
▁cer tific
▁re duced</w>
por ting</w>
our ce</w>
m on▁
S am
s e▁r
d uri▁ng</w>
i▁c y</w>
▁H wang</w>
F in
et c</w>
coun t</w>
ff i▁ce</w>
the▁ y</w>
pr i▁
▁y esterday</w>
▁com ing</w>
in tro
▁J eong</w>
r ight</w>
▁s ong</w>
▁deg rees</w>
▁tr end</w>
▁ris k</w>
h▁ o</w>
▁un ivers
d▁ r
▁p r▁
e▁ ss
▁I sland</w>
&ap▁os ;</w>
tr ess</w>
s ang</w>
clud ed</w>
▁Curr ently</w>
▁professi onal</w>
Or din
▁w i▁ll</w>
▁qu estion</w>
ar ies</w>
▁a head</w>
▁s ee
ur ed</w>
▁H ealth</w>
d h
▁charg es</w>
▁N ovember</w>
P r▁
4 ▁
▁h ot</w>
▁g overnor</w>
tr a▁
augh ter</w>
▁ra ise</w>
m us
m i▁
▁com es</w>
ent ing</w>
eal s</w>
▁ar ti
▁implem entation</w>
e p▁
is ten
▁driv ing</w>
▁conc entr
re▁ c
o f▁f
▁ch urch</w>
▁201 5</w>
▁wat ch</w>
▁dis t
▁D onald</w>
m ade</w>
gr ad
ec▁ ts</w>
▁ab o▁ut</w>
▁A t
ye a▁rs</w>
tim ▁e</w>
ri ve</w>
our n
▁p resid
▁commissi oned</w>
▁s ▁
▁perform ances</w>
▁occ urred</w>
tribu ted</w>
il l▁
u▁ m</w>
oun▁ g</w>
h ol
be▁c a▁use</w>
▁tri ed</w>
u ter</w>
g ing</w>
a j
▁gu id
▁doc ument</w>
sec o▁nd</w>
▁w aste</w>
C ity</w>
▁wh▁ ich</w>
▁s anc
▁broad cas
s in▁ce</w>
esti g▁
y ong
re present
A m
▁usu ally</w>
▁bur den</w>
▁Liber ty</w>
ut ors</w>
r▁ ec
ov ed</w>
eo▁ ple</w>
▁inst alled</w>
▁exc ellent</w>
▁col or</w>
over ed</w>
cor por
or thern</w>
▁in f
u▁ al</w>
oc i▁al</w>
▁Trans port</w>
d e▁r</w>
▁succ ess
▁Ch eong
▁s pr
▁Gang nam</w>
u▁ ch</w>
st anding</w>
m ee
b s</w>
▁r en
it able</w>
e th▁er</w>
▁d ou
sh o▁
v al
por ▁t</w>
▁wea ther</w>
▁hear t</w>
▁h os
s ts</w>
s h</w>
▁stor es</w>
▁reas ons</w>
id ▁ed</w>
D a
▁in jur
▁Se o</w>
wi▁ th
th i▁s</w>
er a</w>
ent▁ ly</w>
▁comm on</w>
▁ar riv
▁cr ime</w>
sy st▁em</w>
▁sum mit</w>
▁b ri
▁P eople</w>
tr ad
sel ves</w>
▁concer t</w>
i k</w>
▁f alling</w>
▁requ ested</w>
▁concer ns</w>
ativ ely</w>
▁law mak
▁F ebruary</w>
▁r ound</w>
▁sc re
s ue</w>
▁n uclear</w>
▁&apo▁s ;s</w>
li am
f l▁
▁investig ating</w>
▁6 0</w>
wh▁ ich</w>
pl ex</w>
▁M in</w>
s▁ tr
▁h otel</w>
▁h eal
▁d own
ea t
Ko▁ rea</w>
D emocr
is l
a ut
▁lear ning</w>
he▁ l
t▁ ic
i▁n a</w>
▁s pen
▁produc ed</w>
▁m ind</w>
▁h all</w>
▁Ch ung</w>
th▁ em</w>
&▁a p▁os
an▁ ts</w>
app oin
&ap▁os; ll</w>
▁Y eong
e▁ st
P reside▁nt</w>
▁l if
▁ad d
d om
▁w eb
e f▁
▁dram a</w>
ma▁ ke</w>
i▁ ef</w>
ar ded</w>
▁entr ance</w>
up s</w>
sh ar
&a pos▁;</w>
co▁m p
▁Th ank</w>
v ol
t ations</w>
B C</w>
▁prescri be</w>
▁lea ders</w>
▁ach iev
iti e▁s</w>
ea▁ ch</w>
em b▁
S up
el▁ y</w>
▁s yst
pro t
in ary</w>
▁imp act</w>
um an</w>
ec▁ ted</w>
w r
en viron
i en▁ce</w>
on str
igh▁ t</w>
ay▁ or</w>
B S</w>
is on</w>
▁br and</w>
▁T ae</w>
▁reg ional</w>
▁sit es</w>
&▁ q▁uot;</w>
t em
▁s ense</w>
j ob</w>
un ities</w>
i e▁
▁wor th</w>
▁tr ying</w>
▁super vis
inten dent</w>
&▁a pos;
▁mat ter</w>
iv ▁e</w>
i h
duc ing</w>
▁inter pre
u ge</w>
gr o▁
▁Reg arding</w>
k ▁ed</w>
d ue</w>
cl u▁
a▁ ble</w>
ab or
C O</w>
▁st op</w>
▁pres sure</w>
dr aw
as h</w>
ai▁r s</w>
S ou▁th</w>
▁S ang</w>
an ch
▁t im
▁s exual</w>
il ed</w>
au th
▁L otte</w>
4 0</w>
▁br ing</w>
▁s ea</w>
tr i▁al</w>
e▁n s</w>
ae k
▁& q▁u
s▁ p
s i</w>
g▁ ed</w>
a▁ ri
▁in ter</w>
h ea▁
▁cri tici
▁Al so</w>
▁3 rd</w>
Comm itt▁ee</w>
▁circ umst
In dus
i p▁
▁comm unication</w>
m ake</w>
w▁ or
i on▁s</w>
olo▁ gy</w>
▁hap pen
▁sup pl
th e▁r</w>
▁foll owed</w>
announ c▁ed</w>
▁for ward</w>
▁f requ
icon duc
ec o▁n
Un iver
▁f ig
▁ac adem
▁K ong</w>
▁th e▁re</w>
u i</w>
j▁ in</w>
T V</w>
▁mark ets</w>
▁adv ant
oh n</w>
t i</w>
ibr ary</w>
d in▁g</w>
ou▁ se</w>
▁sub par
▁s ession</w>
▁m etropolitan</w>
▁M ost</w>
▁tr ue</w>
m emb▁er</w>
▁ser ies</w>
Ordin an▁ce</w>
▁n orm
▁ex erc
sh▁ ip</w>
ell s</w>
r i</w>
▁relation ship</w>
pro m
▁go▁ ing</w>
o in▁
▁educ ational</w>
▁Def ense</w>
▁p un
▁m o
et e</w>
▁win ter</w>
v ic
▁predic ted</w>
▁cou ldn</w>
t ation</w>
ess ing</w>
b rea
ye▁ ong
thr▁ ee</w>
N at▁ional</w>
▁w id
s▁ oo</w>
▁L ocal</w>
▁re duction</w>
▁sh owing</w>
▁particip ants</w>
▁m emor
M anag
▁2 4</w>
at t▁
▁l ow
in stitu
oth es</w>
d▁ id</w>
▁F und</w>
wh at</w>
ult i</w>
iti ons</w>
e ign
▁af ternoon</w>
manag eme▁nt</w>
g re▁
ut or</w>
t ake</w>
ic ally</w>
▁victi ms</w>
direc t▁or</w>
▁d uty</w>
▁acc idents</w>
▁it self</w>
▁bo ard</w>
wor ld</w>
h os
▁r ates</w>
▁c aught</w>
d oc
▁s ays</w>
it▁ s</w>
▁intro duce</w>
ti▁ n
In tern
▁N am</w>
▁c enters</w>
t ained</w>
e▁ ar</w>
▁beh ind</w>
ab les</w>
▁enter pr
▁ann ual</w>
e or
a▁ ir
▁r ain</w>
▁coun cil</w>
▁N am
▁G ermany</w>
▁dis tribution</w>
t▁ ri
i▁ or</w>
rou▁ nd</w>
P ro▁
x t</w>
s et</w>
s em
U S</w>
Prov inc▁e</w>
▁cl ub</w>
st and
n e
am ▁e</w>
▁high ly</w>
▁Prof essor</w>
j i</w>
oi▁n t</w>
h i▁s</w>
e i</w>
▁wr iting</w>
▁r ead</w>
t oo</w>
▁f ile</w>
ea▁ n</w>
▁organiz ed</w>
▁e ight</w>
▁Manag ement</w>
in d▁
er ies</w>
▁mom ent</w>
▁eval u
▁H igh</w>
onom y</w>
▁corpor ate</w>
ul▁ ar</w>
me ans</w>
is ter</w>
▁ey es</w>
▁benef its</w>
O S
it▁ ion</w>
ar ily</w>
▁struc ture</w>
▁p or
n ec
▁w in</w>
dic tion</w>
k▁ ing</w>
▁ow ner</w>
▁compl ain
▁laun ched</w>
ter ▁
inv est
M in▁
▁pop ulation</w>
▁Se ong
tur ▁e</w>
p resid
▁int egr
▁differ ence</w>
ev al
▁ar gu
▁R e
ener al</w>
ear by</w>
▁play ed</w>
▁atten d</w>
▁D es
▁el ig
ular ity</w>
f ace</w>
m in▁
ar t▁
e o▁n</w>
S▁e oul</w>
▁prot ection</w>
▁im m
▁en cour
ur ▁es</w>
▁var iety</w>
▁comp reh
▁D irector</w>
m es</w>
ar▁ d</w>
por ▁ts</w>
T h▁e</w>
▁wr ong</w>
▁enter ed</w>
▁foc us</w>
wh ile</w>
▁indus tries</w>
▁hea vy</w>
evelop ment</w>
▁In v
i▁ f</w>
▁vi ew</w>
▁c ut</w>
▁In frastructure</w>
su▁ r
k en</w>
▁ad vis
▁Dis trict</w>
aus ▁e</w>
▁c ur
l ement</w>
m in</w>
c ast</w>
a ul
▁m as
▁n ation</w>
n▁ am</w>
▁at mosphere</w>
f in▁
a▁ d</w>
▁s n
uclear ization</w>
F or
▁beg inning</w>
ans ion</w>
▁de pos
▁Ch airperson</w>
h ous
▁ph ys
v e
&ap▁os▁ ;
vari o▁us</w>
▁notif y</w>
▁fil ed</w>
a▁ fter</w>
ea ter</w>
▁Rus sia</w>
▁coll ection</w>
ul ated</w>
▁t aste</w>
▁sm artph
▁k inderg
om▁ ic</w>
▁f ather</w>
i▁ ze</w>
s er▁
▁r e</w>
▁Y ong
si▁ de</w>
e▁ y</w>
▁vis itors</w>
▁res t</w>
▁gu arant
▁im age</w>
tr o▁
d ec▁
▁v ice</w>
▁Com p
sch o▁ol</w>
▁buil d</w>
tic ism</w>
tain ment</w>
m uch</w>
e▁r n</w>
eti c</w>
b l▁
▁Rep resent
tis ts</w>
ed eration</w>
el ds</w>
sp▁ ec
inv estig▁
▁inter view</w>
▁hol ding</w>
l i▁ne</w>
ap pro
▁custom er</w>
comp eti
▁sus pic
oo king</w>
b and</w>
ar ea</w>
▁s ale</w>
▁mess age</w>
▁h our</w>
▁Sec retary</w>
▁S un
oo▁ d</w>
neg oti
f ood</w>
▁real ity</w>
istr ation</w>
▁av o
▁Spec ial</w>
os eon</w>
con struc
▁entr usted</w>
▁ear lier</w>
igh t
J ong</w>
bec au▁se</w>
▁res ources</w>
g le</w>
an e</w>
▁G r
in tern
in ▁e</w>
▁trans ac
S erv
ivers ary</w>
▁g row</w>
▁4 th</w>
▁m ut
ul l
et ings</w>
▁b ase</w>
c ally</w>
me▁ m
eh ol
▁enj oy
▁L ea
ust ment</w>
b ass
ver s</w>
ag ain▁st</w>
s om
▁repor ts</w>
o in</w>
▁m en
s ame</w>
▁enti re</w>
w ou▁ld</w>
g row
sc a▁le</w>
r▁ ea
l san</w>
▁el derly</w>
▁bl ood</w>
f ully</w>
▁wh ose</w>
▁univers ities</w>
▁1 7</w>
n on</w>
▁a im
▁C ulture</w>
id ge</w>
▁S on</w>
s ystem</w>
i ec
▁particip ation</w>
▁hou ses</w>
h▁ ow</w>
▁particip ating</w>
▁sanc tions</w>
Ar tic▁
▁inc ident</w>
owl edge</w>
b ack</w>
expec t▁ed</w>
▁inst all
su▁ ng</w>
ow▁ ed</w>
▁m ul
ou gh
n ey</w>
k ey</w>
▁th em
▁sh opping</w>
▁s am
t▁h eir</w>
▁p ost</w>
tiv eness</w>
ar b
▁m ach
e i▁
c ase</w>
K i▁m</w>
▁vi ew
▁pos itive</w>
▁div ision</w>
t our
a f▁
▁A p
or d</w>
▁g reen</w>
qu are</w>
ar▁ ea</w>
▁tea cher</w>
▁F ac
▁stat ement</w>
l aw</w>
▁rea ding</w>
▁w ays</w>
▁Ch eong</w>
▁Americ an</w>
u▁l t</w>
res i▁d
im prov
i en
D ep
rea t</w>
M oon</w>
C ent▁er</w>
▁w al
t op</w>
t est</w>
h er
ec ting</w>
▁t en
b el
▁dis ease</w>
pres ▁
o e</w>
sh all</w>
j us
en▁ se</w>
▁% %</w>
ur t</w>
▁rel ease</w>
▁lo ans</w>
rea▁ se</w>
1 0
▁r ed</w>
▁m er
di ffer
▁r ati
l im
it ation</w>
eo pl▁e</w>
▁spec ific</w>
rea l</w>
ing ly</w>
▁p o
▁rece ip
cal l▁ed</w>
▁tour ists</w>
▁f ailed</w>
▁ ing</w>
su p▁
▁Y ong</w>
ub ▁
ne▁ xt</w>
el ed</w>
end a</w>
▁ac ross</w>
ye▁ on</w>
Par t▁y</w>
▁s ymp
▁g round</w>
▁A sia</w>
▁lim ited</w>
e um
▁wor ked</w>
▁L ast</w>
mee ti▁ng</w>
ae k</w>
▁accoun ting</w>
20 1▁
I n▁
▁sol ve</w>
▁d irect</w>
▁Ch ief</w>
su▁ p
pr▁ ov
ol▁ d</w>
a por
k ay</w>
ivers i▁ty</w>
▁p ot
▁los s</w>
▁direc tion</w>
▁d est
▁agre ed</w>
w s</w>
m a▁ny</w>
m illi▁on</w>
iber▁ ty</w>
▁For eign</w>
memb e▁rs</w>
d ev
am ed</w>
▁tea chers</w>
▁sched uled</w>
1 00</w>
iz es</w>
▁or din
▁inst ead</w>
s y▁
d a▁y</w>
o ffici
c i▁ty</w>
at▁ er</w>
& amp;</w>
it▁ ies</w>
f uture</w>
▁pos ted</w>
▁1 9</w>
▁1 8
s ity</w>
▁w ▁
▁&a p▁os
▁Viet nam</w>
▁Res earch</w>
▁Rec ently</w>
e▁ l</w>
S t▁
▁analy zed</w>
h ere</w>
▁Y ork</w>
iv e▁r
▁p oll
▁s ud
▁s cor
d riv
G ye▁ong
ch ain</w>
▁wh ite</w>
▁sim ple</w>
▁coun sel
por ▁
▁st ay</w>
tern al</w>
▁v ir
▁A hn</w>
so▁ o</w>
A r▁
m▁ in</w>
▁driv er</w>
p▁ r
pri ate</w>
A▁ ct</w>
▁O ur</w>
l▁ es</w>
▁hear ing</w>
▁p aper</w>
▁h ands</w>
▁all ow</w>
u ▁e</w>
p ubl
enti oned</w>
▁b anks</w>
th▁ rough</w>
1 5</w>
▁some one</w>
▁d eal</w>
sec ▁
l▁ th</w>
e▁ ar
▁prov isions</w>
anc i▁al</w>
p ower</w>
k now</w>
2▁ 0
agrap hs</w>
f▁ o▁r</w>
▁pr em
sti tu▁
▁Sec urity</w>
▁Indus trial</w>
per c
d o
▁exc ept</w>
for▁ m
▁tem por
re t</w>
▁Pro sec
1 3
▁s om
▁househ olds</w>
▁f ully</w>
▁S afety</w>
a b</w>
▁pass eng
▁negoti ations</w>
b ir
Com m▁
▁b ought</w>
s c▁
ea v
y cle</w>
r im
er ce</w>
S .
g ery</w>
Minis t▁ry</w>
1 8</w>
&ap▁os; v▁e</w>
▁tr ain</w>
▁pl ant</w>
▁ch ance</w>
ow ers</w>
in ds</w>
con f
as ▁t</w>
▁cl othes</w>
ter y</w>
1 2</w>
pl a▁ce</w>
o ff</w>
coun ▁
ill ing</w>
▁s atis
uc k</w>
ear ance</w>
▁M ore</w>
▁F oundation</w>
rou gh
s a</w>
id ly</w>
er ve</w>
an▁ d
ain i▁ng</w>
▁s ell</w>
▁invol ved</w>
▁candid ate</w>
▁p m</w>
in ner</w>
▁re ven
▁co ff
ip p
f▁ ul</w>
el imin
▁En viron
we▁ ll</w>
dis tr
▁re form</w>
▁mov ement</w>
▁i r
▁J in
y ers</w>
an c▁
ag ing</w>
▁ser ious</w>
▁difficul ties</w>
▁becom es</w>
▁W elfare</w>
h ome</w>
g l
▁en sure</w>
fi▁ r
▁di ed</w>
▁res tric
▁in iti
▁el ementary</w>
▁big gest</w>
0 0,000</w>
▁g as</w>
c ity</w>
▁fav or
m p
Democr at▁ic</w>
6 ▁
▁D on</w>
in form
▁e specially</w>
▁C ould</w>
re▁ g
l ymp
g▁h t</w>
P ol
▁t it
o▁ un
▁tur ned</w>
▁per form</w>
▁E ar
ul ting</w>
▁str essed</w>
▁new ly</w>
▁complet e</w>
pl om
enti▁ al</w>
ir e▁c
▁compens ation</w>
▁O f</w>
▁K ing</w>
im plem
▁ y</w>
ro w▁
h ist
2 5</w>
▁recor ds</w>
▁elig ible</w>
ci pl
▁pr ec
▁n ation
In che▁on</w>
▁dis clos
▁bl ack</w>
es▁ s
an ad
▁w on
am o▁ng</w>
▁sp eed</w>
▁f ro▁m</w>
▁Je oll
b u</w>
at tac
I ▁n
oti ce</w>
▁w ish</w>
▁sec ure</w>
▁N ow</w>
s u</w>
f▁ l
▁pl at
▁l iv
t ent</w>
ou▁ gh</w>
is i▁on</w>
▁d ream</w>
don es
▁strength en</w>
▁j ur
w a▁
▁pre vention</w>
▁environ mental</w>
▁b ar
▁b al
▁St ud
d oor</w>
▁C ultural</w>
e o▁ng</w>
▁str eet</w>
▁mater ial</w>
▁th▁ at</w>
▁occ up
&a▁pos;▁ m</w>
▁sh own</w>
▁recomm ended</w>
▁1 0th</w>
eb ook</w>
▁for ce</w>
▁20 th</w>
ou▁r t</w>
▁n ature</w>
▁determ ine</w>
▁deliver ed</w>
▁a .m.</w>
▁foll ow</w>
▁d ig
ustr al
s e▁c
am a</w>
▁agric ultural</w>
i▁ te</w>
ess▁ or</w>
econ om▁ic</w>
aej eon</w>
ac ks</w>
▁ann iversary</w>
▁l un
▁e ss
y oung</w>
he▁l p</w>
▁hol iday</w>
en▁ d
▁E ast</w>
a im</w>
▁o ffer
▁loo ks</w>
op ped</w>
id s</w>
▁s ound</w>
i ation</w>
g en</w>
▁Su per
▁re ti
si t▁y</w>
ic an</w>
▁separ ately</w>
▁qu arter</w>
▁netw ork</w>
h om
spec i▁al</w>
eas es</w>
if y</w>
▁p ain</w>
▁L G</w>
sp e▁
er i▁ng</w>
▁implem ented</w>
▁sk ills</w>
ur ities</w>
u x
▁un f
pre v
n ation▁al</w>
is tic</w>
clud ing</w>
Minis t▁er</w>
er t</w>
6 0</w>
r▁ y</w>
o▁ m</w>
f▁ irst</w>
ea ted</w>
▁intern al</w>
as n</w>
▁2 00</w>
trib ute</w>
e u
▁super intendent</w>
▁D evelopment</w>
J ap▁
D ong</w>
m ain
et er
▁wh ic▁h</w>
▁s on</w>
▁ab ove</w>
▁K won</w>
r o</w>
it▁ al</w>
b a▁
a w▁
▁vis iting</w>
▁invest ors</w>
▁f ourth</w>
▁exch ang
▁G eneral</w>
th ea
▁th eme</w>
▁regis tered</w>
▁mov ed</w>
▁C up</w>
mark ▁et</w>
fr▁ ee</w>
b eg
▁ra ising</w>
▁exp ansion</w>
pro je▁ct</w>
i▁ ci
▁p eace</w>
▁ev idence</w>
▁con dition</w>
ent▁ al</w>
▁c elebr
pro bl
num b▁er</w>
▁in s
▁en h
▁For mer</w>
co▁ un
▁s ure</w>
▁par k</w>
▁o lder</w>
▁l and
w▁ ant</w>
ten ance</w>
t oc
l a▁r
an a</w>
▁m id
▁auth ority</w>
▁ac t</w>
t ogether</w>
ou▁n t</w>
▁corpor ation</w>
▁candid ates</w>
ow on</w>
in spec
M ar
▁gather ed</w>
▁s orry</w>
▁includ es</w>
▁gener ation</w>
▁Ab out</w>
m otion</w>
b um</w>
E lec
Ass oci
▁r ad
▁eff ects</w>
rou ght</w>
fri end</w>
▁un it</w>
▁f un</w>
▁circumst ances</w>
▁c op
b▁ ec
▁all owed</w>
t oday</w>
▁conven ience</w>
o▁ k</w>
ic h
▁qu al
t ea▁
it ted</w>
e▁ as
▁D ue</w>
I f</w>
▁un ique</w>
▁rel atively</w>
th ere</w>
p▁ ort</w>
er i
en i▁ng</w>
▁st ep</w>
▁publ ic
▁M at
▁tax i</w>
j ud
O ffi▁ce</w>
u al
sh ou▁ld</w>
g e▁n
▁g re
▁A ir</w>
ult u▁re</w>
▁pl ac
▁bas is</w>
n▁ ing</w>
en▁ t
ad ing</w>
▁In di
m od
▁H all</w>
es day</w>
ter m</w>
ch ange</w>
ellig ence</w>
▁w ife</w>
▁reg istration</w>
▁pro posed</w>
▁n earby</w>
ag ain</w>
2 2</w>
ris ti
▁Sh in
eti mes</w>
e ous</w>
i▁s m</w>
Y oung</w>
▁n eigh
▁id ea</w>
el ect</w>
is diction</w>
im self</w>
▁s elling</w>
▁add ress</w>
duc t</w>
co▁ me</w>
▁resol ution</w>
▁S cience</w>
▁7 th</w>
s n</w>
En g
▁loc ation</w>
▁Techn ology</w>
h ouse</w>
ea ker</w>
A▁ r
▁go es</w>
sm a▁ll</w>
▁air port</w>
or ▁s</w>
Ch ung
▁war r
ut ting</w>
sa▁ me</w>
occ er</w>
o x
it ure</w>
a▁ ted</w>
▁typ es</w>
▁certific ate</w>
T S</w>
P h
▁separ ate</w>
▁W on</w>
▁bro ke</w>
▁aud ience</w>
iv al</w>
ic ine</w>
u▁ ty</w>
1 9</w>
▁ha ir</w>
▁con trac
▁prof it</w>
sh i▁
com pl▁
▁web site</w>
▁re plac
▁F ood</w>
i▁ l</w>
it ment</w>
▁m entioned</w>
▁1 5
h w
▁draw ing</w>
▁doll ars</w>
▁Je on
▁C o
▁5 th</w>
▁201 4</w>
e en
Prov ▁
w▁h ic▁h</w>
f▁ am
▁ev er</w>
oun▁ d</w>
m en</w>
j▁ u</w>
▁m y
▁head quarters</w>
t ea
▁car ry</w>
▁b at
or i</w>
fort able</w>
▁rea ched</w>
▁proper ly</w>
s eong</w>
ou ▁s</w>
fo▁r m</w>
ec k</w>
c e▁n
sch ool</w>
p▁ er</w>
1 1</w>
▁pop ularity</w>
m▁ y</w>
e ers</w>
201 8</w>
▁s afe</w>
▁H is</w>
s ▁e</w>
s▁ ho▁
anc y</w>
▁clos ed</w>
▁S i</w>
ear ▁s</w>
▁s ign</w>
▁over all</w>
ye o▁n</w>
p reside▁nt</w>
dr▁ en</w>
Par ty</w>
▁viol ence</w>
s▁ ion</w>
on ing</w>
eb all</w>
▁v oice</w>
▁a ▁t</w>
end▁ ly</w>
art me▁nt</w>
al ization</w>
um▁ ber</w>
▁consid eration</w>
▁coll ected</w>
ti▁ v
P res▁
cl a▁
▁laun ch</w>
▁for est</w>
o▁m y</w>
o ffice</w>
ch arac
▁it em</w>
h▁ eld</w>
g overnment</w>
▁clas ses</w>
st▁ r
ol ution</w>
agn os
vi ol
ig ▁n
at▁ ch</w>
off i▁ce</w>
be e▁n</w>
▁t urn</w>
▁signific ant</w>
ploy ment</w>
d iv
v a▁ri
s▁ an</w>
en▁ d</w>
an ti
▁s av
▁prog ress</w>
▁crea ting</w>
▁b ott
▁W ave</w>
n▁ ment</w>
in g▁
e▁ ms</w>
con t▁
b o</w>
▁dec l
m a▁n</w>
▁pri ze</w>
s ti▁
1 8
z ing</w>
ul t▁
t le</w>
par ty</w>
con tro
s im
▁receip t</w>
▁p l▁
▁grad u
▁compreh ensive</w>
▁P yeong
re▁ l
it▁ tee</w>
L iber▁ty</w>
&apos; t</w>
p ean</w>
over y</w>
▁cer tif
oo d
iz ▁
ing u
ation ▁s</w>
▁them selves</w>
em pl
▁coff ee</w>
su it</w>
▁af t▁er</w>
ok es
iv il</w>
N ew</w>
▁tal ks</w>
un der</w>
t u▁r
oun ding</w>
ex am
ea u</w>
▁n ur
▁func tion</w>
▁S K</w>
▁tour ism</w>
ch i</w>
ab y</w>
▁wa it</w>
t▁ il</w>
il i▁ty</w>
be▁c au▁se</w>
a ign</w>
▁pro posal</w>
▁Bl ue</w>
▁dis mis
▁buil dings</w>
▁ab ility</w>
▁L im</w>
y ph
▁f ast</w>
▁7 0</w>
un i▁ty</w>
it or</w>
comp any</w>
udg et</w>
k in▁g</w>
t▁h er</w>
re▁ s
oc ked</w>
e un
a▁ f
E m
C EO</w>
▁ur g
▁ex port</w>
▁co ach</w>
manag ▁
c▁ t</w>
P l
▁consult ation</w>
in n
▁sc ope</w>
▁s earch</w>
▁h uge</w>
▁design ed</w>
▁charac ter</w>
ver se</w>
ish ment</w>
▁b it</w>
iti▁ ng</w>
▁report edly</w>
▁A gric
tr a</w>
m▁ on
ester n</w>
ular ly</w>
ub e</w>
t e▁n
▁201 9</w>
s▁ et</w>
olog ies</w>
d am
Se ou▁l</w>
ol f</w>
▁presid ential</w>
▁app eared</w>
▁sm o
▁den uclearization</w>
▁arres ted</w>
a▁l f</w>
▁commer cial</w>
▁Su won</w>
str u▁c
s oci▁al</w>
or ies</w>
m en▁ts</w>
art en</w>
ter n</w>
▁sec tion</w>
▁respon sible</w>
▁prot ect</w>
con sum
▁r an
▁Un like</w>
ti e▁s</w>
▁n otice</w>
p▁ op</w>
at▁ ions</w>
Gye o▁ng
er ous</w>
▁s h▁
▁prov ides</w>
▁per c
si o▁n</w>
▁Indus try</w>
&a▁pos▁ ;m</w>
▁fi x
▁every one</w>
▁cri ticism</w>
▁cl ean</w>
▁S un</w>
m an▁
j e</w>
▁det ailed</w>
h▁ ead</w>
atten tion</w>
▁play er</w>
▁househ old</w>
▁confl ict</w>
▁R iver</w>
pl▁ an</w>
yp toc
cl ear</w>
▁Ta i
▁Dec ree</w>
▁Ch ang</w>
▁B o
▁19 th</w>
t▁ w
o▁n y</w>
d e▁c
▁dep ending</w>
▁ag enda</w>
▁ac tually</w>
oo▁ l</w>
▁prov iding</w>
▁lim it</w>
▁l og
▁intro duction</w>
op er▁
in v▁
g▁ i</w>
▁recogn ized</w>
▁pl anned</w>
ar ing</w>
▁ow ners</w>
▁manufactur ing</w>
J i</w>
▁g iving</w>
h ear
▁s urr
▁g ap</w>
▁aff ili
▁Y ear</w>
am p</w>
▁answ er</w>
sy ch
▁Un der</w>
N S</w>
▁character istics</w>
w▁ an</w>
g ation</w>
lar ation</w>
▁T oday</w>
▁Euro pe</w>
apor e</w>
▁rati o</w>
▁d ance</w>
ic ts</w>
▁prac tice</w>
▁phys ical</w>
st at
U .
▁sh ip</w>
▁m ak
s▁ u
com ing</w>
a▁n cial</w>
▁sign ed</w>
▁Ex c
tron ic</w>
id o</w>
▁ab road</w>
▁Kor ▁
rece iv
ow er
con diti
▁Econom ic</w>
y un</w>
in▁ k</w>
▁t ou
▁every thing</w>
e▁ ts</w>
att e▁n
▁hea ds</w>
▁div ided</w>
▁Y ang
w ards</w>
en tr▁
▁targ et</w>
▁Th rough</w>
develop me▁nt</w>
▁h ear</w>
▁C entral</w>
af e▁ty</w>
o▁ ld</w>
g es</w>
▁critici zed</w>
n▁ um▁ber</w>
b efo▁re</w>
ad ▁e</w>
▁stud ying</w>
▁crea tion</w>
▁Fin ance</w>
or▁ y</w>
ir ing</w>
▁2 1</w>
ac c▁
▁main tain</w>
▁al though</w>
elf a▁re</w>
▁ex emp
i▁ um</w>
Ch i▁na</w>
▁wat ching</w>
eep ing</w>
bro ad
b ea
▁expec ts</w>
▁elec tric</w>
▁al most</w>
▁disab led</w>
n▁ er</w>
ex pres
▁l etter</w>
▁cl ean
▁1 8th</w>
r a▁te</w>
eed s</w>
ch ar
&▁a pos▁;</w>
▁ad j
s oo</w>
s eo</w>
m ation</w>
0▁ 0</w>
▁w ave</w>
▁res ear
▁in struc
k y</w>
ad ium</w>
ent e▁r</w>
an m
▁f air</w>
▁ar tists</w>
▁any thing</w>
m ay</w>
il es</w>
p▁ eople</w>
▁tr ust
▁sem iconduc
▁selec tion</w>
▁sea ts</w>
wh ic▁h</w>
en▁ ed</w>
ann er</w>
▁respon sibility</w>
▁princi ple</w>
▁becom ing</w>
s▁ ee</w>
oun ded</w>
k n▁ow</w>
▁s elect</w>
▁rea ch</w>
ong ▁
A l
1 3</w>
▁wa iting</w>
▁ch all
▁a ward</w>
c aus
▁er a</w>
▁Sup port</w>
un k</w>
me d▁
&a▁ p▁os
▁prepar ing</w>
eco▁n omic</w>
7 ▁
▁retur ned</w>
▁dram as</w>
▁C anad
t o▁r</w>
p▁ ed</w>
▁chil d
ad d
il▁ ity</w>
est ab
▁revis ion</w>
sh ips</w>
r ect</w>
▁main ly</w>
▁employ ee</w>
ov▁ ern
ac king</w>
▁k illed</w>
h ou
ab▁ or</w>
▁8 0</w>
▁ en</w>
▁a b▁
▁B ud
▁6 th</w>
sc ape</w>
res p
h el▁
▁estim ated</w>
uc▁ h</w>
▁vac ation</w>
▁t ex
us ion</w>
th em
re g▁
g un</w>
▁subsid ies</w>
▁r ental</w>
c ur
Ch▁ oi</w>
▁me etings</w>
▁claim ed</w>
o▁ w</w>
on ds</w>
ell ow</w>
▁jur isdiction</w>
▁comm unic
▁appoin tment</w>
▁J oseon</w>
▁resid ent</w>
wh▁ at</w>
ch arg
c re▁
▁shar ing</w>
▁Represent ative</w>
osp it
▁for med</w>
▁arres t</w>
p oin
o▁ t</w>
o▁ ff</w>
ou▁ r</w>
F r
▁dis app
▁wee ks</w>
▁mov ies</w>
▁l ic
▁expec t</w>
▁con vers
t▁h a▁t</w>
es ter</w>
u▁ te</w>
u th</w>
gro▁ up</w>
fri end▁ly</w>
▁per mission</w>
resid en▁ts</w>
mo▁ st</w>
▁r ising</w>
onom ous</w>
n▁ eed</w>
1 2
▁reg ions</w>
comp a▁ny</w>
▁mov ing</w>
s or
r▁ ee</w>
reg ul
igh ting</w>
g a▁
▁announ cement</w>
▁A ustral
og y</w>
Gye▁ong gi</w>
▁I m
▁H u
ev ent</w>
ecu tive</w>
pl an</w>
▁ex act</w>
it ary</w>
U ▁n
▁cor rec
▁D id</w>
▁run ning</w>
▁im pres
y oun▁g</w>
d▁ is
B us▁
▁s ens
r▁ un</w>
do▁ wn</w>
; ▁t</w>
▁l onger</w>
▁ar ticle</w>
o▁ or</w>
li▁ fe</w>
ere fore</w>
▁t able</w>
▁meth ods</w>
▁D aejeon</w>
w as
▁sub scri
w▁h en</w>
u ti▁on</w>
o▁ wn</w>
ess ment</w>
b est</w>
a▁ y
▁f res
ang ▁
▁recomm end</w>
▁investig ate</w>
▁del ayed</w>
▁3 1</w>
er ry</w>
▁O ffic
v i▁ce</w>
▁Y e
ee ts</w>
a h
▁M al
▁&q▁u ot▁;</w>
end ation</w>
c e▁
▁Ex per
ten s</w>
comp anies</w>
ati cally</w>
a i▁n</w>
C T</w>
▁main tenance</w>
▁hist or
s c▁h
priv a▁te</w>
l if
Prov inci▁al</w>
unic ip
or d▁er</w>
al ized</w>
▁ma x
en g</w>
N▁ orth</w>
▁s cience</w>
▁f os
e▁ es</w>
▁succ ess</w>
▁dem onstr
▁sch ol
pos iti▁on</w>
▁w ind</w>
▁u ng</w>
▁improv ed</w>
▁for eign
▁cho ose</w>
▁Th erefore</w>
▁Euro pean</w>
ow▁ n</w>
▁par t
▁Con sid
▁12 th</w>
us band</w>
fl ect</w>
▁h op
▁bo x</w>
▁In dones
us h</w>
▁mean ing
▁acc ess</w>
▁En forcement</w>
re v▁
r ing</w>
e ech</w>
▁g ift</w>
▁T ur
l ight</w>
con v
at▁ io▁n</w>
▁w ants</w>
▁r ange</w>
our ism</w>
i▁ ties</w>
ag ric
20 0
▁l at
▁influ ence</w>
▁br anch</w>
sit u
k ▁s</w>
▁sh ou
▁minis ter</w>
▁all ow
us es</w>
pol ▁
m▁ ak
h ead
▁w ide</w>
▁rem aining</w>
▁fac tory</w>
re pres
s on
e tion</w>
▁Chung ch
ch ▁ed</w>
b ing</w>
▁coll ap
w eek</w>
so▁ me</w>
S. -
▁exerc ise</w>
▁accoun ts</w>
um s</w>
ip ped</w>
as ty</w>
1 5
▁pl aying</w>
▁l in
ter ing</w>
per son</w>
f ull</w>
▁brea k</w>
▁dr ink</w>
▁c ro
ing ▁s</w>
en▁ ter</w>
▁ex am</w>
▁B ar
o▁ ur</w>
i on▁al</w>
2 1</w>
r ate</w>
pro gr
▁no thing</w>
▁2 2</w>
ter ▁s</w>
educ ati▁on</w>
bus▁ iness</w>
us i▁ng</w>
▁wor d</w>
ta▁ in</w>
al ▁s</w>
▁do or</w>
▁acc ep
pre par
ou d</w>
C▁ EO</w>
▁canc er</w>
th l
hy ▁un</w>
dep end
vi ously</w>
t▁ er
▁f oundation</w>
▁ad op
se▁ l
serv i▁ce</w>
m ea▁
▁z one</w>
▁success ful</w>
▁discus s</w>
▁bl ock
▁Y our</w>
ay ▁s</w>
▁l ibrary</w>
▁em ail</w>
▁contin ues</w>
va▁ri ous</w>
pr▁ es
eed ing</w>
▁proced ures</w>
t y▁
▁wr ite</w>
▁f ail
ul ner
or d
h igh
con tr
u als</w>
ex pen
as ing</w>
▁install ation</w>
▁gr ade</w>
z ens</w>
stud en▁ts</w>
en tur
▁phot os</w>
rough out</w>
ro r</w>
c re
▁tow ard</w>
▁1 5th</w>
s yst
pro du▁c
as es</w>
▁c h▁
▁Ch r
re▁ e</w>
ick en</w>
▁l e
▁farm ers</w>
▁11 th</w>
o ad</w>
c ul▁
▁exp anding</w>
▁ex ternal</w>
▁counsel ing</w>
▁restaur ants</w>
r ul
go▁ od</w>
e▁ as</w>
▁maj ority</w>
▁cas h</w>
mak i▁ng</w>
▁pic tures</w>
y ong</w>
▁exp anded</w>
str eng
c ar</w>
▁p ack
st or
pro▁ v
por t▁
is su
▁t our</w>
▁meas ure</w>
▁8 th</w>
t o▁rs</w>
ch it
▁mon thly</w>
▁in conven
er man</w>
be▁ c▁
ar ious</w>
ab l▁e</w>
et es</w>
t og
▁qu ite</w>
▁pres ented</w>
p ar▁ty</w>
▁end eav
▁emphas ized</w>
t en</w>
iz ati▁on</w>
d i▁s
▁suspec ted</w>
▁H ee</w>
▁201 3</w>
ta x</w>
m il▁
t es</w>
os s</w>
inc o▁me</w>
▁pri or</w>
▁Consid ering</w>
▁kn owledge</w>
p▁ h
ic ated</w>
Un iversi▁ty</w>
▁st ocks</w>
▁st ep
▁foc used</w>
▁fi elds</w>
▁K ak
th en</w>
C enter</w>
▁lim its</w>
▁Ph il
an y
an e▁se</w>
M in
▁sup porting</w>
w ater</w>
vis ory</w>
tici p▁
i▁ st</w>
ho▁ me</w>
▁tick et</w>
ew ork</w>
▁pos t
▁neg ative</w>
su per
m a</w>
ep h
em ▁s</w>
▁fl ight</w>
r am</w>
issi on
g ame</w>
▁un its</w>
▁th inking</w>
▁n ine</w>
▁d aughter</w>
id e▁nt</w>
a ug
▁sur gery</w>
with o▁ut</w>
▁heal thy</w>
▁eff ective</w>
c ent▁er</w>
7 0</w>
▁rap idly</w>
▁def ense</w>
▁N ot</w>
hel p</w>
b ig</w>
▁19 8
th▁ en</w>
p▁ rov
▁sl eep</w>
igh tly</w>
end ly</w>
▁K i</w>
p on</w>
or der</w>
i▁n k</w>
a is
A c
▁trust ee</w>
▁in form
▁foc using</w>
▁concer n</w>
g g
ar ou▁nd</w>
ur i▁ty</w>
p▁ er▁
▁dis count</w>
▁T able</w>
▁Air port</w>
igh▁ ts</w>
▁sup ported</w>
▁pen sion</w>
▁2 3</w>
t oms</w>
i▁ ght</w>
▁scre ening</w>
▁chang ing</w>
sp▁ec ial</w>
el e▁c
ot▁ al</w>
f our</w>
▁s ongs</w>
s i▁ng</w>
▁spr ing</w>
▁met ers</w>
▁increa ses</w>
▁consum er</w>
▁Ch il
▁del ay</w>
i▁ p
▁M et
ti▁ ce</w>
l▁ ow</w>
in ated</w>
con duc
9 ▁
1 6</w>
.▁ m.</w>
▁gen der</w>
▁ar r
▁Gyeong sang</w>
▁recor ded</w>
▁h imself</w>
em▁ b
ed s</w>
▁res c
▁n ot
▁f al
▁c o</w>
▁B usiness</w>
o▁ uld</w>
▁cl im
▁sol di
▁per f
▁f a
le▁ ss</w>
j ec▁ts</w>
emb▁ ly</w>
▁J ust</w>
el ess</w>
b illi▁on</w>
a▁ tions</w>
▁sub way</w>
▁serv ed</w>
▁mark eting</w>
▁ex ports</w>
D em
▁manag ed</w>
th ree</w>
p▁ ro▁
m a▁n
incl▁ud ing</w>
erit age</w>
am ▁p
ac cor
▁h ▁
▁O lymp
▁2 7</w>
re ign</w>
h es</w>
a▁ in
▁b rought</w>
▁P a
ten tion</w>
e▁ d
▁al tern
ro te</w>
bl ic</w>
▁Pro motion</w>
y cl
h ow</w>
ea▁ se</w>
▁2 1st</w>
ir it</w>
in▁ ed</w>
c tion</w>
b ody</w>
▁mean ing</w>
▁S en
tr a
f ive</w>
eal ing</w>
▁sett lement</w>
▁Dep uty</w>
w▁ oo</w>
sum m▁it</w>
▁plat form</w>
▁cont ains</w>
▁car eer</w>
▁att emp
row▁ th</w>
ri es</w>
▁sever e</w>
▁re flect</w>
ffici ent</w>
ad minis
▁adv anced</w>
y r
s o▁n</w>
r ement</w>
M ay▁or</w>
▁ob jec
▁advant age</w>
m ar▁
▁in ▁
▁develop ing</w>
▁ass ets</w>
indus try</w>
c u▁
▁u m</w>
▁fac tors</w>
▁1 7th</w>
j▁ ect</w>
c ou▁ld</w>
R ep
▁warr ant</w>
▁improv ing</w>
▁all ows</w>
offic i▁al</w>
en ch</w>
▁rel ations</w>
▁n orthern</w>
▁F air</w>
▁m eal</w>
▁f ishing</w>
▁ar ts</w>
t ant</w>
con s▁
▁s ym
▁M ex
▁3 00</w>
s e▁n
s ee</w>
den ly</w>
▁victi m</w>
▁H a</w>
▁tr ust</w>
▁fir s▁t</w>
▁Ch risti
i▁ an</w>
a▁n k</w>
C e▁n
, 5
▁tw ice</w>
▁p aying</w>
▁h er
▁coll ect</w>
▁believ ed</w>
per s▁on</w>
ov ement</w>
or g
mo ti▁on</w>
▁occ ur</w>
▁Pen insula</w>
e▁ g
D ong
▁there of</w>
▁special ized</w>
ff er</w>
▁ordin ary</w>
▁endeav or</w>
▁avo id</w>
prov ▁
ov▁ er
8 ▁
ic o</w>
i ew</w>
▁f ish</w>
▁St ar
▁E un</w>
▁&a p▁os;s</w>
▁f ar
c ol
be▁ t
T h▁
S▁ t
▁publ ished</w>
▁grea tly</w>
ha▁ d</w>
e up</w>
c a▁re</w>
▁conn ection</w>
c andid
Coun c▁il</w>
▁’ ’</w>
▁spen d</w>
om p
▁M arket</w>
▁G im
r u▁
i▁ a</w>
▁comp uter</w>
▁R ules</w>
w oo</w>
▁di agnos
▁complet ely</w>
yptoc urr
m i▁ll
▁suffer ed</w>
▁reven ue</w>
▁bus y</w>
▁bir th</w>
▁Un ion</w>
to▁ ok</w>
In v
▁ref und</w>
in form▁
ep tion</w>
eo k
▁sm art</w>
▁s e▁
▁effici ent</w>
▁Bud dh
▁In t
f are</w>
▁tax es</w>
▁B yung</w>
v ey</w>
pr ac
gre di
▁adver tis
r ying</w>
ash ion</w>
▁p etition</w>
▁cont est</w>
is▁ ion</w>
e▁ w</w>
▁rev ital
▁S ports</w>
▁Mot or</w>
▁201 2</w>
ech n▁
e i▁gn</w>
M o▁on</w>
▁requ ire</w>
▁ itan</w>
j eong</w>
h ae</w>
b▁ een</w>
S u▁
▁ob serv
▁F l
▁Em ployment</w>
vi ews</w>
op ic</w>
c ing</w>
▁disab ilities</w>
su▁ l
den uclear
ati o▁n
▁t ro
ri age</w>
res t</w>
an o</w>
▁week end</w>
▁m id</w>
▁enterpr ises</w>
ic ul
es t▁ed</w>
ad ed</w>
▁p iec
▁enter ing</w>
▁an ti</w>
mon y</w>
g res
es▁ t
os an</w>
h ee</w>
di ff
▁lec ture</w>
j i▁n</w>
▁consum ption</w>
tr i▁es</w>
o▁r k</w>
es sive</w>
▁pro por
▁inc urred</w>
▁ tion</w>
ag s</w>
▁gir l</w>
p▁ eop▁le</w>
K RW</w>
▁hos ted</w>
▁Kor▁ ea</w>
ma j▁
h ar
ff s</w>
2 4</w>
▁fil ms</w>
▁e ating</w>
▁G w
ver si
tit ude</w>
rup tion</w>
meas ures</w>
elec omm
▁pro duce</w>
st u▁d
s ons</w>
p at
i a▁l</w>
be▁ tw
▁decrea se</w>
ir▁ ec
ch ar▁ge</w>
anc ing</w>
ag ers</w>
B r
▁revis ed</w>
j u▁st</w>
▁bea uty</w>
▁1 4
c ri▁
▁suffer ing</w>
▁e p
kno▁ w</w>
i ate</w>
▁sc reen</w>
res pec
ch an▁ge</w>
ar▁ ds</w>
▁prom oting</w>
▁Ir an</w>
q ▁
h▁ im</w>
el▁ l</w>
be▁c ause</w>
M E
▁war m</w>
▁m ist
▁k inds</w>
▁M ountain</w>
n e</w>
arm ac
▁in gredi
m▁ ed</w>
▁W omen</w>
wi▁th out</w>
si▁ ve</w>
ev e▁nt</w>
d ire▁c
▁E l
j▁ ob</w>
W or
▁s occer</w>
▁em p
produc ▁ts</w>
Ch ang</w>
▁m ountain</w>
▁F ederation</w>
oy ang</w>
m o▁n
im chi</w>
▁m ale</w>
▁ac tor</w>
i▁c s</w>
Ch airm▁an</w>
▁arriv ed</w>
d▁ ong</w>
a▁n d
S ch
▁dam aged</w>
▁2 7th</w>
im inal</w>
g▁ es</w>
▁broad cast</w>
▁activ ity</w>
▁Or ganiz
fam i▁ly</w>
▁res ervation</w>
▁pr elimin
▁f ru
▁des pite</w>
▁1 4th</w>
▁ o▁t;</w>
tur ed</w>
f i▁n
est ock</w>
c▁ y</w>
com ▁e</w>
▁perform ed</w>
ag ▁es</w>
ac ity</w>
a h</w>
▁e ye</w>
▁N o.</w>
n in▁g</w>
lea d▁er</w>
b usiness</w>
▁prof essor</w>
▁dro p</w>
ta x
ilit a▁ry</w>
▁t r▁
▁C or
wh a</w>
tur ing</w>
ch i▁ng</w>
ag ▁ed</w>
Artic▁ le</w>
▁new sp
▁elec tronic</w>
▁back ground</w>
n o
▁subsid ize</w>
h an</w>
▁H all
eo l</w>
1 7</w>
▁concer ned</w>
▁5 00</w>
ear▁ ly</w>
▁del eg
▁W ar</w>
a▁ de</w>
▁U lsan</w>
▁2 5th</w>
pos es</w>
a▁l l
▁sp eak</w>
▁im possible</w>
is ▁h
▁lawmak ers</w>
prof ess▁or</w>
em ory</w>
atis tics</w>
▁fix ed</w>
ta ek</w>
p ut</w>
▁j oin</w>
▁signific antly</w>
m ain</w>
l ines</w>
d ly</w>
b▁ u
▁r ose</w>
▁in ev
p▁ ly</w>
▁consid er</w>
u▁ s</w>
say in▁g</w>
▁chec ked</w>
pol iti
m ir
b▁ r
am p▁
▁mod ern</w>
▁join ed</w>
▁e d
s o
i▁ z
eg et
▁th roughout</w>
▁prepar ation</w>
t▁ ure</w>
tro l</w>
gen er▁al</w>
cooper ati▁on</w>
▁l i
▁13 th</w>
▁strateg y</w>
▁sc ore</w>
▁broadcas ting</w>
ign ed</w>
Se ung</w>
▁for ced</w>
oo ks</w>
ong ly</w>
u▁ l</w>
ur o</w>
b ec▁
s▁ ocial</w>
G en
▁rel ig
▁ch ann
or▁ ld</w>
l evel</w>
h ouseh
Pro▁ v
▁Com plex</w>
w er▁e</w>
l et</w>
l arg
ith er</w>
ca▁ se</w>
▁sp ent</w>
▁lear ned</w>
▁appro priate</w>
▁Q u
v▁ is
b as▁
▁win ning</w>
▁sur pr
▁sing er</w>
coun try</w>
b ook</w>
▁t rees</w>
▁m os
▁S ong
ar ks</w>
1 1
▁respec tively</w>
▁prac tic
▁lo ts</w>
▁f illed</w>
▁ear n
▁d eep</w>
▁N av
▁proc essing</w>
▁expec tations</w>
h▁ av
B ar
▁block chain</w>
s▁h ould</w>
o▁n t</w>
et er</w>
en om
Jap ane▁se</w>
▁ven ue</w>
▁9 th</w>
ic ious</w>
d a▁ys</w>
▁t rou
▁dec line</w>
▁C o</w>
uc h
o▁ od</w>
comp a▁n
G w
▁vol ume</w>
▁ser ve</w>
▁Br az
▁3 0th</w>
k m</w>
h▁ ee</w>
comm ittee</w>
b▁ l
▁s ource</w>
▁leg isl
▁inten tion</w>
▁dev ices</w>
▁cal cul
w ea
att le</w>
ist ance</w>
ili ar</w>
▁Environ ment</w>
n ecess
▁w eight</w>
▁m ix
▁Se jong</w>
▁c row
y ond</w>
pol i▁cy</w>
Ch in
r un</w>
▁wr it
▁finis hed</w>
ig ning</w>
▁f r▁
▁b i
▁b all</w>
▁&apo▁s ;</w>
th rough</w>
sib▁ le</w>
ol v
Y e
iter ia</w>
K▁ RW</w>
▁w ear</w>
▁f alls</w>
▁d ang
w ar
med ium</w>
l o▁ng</w>
▁s i</w>
▁foll ows</w>
▁&a pos▁;</w>
m ▁e</w>
i▁ od</w>
em erg
▁h usband</w>
▁trans l
▁my self</w>
ove▁r n
n ame</w>
c u▁r
▁confir m</w>
▁D ay</w>
us ▁e</w>
f a▁c
b eh
▁f oot
▁coun ty</w>
▁budg etary</w>
▁R ev
▁Fac ebook</w>
tr al</w>
▁ex clus
▁di plom
h a</w>
▁w alk</w>
▁prof its</w>
▁meaning ful</w>
▁innov ation</w>
▁caus ing</w>
ig n▁
b ri
▁sugg ested</w>
▁V illage</w>
▁P re
th qu
ch▁ er</w>
appl ic
▁J eon</w>
▁2 6</w>
t▁h an</w>
ma▁ in</w>
il ▁e</w>
fin a▁ncial</w>
ex ▁p
Ad ministr
▁proc eed</w>
▁ch oice</w>
▁Americ a</w>
oo gle</w>
N ati▁onal</w>
▁un able</w>
▁Wh ite</w>
ur y</w>
op in
il m</w>
be ing</w>
▁rem ains</w>
i▁ ss
J e▁
1▁ st</w>
▁wea k</w>
▁str ugg
▁shar ed</w>
▁expl ain</w>
▁cl ass
▁B i
en ge</w>
R us
▁v ill
aem un</w>
C o▁m
▁y oun
ea▁r s</w>
ag o</w>
C om▁
▁se em</w>
▁n ice</w>
▁m ean</w>
p ow▁er</w>
▁prelimin ary</w>
▁bri ef
▁D el
ro▁ om</w>
et ers</w>
Ch o</w>
▁st anding</w>
▁Rus sian</w>
▁N a</w>
f oc
ea s▁
P en
▁dis cipl
sch ed
p ast</w>
a▁f t▁er</w>
a▁ ir</w>
▁s il
▁occ urs</w>
▁d ead
▁ap prec
▁conduc ting</w>
s ing
qual i▁ty</w>
c▁ ome</w>
bo ard</w>
▁discus sion</w>
▁difficul ty</w>
▁believ es</w>
▁H ave</w>
V ▁
▁stor ies</w>
▁s un
▁enter tainment</w>
▁ach ieve</w>
▁2 8</w>
n a▁m</w>
i ences</w>
fo▁ od</w>
f ree</w>
▁dec ide</w>
▁Ch eon
y et</w>
stitu▁ te</w>
▁k ept</w>
▁expen sive</w>
▁c alls</w>
und er▁
memb ers</w>
▁p re</w>
▁foreign ers</w>
▁de ep
▁S ou
t own</w>
▁dis eases</w>
▁a thl
pol icy</w>
i▁ rd</w>
▁w earing</w>
▁th or
▁do g</w>
▁An aly
▁1 6
w at
vis it▁ed</w>
▁recru itment</w>
▁comm ission</w>
um n</w>
al ty</w>
▁nation wide</w>
▁d inner</w>
o▁ y
▁st able</w>
▁In ter
pr in
▁Des pite</w>
s▁ho▁ uld</w>
comm od
c ustom
. 0</w>
▁mis sing</w>
d om</w>
▁dep uty</w>
wit h▁in</w>
des ign
c oh
▁shar ehol
▁bro ther</w>
oti onal</w>
m y
devel op▁
ard less</w>
M ed
▁l iter
w on
il▁ y</w>
▁ro ads</w>
▁direc tors</w>
▁ad mission</w>
v e▁r
e z
c ou▁n
▁lea ving</w>
▁L ine</w>
m ul
im po▁r
ff▁ ice</w>
es ti▁
▁cl aim</w>
▁In st
r ent</w>
ap s</w>
▁ap artments</w>
i ors</w>
ter n▁
▁t en</w>
▁r ob
um b
h a▁lf</w>
d▁ uri▁ng</w>
disc us
▁tempor ary</w>
▁Sing apore</w>
▁P al
▁Ch ang
t▁ ur
i▁ st
itt e▁e</w>
im p
buil ding</w>
ac ked</w>
▁l isten
▁bor n</w>
tific ial</w>
g▁ un</w>
▁iss u
▁1 6th</w>
om y</w>
l ar▁ge</w>
g a▁me</w>
▁happen ed</w>
▁b ag</w>
entur y</w>
1 4</w>
▁depos it</w>
▁H uman</w>
te▁ st</w>
p▁l an</w>
mon▁ th</w>
jec ▁t</w>
A ff
▁cr iminal</w>
▁B ased</w>
sy▁ st
construc ti▁on</w>
c il
▁respon d</w>
▁m ulti</w>
▁ind ex</w>
▁M yung</w>
▁2 8th</w>
ra is
fi▁ ve</w>
el ong</w>
der ship</w>
▁d ay
▁Ar t</w>
yph oon</w>
t aining</w>
offic ial</w>
&ap▁os▁; ll</w>
▁med icine</w>
▁g ar
sti c</w>
fl o▁or</w>
▁anim als</w>
tric ity</w>
r▁ eg
con fir
▁underst anding</w>
▁ch ea
yp e</w>
s▁ up
s▁ c
pro▁ ve</w>
fo▁ ur</w>
▁techn ologies</w>
▁opport unities</w>
▁T ourism</w>
▁2 6th</w>
l ook</w>
e tr
ar tens</w>
an c▁es</w>
yn asty</w>
og s</w>
▁w rote</w>
▁con tribute</w>
▁F ire</w>
w▁h i▁ch</w>
n at▁ional</w>
m ut
eo s</w>
ast es</w>
Metropol ▁itan</w>
▁sh or
▁loo ked</w>
▁fe eling</w>
n y</w>
eor ological</w>
▁wor ried</w>
▁v o
▁in frastructure</w>
▁cooper ate</w>
offici a▁ls</w>
d▁ en</w>
ot o</w>
inv est▁
al s▁o</w>
i▁ me</w>
eval u
al▁ l
▁pati ent</w>
▁l ived</w>
gover▁n ment</w>
T echn
▁ex ec
▁dig ital</w>
i▁n ess</w>
go ing</w>
c us
▁pl ants</w>
tiv ity</w>
r▁ eal
en g▁
ay er</w>
&ap▁os;▁ ll</w>
▁jud ge</w>
▁decrea sed</w>
ug s</w>
ar▁ k</w>
▁symp toms</w>
▁smartph one</w>
ye o</w>
fir e</w>
devel o▁p
ac qu
▁requir es</w>
▁g ets</w>
▁coun ter
o▁c k</w>
inc r▁
ci enti
▁w el
u ven
ol▁ l
a▁ id</w>
▁pus h</w>
▁compl etion</w>
v e▁
n ight</w>
id ▁e</w>
av es</w>
J in</w>
▁off er</w>
or th
oc ation</w>
in ally</w>
ic a</w>
▁gr and
bu i▁l
▁rec on
▁cons erv
t al▁
le▁ ft</w>
c el
▁hand le</w>
ty▁ pe</w>
stitu tional</w>
pro▁ duc
par t</w>
▁cor respon
t e▁rs</w>
▁represent atives</w>
▁f ol
▁c over</w>
▁c ateg
s ex
pur su
▁n amed</w>
▁c at
o▁ d</w>
▁st opped</w>
▁W oo</w>
h wa</w>
▁ro oms</w>
▁app earance</w>
▁Tai wan</w>
s▁ec ond</w>
inc rea▁se</w>
ch i▁l
▁A I</w>
form s</w>
▁res tor
▁acc ept</w>
i▁s h</w>
il ian</w>
al es</w>
ab ilities</w>
▁independ ence</w>
▁gr ounds</w>
▁academ ic</w>
we▁ en</w>
s▁t em</w>
ri▁ ed</w>
re p
o▁s s</w>
do▁ es</w>
▁prom oted</w>
▁R oh</w>
w are</w>
e t▁her</w>
atur day</w>
ain▁ ed</w>
Gyeo▁ng gi</w>
▁2 4th</w>
unicip al</w>
l in
▁sh ort
▁Fr ance</w>
pp ed</w>
Bus▁ an</w>
meas ur▁es</w>
g e▁t</w>
at e▁s</w>
H an
▁subpar agraphs</w>
▁f oods</w>
re tur
g h▁
S ung</w>
Jap an</w>
Gover n▁or</w>
1 4
pp er</w>
e ti▁ng</w>
▁w ind
▁comp et
▁Prosec utors</w>
▁B ri
r on
▁L ife</w>
id en▁t</w>
et▁ c.</w>
b it</w>
▁t o
▁extr a</w>
▁dis pl
▁aff ected</w>
▁judg es</w>
▁g old</w>
▁U. S.-
intro duc
hy un</w>
fin anci▁al</w>
▁aut onomous</w>
▁G erman</w>
t▁h is</w>
be▁tw een</w>
D o</w>
▁ass essment</w>
w▁ ork</w>
ur i</w>
▁elec tions</w>
per for▁m
p e▁n
o g</w>
in f
▁som etimes</w>
ou T
▁oper ator</w>
▁Y i</w>
st ate</w>
maj▁ or</w>
▁st yle</w>
▁appl ying</w>
c itiz
T ae</w>
Min▁ is▁
▁se emed</w>
▁f an</w>
▁d ead</w>
▁1 ,000</w>
rou▁ p</w>
d u▁r
R eg
un d▁
mp ;</w>
it▁ h
es us</w>
&a▁ mp;</w>
▁r ail
▁norm al</w>
▁brea k
▁b aby</w>
w ar</w>
re duc
o▁ p</w>
A gric
r▁ ev
▁report ers</w>
▁dr ug</w>
▁cr iteria</w>
▁9 0</w>
w▁ a▁s</w>
n▁ o</w>
jec ted</w>
h ab
e e▁n</w>
▁v ote</w>
▁charac ters</w>
iti o▁n</w>
be fore</w>
ist en</w>
ic▁ ation</w>
an▁ ds</w>
z a</w>
par ticip▁
oc i▁
ic ro
&ap▁os▁ ;s</w>
▁B ur
▁Am id</w>
▁2 3rd</w>
st art</w>
is t▁
▁competi tiveness</w>
t▁h em</w>
por t▁ed</w>
pol i▁ce</w>
all eg
a es
▁j ourn
▁con ver
t ains</w>
iv▁ il</w>
ch arge</w>
a▁ pp
G u
▁offic ers</w>
ye o▁ng</w>
w omen</w>
an ning</w>
▁s eat</w>
▁design ation</w>
▁S ohn</w>
▁mer ch
▁any one</w>
est ment</w>
▁soldi ers</w>
▁applic ants</w>
▁S ocial</w>
resid ▁
pro mo▁
▁rul es</w>
▁for ec
u ce</w>
t in
r an
l ot</w>
id ays</w>
el ines</w>
A T</w>
▁r ent</w>
▁W ould</w>
▁Met eorological</w>
f ication</w>
er ate</w>
en tion</w>
am b
C it▁y</w>
▁interpre ted</w>
▁comp r
d re▁
▁res erv
▁par liam
u tr
ti m▁
sup port</w>
e f▁f
aw ay</w>
▁offic es</w>
vi▁ ew</w>
r▁ i</w>
eas ▁e</w>
▁tour ist</w>
▁m oun
▁ab use</w>
▁S ea</w>
▁P ri
f▁ ir
er o</w>
der ing</w>
om▁ en</w>
cla▁ ss</w>
N▁ ew</w>
▁s ides</w>
si▁ an</w>
r▁ ef
ex es</w>
▁en ded</w>
▁b a▁
▁1 .
w▁ ell</w>
s▁ m
ex hib
▁P ort</w>
r▁ el
devel ▁
be▁c aus▁e</w>
all ey</w>
▁sol ution</w>
▁civ ic</w>
▁2 2nd</w>
ot es</w>
f ast</w>
▁ob tain</w>
y▁ ing</w>
resid ents</w>
pers on
m▁ ade</w>
l ic</w>
l ear
Univer sit▁y</w>
▁cr yptocurr
l arge</w>
h ood</w>
▁dr inking</w>
▁acc ur
▁Sm all</w>
▁Ch urch</w>
l▁ ea
k i</w>
in eering</w>
▁urg ent</w>
▁i sn</w>
&a▁po▁s ;m</w>
▁k il
▁experi enced</w>
▁cl early</w>
ic ide</w>
▁volunt eer</w>
▁injur ed</w>
▁complain ts</w>
i▁ th</w>
▁w all</w>
▁up on</w>
▁qu anti
▁farm ing</w>
▁Un til</w>
▁R ule</w>
▁Gyeong sang
s▁ chool</w>
ro▁ ad</w>
ch i▁ef</w>
auth or
&▁apo▁s ;</w>
▁tas k</w>
ex ecu
er ▁ed</w>
8 0</w>
▁1 7
ati▁ ons</w>
▁st ated</w>
▁ren ew
▁as king</w>
rea l
g ot</w>
▁favor ite</w>
▁Serv ices</w>
▁At tention</w>
f ea
en ever</w>
b▁ al</w>
2 3</w>
▁sh op</w>
▁pain ting</w>
▁ac tors</w>
▁Y outh</w>
m i▁n</w>
S a▁m
▁Sp eaker</w>
▁K y
▁Ac tor</w>
im m
c ultur▁al</w>
ev ▁er</w>
clu▁ ding</w>
a▁ st</w>
▁sh ape</w>
▁f o▁r</w>
w in</w>
▁execu tives</w>
t▁ es</w>
e▁ un</w>
c enter</w>
S ang</w>
▁s now</w>
▁or ders</w>
wor ki▁ng</w>
op h
n orm
facil iti▁es</w>
▁th er
▁dev ice</w>
▁beg in</w>
th▁ rou▁gh</w>
som e▁
n eung</w>
kno▁ wn</w>
g row▁th</w>
c irc
be▁t we▁en</w>
▁respec t</w>
▁r i</w>
t▁ ;</w>
in nov
amp ion
▁mean time</w>
▁eff ort</w>
▁dis play</w>
sec ond</w>
f un▁
▁tick ets</w>
▁re view
▁mul ti
▁cam era</w>
ed n
Ch oi</w>
▁Y u</w>
il ing</w>
▁argu ed</w>
t▁ op</w>
pol i▁
on s
n a▁
en der</w>
c e▁r
▁inter esting</w>
▁fin ally</w>
▁Mat ters</w>
vis▁ it</w>
t ot▁al</w>
t a▁l
h e▁r</w>
J u▁
▁reti rement</w>
▁guarant ee</w>
▁d ri
t able</w>
▁S w
▁E specially</w>
w r▁
tis h</w>
▁coun ties</w>
▁G oogle</w>
ul atory</w>
par t
e▁ an</w>
▁sam ple</w>
▁mach ine</w>
▁expres s</w>
▁Hy e</w>
evel s</w>
▁r ain
▁dou ble</w>
w▁ il▁l</w>
pos▁ ;t</w>
par tic
m▁ arket</w>
en▁ g
N am
▁s u▁ch</w>
▁S oo</w>
enom en
▁rem ember</w>
▁func tions</w>
ef ully</w>
a▁n ge</w>
app y</w>
▁lun ch</w>
▁app ear</w>
▁N owon</w>
▁Mal ay
t▁h s</w>
th us
ess▁ es</w>
c oo
be▁ st</w>
M ay</w>
Hy un</w>
1 6
▁tit le</w>
▁streng th</w>
G overnment</w>
▁shar es</w>
▁fig ure</w>
▁anim al</w>
▁Con f
op port
me eting</w>
en t▁ed</w>
a▁ ti▁ons</w>
Manag eme▁nt</w>
▁repor ter</w>
▁phot ograp
wo▁ o</w>
s ch▁
e w▁
▁fea tures</w>
s▁ y
l a
entr▁ al</w>
▁sc ale</w>
▁v ia</w>
▁B TS</w>
iti me</w>
he▁ e</w>
H w
▁al bum</w>
▁Coun ty</w>
rec omm
c▁l ud
sen i▁or</w>
ou te</w>
m id
hy u▁n</w>
ec ti▁on</w>
b i▁ll
▁th rea
▁t ree</w>
▁cr imes</w>
la▁r gest</w>
▁syst ems</w>
▁guid ance</w>
▁clas si
pro m▁
m ilita▁ry</w>
▁sec ured</w>
▁form ulate</w>
▁Mus eum</w>
s eas</w>
comp▁ an
▁t een
r it
p y</w>
p ons</w>
is cal</w>
inform ati▁on</w>
▁sub st
▁U S
▁K o▁
▁2 9</w>
in▁ es</w>
▁pro per</w>
v id
su▁ b
c eme▁nt</w>
▁w it
▁law suit</w>
▁curr ency</w>
▁camp aign</w>
sm all</w>
o ong</w>
ec onom
E n▁
▁rep air</w>
▁elec tricity</w>
▁Canad a</w>
▁caus es</w>
▁be yond</w>
re▁ sid
r ig▁ht</w>
me tics</w>
▁sp rea
▁pr ison</w>
th day</w>
atten ti▁on</w>
▁g ives</w>
▁elec ted</w>
▁d e▁
o▁ und</w>
me an
expec ted</w>
d eb
▁o ▁n</w>
▁M ovement</w>
i▁ ld</w>
con tr▁
▁wal king</w>
▁ha ven</w>
▁chec king</w>
▁H eung</w>
com▁ m
ati z
app ear
am ic</w>
▁surr ounding</w>
▁m eat</w>
▁c ell</w>
ten ed</w>
d ents</w>
ar di
2▁ nd</w>
▁sud denly</w>
▁expl an
▁ab ol
v ehic
pe▁ ople</w>
buil di▁ng</w>
▁l iqu
▁integr ated</w>
▁grad ually</w>
▁O ther</w>
ret a▁ry</w>
iz i▁ng</w>
i ans</w>
d▁ y</w>
▁pl astic</w>
in▁ a</w>
en vir
ar ti
▁t ext</w>
▁sign s</w>
▁conc ept</w>
th a▁n</w>
▁pl eas
▁m ental</w>
ang ed</w>
▁fir m</w>
▁Indi a</w>
ur s
pr▁ iv
oy al</w>
▁F oll
p a</w>
l y
e k
re p▁
f▁ er
S S</w>
▁sym b
▁re ducing</w>
investig ati▁on</w>
in fl
7 ▁th</w>
▁semiconduc tor</w>
▁imm igr
▁for ces</w>
st at▁
say i▁ng</w>
as k</w>
▁s quare</w>
▁design ate</w>
▁/ /</w>
u ts</w>
h ard</w>
▁st one</w>
▁sl ow
▁gu ide</w>
▁bal ance</w>
ir es</w>
Se▁ oul</w>
pro ject</w>
ne▁ ss</w>
fam ily</w>
f ur
▁wh e▁re</w>
▁u pper</w>
▁u l
s oon</w>
ac▁ k</w>
L ea
▁wat ched</w>
▁pun ishment</w>
yong yang</w>
g▁ r
▁cons ecutive</w>
p al</w>
omp eo</w>
in ks</w>
c▁ on▁
▁view ers</w>
▁sub jects</w>
▁sen ding</w>
▁re pres
▁exc essive</w>
tic ally</w>
o▁ o</w>
A s</w>
▁v ulner
▁m ag
▁deb t</w>
p▁ ut</w>
foll owi▁ng</w>
1 ,
▁sou thern</w>
▁on es</w>
▁l isten</w>
▁experi ences</w>
▁Th ose</w>
if th</w>
b it
A c▁t</w>
▁el se</w>
▁des cri
▁In formation</w>
sur ▁
fi eld</w>
a▁ tive</w>
Ass embly</w>
ti▁ cs</w>
ca▁ me</w>
▁th eater</w>
▁expen d
▁exchang es</w>
sh▁ ow</w>
pa▁r t</w>
law mak
g en▁
P▁ ar
▁continu ously</w>
▁b ut
▁T wo</w>
▁E ach</w>
▁sc en
▁max imum</w>
▁L aw
em o▁ny</w>
ar e▁as</w>
▁del iver</w>
▁alleg ations</w>
▁J esus</w>
▁Exper ts</w>
as ion</w>
Educ ati▁on</w>
▁notif ied</w>
▁acc um
▁S ch
ou▁ t
m as</w>
f▁or mer</w>
b ud
▁st and</w>
▁bas eball</w>
▁B as
pu▁ blic</w>
ipp ines</w>
indus t▁ry</w>
Y eong
▁youn ger</w>
▁int elligence</w>
▁Lea gue</w>
wh e▁n</w>
it▁ ional</w>
im port
el lec
chil dren</w>
ateg y</w>
at trac
▁neigh bor
▁cor rect</w>
pres s</w>
fi▁ re</w>
D ay</w>
▁pro b
▁passeng ers</w>
▁dep artments</w>
▁con st
▁ch icken</w>
p i▁ng</w>
fi▁ nd</w>
ev e▁n</w>
em pl▁
c u▁l
S p▁
C orpor
▁wor ker</w>
s ong</w>
n a</w>
ill a</w>
g e
▁trad ing</w>
▁ingredi ents</w>
▁Ear lier</w>
il▁l ion</w>
▁suspen ded</w>
▁altern ative</w>
▁Th anks</w>
▁201 1</w>
w▁h ere</w>
work e▁rs</w>
stitu tion</w>
og ue</w>
ft e▁r</w>
diff▁ er
▁f ashion</w>
▁draw n</w>
▁B u
se▁l f</w>
prov i▁de</w>
pl▁ ay</w>
l▁ ocal</w>
ho▁ w</w>
c▁ al</w>
ph one</w>
▁ref ug
▁M iddle</w>
w ee
ver▁ y</w>
ong ol
con n
&apo▁s ;▁s</w>
▁tal king</w>
▁fal se</w>
t▁ en</w>
o x</w>
ad or</w>
M in</w>
L i▁
▁u ses</w>
▁i ce</w>
▁enh ance</w>
▁b oy
▁approv ed</w>
▁Rep ublic</w>
▁H ospital</w>
▁Austral ia</w>
oper ati▁on</w>
on ally</w>
ead quarters</w>
▁sp eech</w>
▁H otel</w>
t echn▁
su▁ re</w>
sit u▁
▁viol ation</w>
▁ship ping</w>
▁plac ed</w>
▁n ames</w>
w at▁er</w>
thea st</w>
e▁c k</w>
▁s in▁ce</w>
▁inst all</w>
▁ar tificial</w>
ou g▁h</w>
cl ose</w>
an s▁
▁m il
▁M in
▁Be fore</w>
T C</w>
▁kinderg artens</w>
▁con struc
▁D o
y▁ le</w>
perform an▁ce</w>
l▁ aw</w>
for t</w>
ev e▁ry</w>
al l▁y</w>
▁law s</w>
▁cap acity</w>
▁c ore</w>
▁Fr ench</w>
ur ▁e</w>
est▁ ic</w>
▁f ish
▁cou ple</w>
▁col ors</w>
i ance</w>
Ass emb▁ly</w>
▁th er▁e</w>
▁201 0</w>
s eason</w>
p en</w>
f▁ ac
▁discus sed</w>
pos ▁ed</w>
g roup</w>
g i▁
exp▁ ec▁ted</w>
ed ding</w>
ay▁ ing</w>
au d</w>
ag re▁
Tr ans
▁c ul
▁accep ted</w>
l ig
T ▁h
▁entr ust</w>
▁acc used</w>
pro d▁uc
ne▁ ed</w>
ag ement</w>
▁pre t
▁G oyang</w>
fac tion</w>
In stitu▁te</w>
▁g ather</w>
▁e x</w>
▁conn ected</w>
necess a▁ry</w>
aj or</w>
ac ted</w>
▁dam ages</w>
▁am end
ub s</w>
h▁ ard</w>
comm itt▁ee</w>
▁men u</w>
▁con tr
▁Super visory</w>
ul▁ ts</w>
r un
l aun
as s▁
ang ju</w>
P ubl▁ic</w>
L e▁e</w>
&ap▁os; ▁s</w>
z be
un t▁il</w>
r▁ et
n ew
a▁b out</w>
Ch eong
▁at tract</w>
us eok</w>
pos ing</w>
or e
B l
2 7</w>
▁y ea▁r</w>
▁t own</w>
▁o r▁
▁histor ical</w>
▁ass ociation</w>
us▁ ic</w>
serv ice</w>
c ong
▁pres entation</w>
▁pot ential</w>
▁frequ ently</w>
▁ad d</w>
▁I T</w>
ar▁ t
▁v eget
▁reflec ted</w>
▁2 9th</w>
t▁ ax</w>
th i▁rd</w>
r▁ es▁
l a▁nd</w>
im pl
f a▁m
a▁l ly</w>
▁r ich</w>
▁exc eed</w>
▁ex cluded</w>
▁compr ised</w>
u ti
iz e▁d</w>
ent ually</w>
▁t ▁h
su▁ m
▁see ing</w>
▁s ister</w>
▁regis ter</w>
▁ev ening</w>
l eft</w>
f ou▁nd</w>
e▁n tial</w>
▁w a▁s</w>
▁s eas
▁Indones ia</w>
thus i
sh ow</w>
o▁m en</w>
iti gation</w>
f oll▁
de▁ v
▁subsid y</w>
▁Analy sts</w>
wor ks</w>
und am
is s▁
i et</w>
▁establish ing</w>
th o▁se</w>
s atis
produc ts</w>
p ass
etropol it▁an</w>
b ok</w>
▁fres h</w>
▁dem ocr
▁dead line</w>
▁c alling</w>
▁be hav
▁I tal
un t</w>
f e
▁s yn
▁aw are</w>
▁ar rive</w>
▁C oll
ne▁ w</w>
is try</w>
if f</w>
ant i</w>
p▁ s</w>
i▁s it</w>
estab li▁
▁discus sions</w>
ut u▁re</w>
lo b▁al</w>
el ec▁
▁sent ence</w>
▁prac tical</w>
▁ph enomen
▁inv est</w>
▁independ ent</w>
un ately</w>
ma j
con trac
▁T em
▁On ly</w>
tric ts</w>
ap ers</w>
air ▁
▁t el
▁out door</w>
▁c ▁
sti t
indus ▁
b a▁ck</w>
as t▁er</w>
Se o</w>
▁se x</w>
▁reg ulation</w>
▁liv estock</w>
▁c over
s ent
pro jec▁ts</w>
i able</w>
b a▁ll</w>
▁purch ased</w>
▁m ot
m i</w>
▁con cluded</w>
j ud▁
▁In surance</w>
coh ol</w>
Se ong
▁m emory</w>
▁ass ault</w>
▁3 5</w>
t ;</w>
p yeong</w>
l▁ ot</w>
con cer
▁l ose</w>
▁cam p</w>
▁E very
su▁p port</w>
s ea
res ear
ospit als</w>
comm unic
▁war ning</w>
▁Mon day</w>
▁Bri tish</w>
▁resid ential</w>
▁import ance</w>
▁comm emor
ol og▁
f all</w>
qu ir
n a▁me</w>
adv ant
D ae</w>
&▁apo▁s ;s</w>
▁repor ting</w>
▁entr ustment</w>
▁Star ting</w>
ok yo</w>
l as▁t</w>
a▁ ch</w>
▁cryptocurr ency</w>
tiv ▁e</w>
t w▁
ist an</w>
ei▁ r</w>
▁dr aw</w>
wor▁ k</w>
represent ati▁ve</w>
o f▁
E D</w>
▁s ave</w>
▁r um
▁deb ate</w>
pursu a▁nt</w>
int▁ er
A ss▁
▁reg ardless</w>
▁l isted</w>
▁l ines</w>
▁adver ti
▁Kor eas</w>
▁Foll owing</w>
y▁ eon</w>
ro ad
le▁ ad</w>
is sue</w>
h ou▁se</w>
dro gen</w>
a▁ se</w>
▁th anks</w>
ou p</w>
or ation</w>
inter ▁
▁re ply</w>
▁finis h</w>
y a▁ng</w>
n u▁
K yung</w>
▁techn ical</w>
▁fl ow</w>
▁con ▁
▁5 G</w>
inter e▁st</w>
ME s</w>
▁enjoy ed</w>
s▁ pec
at ched</w>
▁rece ives</w>
▁dis tributed</w>
▁con v
▁Fr iday</w>
t▁ ee</w>
ol ic</w>
l ate</w>
it ting</w>
ed er
▁suspec t</w>
▁sent enced</w>
▁mos tly</w>
▁individ uals</w>
▁ad ding</w>
k ▁e</w>
includ ing</w>
S tr
Min▁is▁ try</w>
▁sup plem
▁prosec utor</w>
sh op</w>
rec▁ e
o▁ t▁;</w>
oc ▁al</w>
am m
▁pl en
▁canc el</w>
wh y</w>
o▁ ther</w>
k e▁
distr i▁ct</w>
ar ity</w>
V iet
▁transac tion</w>
▁syst em
▁pus hed</w>
▁f air
▁comm itted</w>
▁G ir
x im
▁rem ain</w>
tak ▁e</w>
m▁ e
▁pre fer
▁e co</w>
on▁ d</w>
iv ision</w>
▁rec overy</w>
▁aim ed</w>
▁Mex ico</w>
pro f▁
▁mus eum</w>
▁lea dership</w>
▁S aturday</w>
▁C ar
p eo▁ple</w>
o▁ v
inc es</w>
in k
▁join tly</w>
us ual</w>
i o▁us</w>
fo▁ reign</w>
e▁ ven</w>
G un</w>
▁transac tions</w>
ea l▁th</w>
am ily</w>
S p
sal ▁es</w>
ain t
3 0
▁resol ve</w>
▁fl o
▁en forcement</w>
▁dest ro
▁corpor ations</w>
t og▁
H an</w>
iber ation</w>
gr y</w>
d▁ i
an▁ ies</w>
▁Organiz ation</w>
f ic</w>
an am</w>
Y oo</w>
G▁ yeong
▁judg ed</w>
sum mit</w>
re▁ al</w>
p ati
o f
it ch
ig▁ h</w>
e▁c t▁ed</w>
ea▁ ce</w>
c er▁
bl ▁e</w>
▁l oved</w>
▁dist ance</w>
w ol</w>
▁out standing</w>
▁m ark</w>
▁equ ipped</w>
▁certif ication</w>
▁Kak ao</w>
w a▁rd</w>
sel ect▁ed</w>
p ay</w>
g▁ o</w>
develop ment</w>
at ures</w>
Y ong</w>
▁str ongly</w>
▁reg ard</w>
▁i sland</w>
▁cour ses</w>
▁applic ations</w>
s afe▁ty</w>
d▁r en</w>
m▁ ore</w>
▁tas ks</w>
▁ess ential</w>
▁b u▁t</w>
a▁l so</w>
ad ded</w>
O ffice</w>
▁t ired</w>
w▁ ere</w>
offic ▁
e▁ st▁
ea s▁ed</w>
▁run s</w>
▁fl ex
▁f ▁
▁G ames</w>
m other</w>
a▁ ting</w>
an y▁
an d▁ed</w>
▁ob tained</w>
▁co ast</w>
aud i</w>
▁wor ▁
▁with draw
▁rap id</w>
▁com posed</w>
w▁ in</w>
h▁ a▁s</w>
ep ren
c o▁r
▁En ergy</w>
▁A fr
ut ers</w>
proc ess</w>
e▁c tion</w>
en d▁ed</w>
▁newsp aper</w>
▁en try</w>
▁c o▁n
▁Se ong</w>
chit ec
U n▁
T a
▁un i
▁exten ded</w>
▁K T</w>
▁J ud
▁J oon</w>
ul f
f▁ orm
al o▁ng</w>
ad diti
O ffic
ro▁ up</w>
l ive</w>
as▁ s
ac ▁e</w>
▁doc tor</w>
▁disp ute</w>
▁S ub
r em▁
i▁ ded</w>
d om▁
G overn
▁l evels</w>
▁discipl inary</w>
▁convers ation</w>
▁H eadquarters</w>
e▁ p
ev e▁r</w>
d ate</w>
at tr
▁recomm endation</w>
▁r an</w>
▁d rea
manag▁ ement</w>
itiz en</w>
fac ▁
f ying</w>
dec id▁ed</w>
a▁ ve</w>
adem y</w>
C o▁
▁trans ferred</w>
▁r oute</w>
▁g olf</w>
▁bro ken</w>
me a▁ns</w>
▁tr uth</w>
▁mod els</w>
▁c entury</w>
▁Rep .</w>
s al</w>
om in
▁id eas</w>
under st
re▁ as
o▁w s</w>
et in▁g</w>
ent a▁ry</w>
emb ers</w>
▁G eum
▁ ju</w>
s ol▁
par tic▁
id den</w>
for ei▁gn</w>
c ar▁
b▁ an</w>
a▁t a</w>
C▁h o</w>
▁r ural</w>
▁An other</w>
ri er</w>
och o</w>
id▁ ent</w>
d▁ le</w>
and al</w>
▁plan e</w>
a▁ ke</w>
▁pro spec
▁effici ency</w>
▁attrac ting</w>
▁ap p</w>
▁X i</w>
row n</w>
receiv ▁ed</w>
ex per▁
employ ment</w>
edn esday</w>
▁suspen sion</w>
▁Hall yu</w>
s▁h a▁ll</w>
med ic▁al</w>
id enti
c▁ omm
P er
▁st ations</w>
▁Th ree</w>
t ec
par ed</w>
is ure</w>
co▁m m
armac eu
▁st ar</w>
▁kinderg arten</w>
▁im posed</w>
▁bel ong
▁ag ed</w>
▁I l
res sed</w>
pen s
i ents</w>
▁shar p</w>
▁ma il</w>
▁inter ests</w>
w▁h at</w>
p▁ ay</w>
per form▁
ail and</w>
▁hel ps</w>
▁ex tent</w>
▁Ap ple</w>
i▁ nd</w>
M ar▁
▁Wh ich</w>
▁P ompeo</w>
▁Chr ist
u al▁ly</w>
t▁ eam</w>
fr on
▁vulner able</w>
▁comm ents</w>
z en</w>
okes man</w>
investig ation</w>
201 9</w>
▁disclos ure</w>
▁de ems</w>
w ise</w>
o oting</w>
in▁ al</w>
e▁x p
en▁ ds</w>
N or
2 8</w>
▁encour age</w>
u▁n e</w>
t ingu
n▁ el</w>
h▁ ere</w>
h alf</w>
e ver
▁stat utes</w>
▁sal ary</w>
▁fl owers</w>
▁fail ure</w>
▁ear thqu
perc e▁nt</w>
K y
▁grad es</w>
▁eff ec
▁child care</w>
res ear▁ch</w>
qu ar
▁hom es</w>
▁compet ent</w>
▁C C
▁200 9</w>
si x</w>
s epar
p ur▁
ol l</w>
hel▁ d</w>
B usan</w>
▁un d▁er</w>
▁trea ted</w>
▁th ous
▁s etting</w>
▁R yu</w>
▁A ud
ta i▁n
prov inci▁al</w>
ib ility</w>
ci▁ l</w>
▁vid eos</w>
▁propor tion</w>
▁lic ense</w>
▁arti cles</w>
u▁m p</w>
elec tion</w>
G y▁
C l
▁ac commod
▁On ce</w>
per i▁od</w>
ot▁ her</w>
n eed</w>
d ata</w>
cons ult
chil dr▁en</w>
be▁c▁ ause</w>
▁bl ue</w>
me▁ ans</w>
e▁ ld</w>
Un iversity</w>
S▁ .</w>
▁dr unk</w>
tea▁ m</w>
m ent▁al</w>
k▁ er</w>
grow th</w>
Chung ch
▁subpar agraph</w>
▁ran ked</w>
▁proced ure</w>
▁p sych
▁m anner</w>
▁affili ated</w>
um▁ an</w>
b i
▁judg ment</w>
▁fin ding</w>
▁car rying</w>
▁Mot ors</w>
tra▁ de</w>
m i▁t</w>
em▁ ber</w>
aw ei</w>
▁min ute</w>
▁b ull
▁b ic
▁atten ding</w>
u▁ ce</w>
p op</w>
o▁n ly</w>
S pec
▁over come</w>
▁Phil ippines</w>
▁Chil dren</w>
per iod</w>
i▁ tion</w>
I N
▁sp ot</w>
▁s af
▁del icious</w>
▁applic ant</w>
▁P eace</w>
ab led</w>
▁bott om</w>
epren e
e ti▁
cr aft</w>
b eg▁
K▁or e▁a</w>
Jap▁ an</w>
▁suspic ion</w>
▁resc ue</w>
st a▁r
▁min im
▁fir ms</w>
id e▁d</w>
h w▁an</w>
er▁ gy</w>
Y oon</w>
2 00</w>
w in
w a▁r
u an</w>
p▁ eopl▁e</w>
f▁ or▁
▁star s</w>
▁mix ed</w>
▁fea ture</w>
▁ac compan
▁Sing er</w>
▁Pyeong taek</w>
▁lat est</w>
v i▁ng</w>
ub▁ lic</w>
g ang</w>
fer en▁ce</w>
e▁ ad</w>
2 5
▁str ess</w>
▁mon it
▁f ight</w>
▁W est</w>
t▁ im
techn olo▁gy</w>
oh ang</w>
▁com fortable</w>
w▁h y</w>
t▁w een</w>
sur y</w>
clus ion</w>
an t▁s</w>
an aly
ac ts</w>
In t
Ch▁ in
▁tr ack</w>
▁stor age</w>
▁o kay</w>
▁mar riage</w>
▁m ur
▁confir mation</w>
▁B aek
o▁ u</w>
oc king</w>
g▁ lobal</w>
3▁ rd</w>
▁s tic
▁happ en</w>
▁exec ution</w>
▁emerg ing</w>
e▁r ▁e</w>
▁offic ially</w>
▁d ▁
▁19 7
v ious</w>
m▁ ake</w>
g▁ ood</w>
e b▁
d an▁ce</w>
as ts</w>
19 ▁
▁brief ing</w>
y o▁ng</w>
m▁ s</w>
▁sp irit</w>
▁p ower
▁Pro ject</w>
▁Med ical</w>
g▁ o
airper s▁on</w>
▁w oul▁d</w>
▁don ation</w>
▁announ ce</w>
▁M y
s▁ ia</w>
pur ch
pr▁ om
l a▁te</w>
ash ing
ag g
ad y</w>
Gyeong g▁i</w>
▁sh ot</w>
th i▁ng</w>
st o▁ry</w>
shi▁ p</w>
▁politi cs</w>
op ▁e</w>
c▁ om▁
ar eness</w>
H ong</w>
▁w ages</w>
▁Chungch eong</w>
▁200 8</w>
or ig
es s▁ed</w>
d el▁
▁poll ution</w>
▁o bl
resp on▁
o k▁
in t</w>
h old</w>
ex ec
Gyeong sang
▁re fer
▁quanti ty</w>
▁cos metics</w>
▁comp ly</w>
▁En ter
t ar
our self</w>
l▁ i
ic▁ y</w>
exper ien▁ce</w>
c ulture</w>
bo▁ th</w>
ac ▁h
▁rea dy</w>
▁mar ried</w>
▁2 ,
ou ldn</w>
i▁ sh
ag▁ ainst</w>
▁expend iture</w>
on able</w>
f arm
3 1</w>
▁t yphoon</w>
▁su itable</w>
▁sp ea
▁pas sing</w>
▁par ti
▁oper ators</w>
▁m ob
▁cons ulting</w>
▁ch e
▁app ears</w>
▁Sun day</w>
unic ations</w>
u tions</w>
s oci
d e▁d</w>
a▁ tio▁ns</w>
▁s inc
▁predic t</w>
▁concentr ation</w>
▁att ack</w>
▁ab s
clud e</w>
Comm ittee</w>
▁r ule</w>
▁b ed</w>
▁S e</w>
v e▁ry</w>
s▁ ity</w>
diff▁ ic▁
M▁ ay</w>
K ang</w>
2 6</w>
▁fin ance</w>
▁dem anded</w>
▁b ▁y</w>
▁20 s</w>
▁wor s
▁strength ening</w>
▁p utting</w>
▁main tained</w>
em ical</w>
▁ev entually</w>
▁bus es</w>
▁am id</w>
v i▁c
i▁n g
foll owing</w>
activ ▁
N a▁
▁Braz il</w>
ri c</w>
ell o</w>
▁real ize</w>
▁pri ority</w>
▁D ru
▁1 0,000</w>
t▁ ern
in te▁r
as ters</w>
S outh</w>
▁organiz e</w>
▁Econom y</w>
serv ▁
os ▁e</w>
j o</w>
is▁ ts</w>
i eld</w>
hous i▁ng</w>
g u▁
; ▁
▁conserv ative</w>
▁c enter
▁In d
um ed</w>
d ea▁
▁sl ightly</w>
▁sit u
▁rem ov
▁re b
p un
m er
j e▁c
ij ing</w>
g i▁ve</w>
e▁r ed</w>
expres s▁ed</w>
att e▁rs</w>
▁lawmak er</w>
▁attrac ted</w>
▁Cheon an</w>
n atur
eff ec
c anc
bir th</w>
as ses</w>
Sam su▁ng</w>
▁wea k
▁S audi</w>
▁Ko▁ rea</w>
f eel</w>
Y ang</w>
t om
pl a▁ns</w>
lis t</w>
h um
an ak</w>
P r
N▁ ational</w>
Je ju</w>
▁prem ium</w>
t▁h ey</w>
pr▁iv ate</w>
i▁ re</w>
e t▁ed</w>
ch a▁r
▁val ues</w>
▁c ooking</w>
▁c l▁
y▁ o</w>
m u▁ch</w>
fun c
ari ffs</w>
ac coun
w elfa▁re</w>
ti ous</w>
kn own</w>
e▁m b
F ac
▁s eek</w>
▁re ward</w>
▁m aster</w>
▁contrac ts</w>
▁cl in
▁car eful</w>
s ocial</w>
ind▁ us
et te</w>
▁rul ed</w>
▁h owever</w>
▁K OS
▁B aek</w>
v o
stit utes</w>
reg ul▁ar</w>
pre▁ ss</w>
ol es
it es</w>
in▁ ue</w>
av el</w>
al i
▁gr ant</w>
▁bl ock</w>
▁M ongol
▁C ong
t▁ ak
perform ance</w>
o b▁
in▁ g
fr o▁nt</w>
S T</w>
4 5</w>
▁m ayor</w>
▁exper t</w>
▁an x
st▁ ud
ra▁ p
mak er</w>
S un</w>
▁inconven ience</w>
▁hol idays</w>
▁Ar ts</w>
under▁ st
re▁c e
al ize</w>
ai▁r m▁an</w>
▁complain t</w>
▁b ags</w>
▁Olymp ics</w>
▁Bo ard</w>
st y▁le</w>
I m
▁canc eled</w>
▁bu ying</w>
▁ab▁ out</w>
▁H o</w>
tor ▁s</w>
ouT ube</w>
l ove</w>
av ing</w>
atten d▁ed</w>
F ound
▁t ea</w>
▁pro hib
▁offer ed</w>
▁dis hes</w>
▁ag ree</w>
▁T eam</w>
y in▁g</w>
w a▁y</w>
si on
ordin ate</w>
on ce</w>
h▁ it</w>
ed y</w>
e ys</w>
c▁ ase</w>
b y
activ iti▁es</w>
C ou▁rt</w>
▁l itigation</w>
▁hel ped</w>
▁Ar ti
y ed</w>
▁st atistics</w>
▁institu te</w>
▁ag ing</w>
▁Se ok</w>
t▁ ers</w>
p ot
ol den</w>
nam ese</w>
e▁l op
ar r▁
ang ing</w>
E conom
▁h urt</w>
▁amend ment</w>
s .</w>
i▁ se</w>
P▁ op</w>
▁h ospitals</w>
▁Han wha</w>
y▁ u</w>
r ban</w>
a f▁f
Chin e▁se</w>
▁stud ies</w>
▁Jeoll a</w>
ugg ish</w>
m▁ ark
f air</w>
e b</w>
an der</w>
Pres▁ ident</w>
L oc▁al</w>
&▁a p▁os;s</w>
▁rem arks</w>
▁orig inally</w>
▁emerg ed</w>
▁dis posal</w>
us h
me▁ et</w>
in o</w>
im b
f av
P ri▁
▁w asn</w>
▁schol ar
▁J oo</w>
oc▁ r
e ducation</w>
d▁ ec
T r▁
i ers</w>
g y
ea l▁ed</w>
an▁ s
F A</w>
▁w o▁r
▁phenomen on</w>
▁ba▁ sed</w>
▁R el
▁A ut
wor d</w>
s onal</w>
m▁ et</w>
aug ur
am ework</w>
▁sprea ding</w>
▁mus ical</w>
▁im ported</w>
▁app eal</w>
▁A ll
s ized</w>
c a▁r
▁ex posed</w>
▁claim s</w>
▁Gang neung</w>
z z
uc tion</w>
qu esti
pr i▁ce</w>
c▁ rea
c ultu▁re</w>
al ent</w>
Res ear▁ch</w>
J u▁ng</w>
▁th ank</w>
▁auth or</w>
li o▁n</w>
e▁ al
det erm
as an</w>
▁perform ing</w>
▁f oot</w>
▁D ynasty</w>
z es</w>
pol ice</w>
m ob
j oi▁nt</w>
is su▁
ig ▁n</w>
ic▁ le</w>
ent ally</w>
ec onomy</w>
W h
Aff ai▁rs</w>
▁recogn ition</w>
▁low est</w>
▁fig ures</w>
▁di verse</w>
▁N ews</w>
proc e▁ss</w>
port ers</w>
pl a▁n
ati v▁e</w>
D ef
6 5</w>
▁p ort</w>
▁natur ally</w>
▁guid elines</w>
w▁h ile</w>
tr ea
t en▁
m atte▁rs</w>
iv i▁ng</w>
ho▁ on</w>
P yeong
▁won der</w>
▁H ae</w>
jo▁ bs</w>
b on</w>
▁obl ig
▁c overed</w>
▁b ▁
▁ at▁ion</w>
o▁u gh</w>
o▁ ur
l e
at e▁ly</w>
ap o</w>
▁P yongyang</w>
la▁ ted</w>
i os
g▁ er</w>
et t▁er</w>
ed om</w>
comp reh
W or▁ld</w>
▁lec tures</w>
▁crea tive</w>
w age</w>
sign ific
pr o▁m
od ies</w>
il ot</w>
il at
ch e▁
▁Y eon
▁Tem ple</w>
▁K o</w>
▁&ap▁os ;</w>
u▁ ed</w>
1▁ 00</w>
▁l i▁
▁identi fied</w>
▁cooper ative</w>
▁aw arded</w>
0 .
▁c ool</w>
s cor
r ad
on l▁y</w>
id ity</w>
ge▁n eral</w>
art ups</w>
K i</w>
▁p eti
3 5</w>
▁sk y</w>
▁inev itable</w>
▁: :</w>
z ▁ed</w>
ow e▁r</w>
i▁t tee</w>
gr▁ am</w>
g ive</w>
g ence</w>
at u▁re</w>
T A</w>
▁re organiz
▁perf ect</w>
▁d rive</w>
▁allow ances</w>
▁P as
ust ain
tr aini▁ng</w>
l ong
ip e</w>
fo▁r mer</w>
▁e sc
▁car ds</w>
wor king</w>
v ill
un j
t▁h ▁e</w>
ti▁ cle</w>
s un▁g</w>
per ty</w>
ig n▁ed</w>
icul um</w>
ic ed</w>
com p▁l
▁ep is
▁effici ently</w>
me▁ d
i▁n gs</w>
ir ation</w>
f it</w>
d id</w>
201 6</w>
▁kn ew</w>
▁jud icial</w>
▁fr anch
▁em b
▁dri vers</w>
▁coll abor
r ▁e</w>
er ea
b enef
▁l ov
▁V en
▁O kay</w>
▁Agric ultural</w>
sti t▁
or▁ ts</w>
on er</w>
ner ship</w>
▁public ly</w>
▁Pa ju</w>
increa s▁ed</w>
az a</w>
as ted</w>
▁unf air</w>
▁achiev ed</w>
prov ince</w>
diff▁ic▁ ult</w>
comm un
▁l ux
▁grow n</w>
st ore</w>
op ol
mon ey</w>
l ead
iz ▁ation</w>
ed eral</w>
bas ed</w>
air ▁s</w>
activ ities</w>
ac hed</w>
H o▁ng</w>
▁requ ests</w>
▁pat h</w>
▁fac tor</w>
ro l</w>
b▁ ed</w>
▁th in▁k</w>
▁he▁ ad</w>
▁disp atched</w>
▁conven ient</w>
op en</w>
oc ated</w>
e▁c ted</w>
S m
▁v i▁sit</w>
▁b and</w>
▁ ati▁on</w>
tim es</w>
ess ors</w>
3 2</w>
▁o ▁
▁g ain</w>
▁benef it</w>
▁G eun</w>
▁G al
sum er</w>
n etw
et▁ y</w>
enti ment</w>
H igh</w>
C or
201 7</w>
▁teen agers</w>
▁m outh</w>
▁he▁ ld</w>
▁C ivil</w>
su gg
rec ent▁ly</w>
j eon</w>
el ings</w>
▁wor ry</w>
▁smo oth</w>
▁sec tors</w>
▁or▁ der</w>
▁j ustice</w>
▁g un</w>
▁be er</w>
▁aw areness</w>
u▁ sed</w>
sel ▁
ro▁ u
mir ae</w>
dom est▁ic</w>
at▁ ing</w>
am ▁es</w>
▁parliam entary</w>
▁con tributed</w>
rec e▁
con stru▁c
a ight</w>
2 9</w>
▁purch asing</w>
▁pret ty</w>
▁n early</w>
▁i gn
▁ac ting</w>
ym ore</w>
u▁ ps</w>
manag ement</w>
m at▁ch</w>
incl▁ud i▁ng</w>
c amp
S ing
▁su icide</w>
▁sl ow</w>
▁hy drogen</w>
ro▁ le</w>
p aid</w>
l ov
l ab▁or</w>
▁t ests</w>
▁s igning</w>
▁Christi an</w>
ther wise</w>
g▁ ue</w>
for ▁e</w>
c a▁l
at e▁
app▁ ly</w>
▁dis tricts</w>
▁R ights</w>
▁H ea
▁F ilm</w>
re ds</w>
p eopl▁e</w>
o▁r m</w>
o▁ ve</w>
on ial</w>
in come</w>
i e▁n
administr ati▁on</w>
V ice</w>
▁un cer
▁str ike</w>
▁relig ious</w>
▁differ ences</w>
▁20 20</w>
av o
1▁ 0</w>
▁for um</w>
▁adv ice</w>
▁Pen sion</w>
uc ks</w>
ti le</w>
b ack
ar eas</w>
▁vo ices</w>
▁sh oes</w>
▁confl icts</w>
▁af ter
▁C ooper
x es</w>
in e
9 0</w>
▁supervis ion</w>
▁inv ited</w>
▁a id</w>
w a
s ee
re▁ ase</w>
k e▁d</w>
▁T okyo</w>
▁Inv estment</w>
▁G lobal</w>
the▁ m</w>
si l</w>
m is▁
l abor</w>
▁requir ements</w>
▁dr ugs</w>
▁cro ss
▁cont aining</w>
▁G iven</w>
hea l▁th</w>
at in▁g</w>
▁ver sion</w>
▁ref ers</w>
▁athl etes</w>
▁Sh im</w>
promo▁ te</w>
pr ice</w>
ou s▁
op▁ en</w>
ong no</w>
▁m ▁
▁Viet namese</w>
▁2 5
or r▁y</w>
Or d
▁ass et</w>
i▁ r</w>
exc e▁
▁sem ester</w>
▁m ass</w>
▁go als</w>
▁f arm</w>
▁b an
▁Th ailand</w>
▁I CT</w>
stud ▁
p▁ol icy</w>
invest me▁nt</w>
f ar</w>
e on▁g</w>
d▁ es
b al
ath e▁r</w>
D irec
C ooper
▁w▁ ith</w>
▁sur face</w>
▁G or
▁Christ mas</w>
t a</w>
su▁ pp
il s</w>
if ying</w>
bass ador</w>
ax y</w>
ang h
▁w ake</w>
▁H ere</w>
s ay</w>
rel ev
p h▁
▁dro pped</w>
▁dec laration</w>
▁W estern</w>
▁D oes</w>
prov in▁ce</w>
nam ent</w>
l i▁ng</w>
i▁ d</w>
i ously</w>
H ee</w>
▁t ariffs</w>
▁explan ation</w>
▁b ills</w>
sub sid
re▁ ad</w>
lik ▁e</w>
ens us</w>
Ch▁in ese</w>
▁wor se</w>
▁al cohol</w>
h on
ay in▁g</w>
ann i▁ng</w>
adminis tr▁
20▁1 8</w>
▁r out
▁d ea
▁H ak</w>
v e▁n
tw▁ o</w>
s▁ um
ind ivid
ch ang</w>
ac▁ c
▁sup ports</w>
▁pay ments</w>
str o▁ng</w>
m e▁n
c▁ ar</w>
▁m ill
▁A si
ap prov
N ational</w>
▁competi tive</w>
▁comb ined</w>
▁ad ults</w>
se▁ ok</w>
ou▁ ng</w>
om b</w>
no▁ w</w>
i▁ st▁
g▁ row
bec o▁me</w>
▁g rew</w>
ol▁ ds</w>
I ▁t</w>
▁compl exes</w>
▁chall enge</w>
▁adverti sing</w>
zbe k
for ce</w>
en ▁s</w>
diffic u▁lt</w>
ci t▁
▁f ifth</w>
▁cont ain
▁S NS</w>
▁J o</w>
▁ ic</w>
tiv ▁
stand i▁ng</w>
b▁ efo▁re</w>
W on</w>
▁fe els</w>
▁f iscal</w>
▁big ger</w>
▁ar my</w>
u ted</w>
s▁ ti
st u▁
j obs</w>
▁oper ations</w>
w it▁h
play ▁ed</w>
ist ant</w>
f ail
I S</w>
3 00</w>
▁us age</w>
▁pre gn
▁pic k</w>
▁monit oring</w>
▁alleg ed</w>
▁M e
▁J un</w>
▁H ar
▁G o</w>
y on▁g</w>
pres i▁d
ough ly</w>
ib▁ le</w>
bor n</w>
4 ▁th</w>
▁emp ty</w>
▁canc ell
▁b ▁e</w>
▁Con struction</w>
uc le▁
liv i▁ng</w>
ho▁ ur</w>
f▁ ri
a▁c y</w>
app ed</w>
Y ong
C up</w>
▁pr a
▁govern ed</w>
ta▁ e</w>
med ia</w>
hy e</w>
▁s un</w>
▁det ail</w>
▁E very</w>
wor▁ ld</w>
um i</w>
ou▁r s</w>
mat er
k il
g▁ u
enter pris
▁smartph ones</w>
▁m and
▁ch ar
▁10 0,000</w>
w er</w>
v ac
spec ial
ol s</w>
n ecessary</w>
il d
ho▁ ld</w>
g lob▁al</w>
ee d▁ed</w>
▁w o▁uld</w>
▁w il▁l</w>
▁sw eet</w>
▁respon dents</w>
▁pus hing</w>
▁cor ruption</w>
rec ogn
m▁ ed
l▁ s</w>
im ming</w>
h and
bo▁ dy</w>
T X</w>
M a▁r
▁vic tory</w>
▁s ear
▁law yer</w>
▁inv ested</w>
▁innov ative</w>
▁eas ier</w>
▁N ext</w>
▁Ch useok</w>
t ings</w>
ill eg
i ums</w>
at▁ ive</w>
▁wh om</w>
▁br ands</w>
qu e</w>
is h▁ed</w>
f ee▁
enti a</w>
c and
&▁apos; t</w>
▁su ffer</w>
▁sm all
▁passeng er</w>
▁commer ci
ic e▁s</w>
ea▁ d</w>
Je oll
▁shar ply</w>
▁initi al</w>
▁e ase</w>
▁dec or
▁cul tiv
▁beg un</w>
par ag
l igh
f▁ r
cl aim
c rea▁
thr▁ ough</w>
p m</w>
o il</w>
mi▁ ss
bus i▁ness</w>
▁tal ent</w>
▁det ected</w>
ok i▁ng</w>
com b
▁wh enever</w>
▁diplom atic</w>
▁d ogs</w>
▁M i</w>
▁ ted</w>
reg is
f am▁
▁p ▁
▁grea ter</w>
▁car efully</w>
▁at titude</w>
▁ac ts</w>
succ ess
po▁ se</w>
p o
m▁ en</w>
i o▁n
i e▁d</w>
▁f ear</w>
▁Hu awei</w>
m ark</w>
i ary</w>
employ me▁nt</w>
▁d ry</w>
▁H was
▁C ol
e▁ me▁nt</w>
e ffici
curr e▁nt</w>
O f▁f
I T</w>
▁sim ply</w>
▁p age</w>
▁apprec iate</w>
o▁ ffice</w>
i▁ zed</w>
e e▁d</w>
con sec
b▁ as
atiz ation</w>
appoin t▁ed</w>
P▁ rov
Gye on▁g
▁t opic</w>
▁t elecomm
▁sud den</w>
▁real ized</w>
▁cons ists</w>
▁S MEs</w>
w ood</w>
op e▁r
enc ing</w>
▁ven ture</w>
▁no tic
▁im ages</w>
▁exper im
▁evalu ated</w>
▁clos ely</w>
▁br ain</w>
▁b onds</w>
▁L ike</w>
urs day</w>
so▁ on</w>
ic i▁es</w>
f a▁ns</w>
cer emo▁ny</w>
b us</w>
a ud▁
R S</w>
▁un less</w>
▁in form</w>
▁exclus ive</w>
▁charg ed</w>
▁In depend
p▁ eo▁ple</w>
pa▁ st</w>
os en</w>
iz ▁e</w>
is ition</w>
establis h
eng th</w>
c▁ r
b ad</w>
ad es</w>
▁ref er</w>
▁man ip
▁fl ower</w>
▁exam ine</w>
▁eng aged</w>
▁3 1st</w>
t alk</w>
st a▁
o d▁
j a</w>
cl ass</w>
at h</w>
all en</w>
M e▁
▁offer ing</w>
▁d ivid
und reds</w>
jus ▁t</w>
b▁ ack</w>
Kor ea▁n</w>
u▁r n</w>
bl ed</w>
am▁p ;</w>
A si▁an</w>
. 5
▁st abil
▁pr ime</w>
▁bl ocked</w>
se▁r vice</w>
r a</w>
ha▁ v▁e</w>
fo▁r m
c ol▁
ar ian</w>
Sup po▁rt</w>
▁wind ow</w>
▁sl uggish</w>
▁resear chers</w>
▁prom ised</w>
▁ch ose</w>
▁L aw</w>
un ior</w>
relev a▁nt</w>
h eal
b oth</w>
activ e▁ly</w>
Sh in</w>
S ou
▁prov inces</w>
▁pen alty</w>
▁d ark</w>
▁Comp any</w>
tak i▁ng</w>
sh ow▁ed</w>
ou sing</w>
▁G reen</w>
re▁ qu
r at
prof essi
d eg
ci en▁ce</w>
az on</w>
En▁ g
&▁a pos▁;s</w>
▁v ess
▁sec urities</w>
▁fu el</w>
▁e ither</w>
ul ati▁on</w>
tu p</w>
gr am</w>
as▁ te</w>
▁far ms</w>
▁conf idence</w>
▁S y
▁O per
▁Gyeong nam</w>
t▁ ions</w>
ti se</w>
ne▁ ar</w>
ic ▁s</w>
T▁ r
A ir
▁th▁ ere</w>
▁pack age</w>
▁m e▁
▁listen ing</w>
▁concentr ated</w>
▁ad just</w>
▁Malay sia</w>
won do</w>
t o
fi e▁ld</w>
d▁ idn</w>
ac tive</w>
▁s ad</w>
▁manag ing</w>
▁d ed
u to</w>
ten ing</w>
pr▁ il</w>
ll ed</w>
O h</w>
▁tro ops</w>
▁m om</w>
▁Ta x</w>
us ▁t</w>
mil▁ itary</w>
ch▁ ang
Sa▁m sung</w>
▁y ellow</w>
▁wh e▁n</w>
▁r aw</w>
▁F ree</w>
v ar▁
to▁ o</w>
si▁ ble</w>
l▁ ing</w>
l ic
it▁ e</w>
ay i▁ng</w>
▁spec ified</w>
▁c ode</w>
▁Exc ept</w>
s▁ erv
st age</w>
si▁ k</w>
pre vi
it e▁d</w>
J eong</w>
Intern ation▁al</w>
▁th▁ e▁re</w>
▁star ts</w>
▁sh r
s▁h ip</w>
sa▁ ng</w>
s ince</w>
n et</w>
j ae</w>
g u▁n</w>
fac ilities</w>
er ship</w>
c an
R e▁
J une</w>
▁scor ed</w>
▁earthqu ake</w>
▁b re
▁Mus ic</w>
re f▁
o▁ ver</w>
ob by</w>
le▁ ad
it ch</w>
ici ary</w>
ev▁ el
Prov▁ ince</w>
M y</w>
A I</w>
1 7
▁multi ple</w>
▁g one</w>
we▁ l
v▁ al</w>
nu▁ clear</w>
it or
isten ce</w>
d ang</w>
ashing ton</w>
▁suspic ions</w>
▁communic ate</w>
▁Gr and</w>
u▁ es</w>
sh ▁e</w>
estiv als</w>
▁m eals</w>
▁3 0s</w>
p .</w>
cu▁r rent</w>
ap y</w>
▁expres sion</w>
▁R oad</w>
z ▁
w ant</w>
pr▁ oc
m m</w>
int e▁n
a▁ ss
Gen er▁al</w>
▁y ourself</w>
▁st eel</w>
▁hon or
ti on▁al</w>
t o▁ry</w>
s l▁
or d▁
d ir▁ec
b▁ ig</w>
a ff▁
▁su it</w>
▁extr eme</w>
▁5 2</w>
▁&a▁ pos;</w>
ut▁ es</w>
re▁ ss</w>
e very
E un</w>
▁r iver</w>
▁inc en
▁Wh o</w>
▁W o
w a▁ys</w>
w a▁ge</w>
te▁ nd</w>
spec ▁
re ti
p▁ ol▁
pos▁ ;
op positi▁on</w>
ic op
a▁ tion▁s</w>
▁con tribution</w>
▁clean ing</w>
▁autom atically</w>
▁ab ou▁t</w>
u▁n der</w>
tur n</w>
st op</w>
particip at▁ed</w>
me th
m il
is s</w>
ic a▁l</w>
al ist</w>
I C
Com p
▁sing ers</w>
▁intro ducing</w>
▁com position</w>
▁all owing</w>
▁1 50</w>
poli▁ tical</w>
osp ital
m et</w>
lik e▁ly</w>
ef s</w>
agre eme▁nt</w>
Or ganiz
M W</w>
▁w i▁th</w>
▁t ons</w>
▁s u▁
▁Pol icy</w>
t▁ ic</w>
serv ic▁es</w>
re▁ me</w>
olog▁ y</w>
o thing</w>
ic it</w>
ho▁ pe</w>
es▁ ts</w>
E l
▁or dinance</w>
▁no ise</w>
▁lea ves</w>
▁l ease</w>
▁gu ess</w>
▁b attle</w>
▁N or
or ▁ed</w>
e▁r t</w>
d▁ em
▁k imchi</w>
▁decl ared</w>
▁Y ouTube</w>
▁C ap
▁An y</w>
▁3 2</w>
p oint</w>
is si▁on</w>
d a▁ta</w>
a th▁er</w>
S un
▁t esti
▁D ivision</w>
ough ts</w>
it ations</w>
in▁ ess</w>
form er</w>
es ▁e</w>
Gwang ▁ju</w>
Da e▁
▁p ort
▁deg ree</w>
we▁ ek</w>
t▁ io▁n</w>
ot▁ ed</w>
on ▁ed</w>
in et</w>
e▁r ing</w>
▁respon ded</w>
▁en thusi
▁c ross</w>
w e▁nt</w>
s ome
d on</w>
at▁ or</w>
N ov
G o▁
▁f undam
▁earn est</w>
▁e th
▁bor der</w>
▁H ol
t▁ e▁d</w>
st a▁te</w>
o▁ ffic
o tions</w>
in ati▁on</w>
fi▁ l
f ul▁
f re
emb e▁r</w>
▁comb ination</w>
os u</w>
il▁ ls</w>
en h
K▁ or▁
C o</w>
2 8
▁los ses</w>
▁los ing</w>
▁lea ds</w>
▁ill eg
▁exten sion</w>
▁P ohang</w>
wh eth▁er</w>
te▁ e</w>
r ai▁
m inal</w>
iti v
b udget</w>
J uly</w>
B l▁
▁trav eling</w>
▁c af
▁V arious</w>
rel ation
gener ati▁on</w>
Prov i▁nce</w>
▁h iring</w>
▁ab and
▁Cheong ju</w>
wit ter</w>
ult an
rou g▁h</w>
ri f
rel ated</w>
ion a▁l</w>
com fortable</w>
c e▁s</w>
ad ministration</w>
Un ive▁r
▁un like</w>
▁m unicipal</w>
▁e g
▁e cos
▁d ong</w>
▁collap se</w>
▁b all
▁arti st</w>
▁H ello</w>
st▁ it
p i▁c
oc c▁
de▁ f
a▁n n
aff ai▁rs</w>
P I</w>
▁T rea
iti on▁al</w>
d ou
au ce</w>
J▁ ap
▁r ide</w>
▁c o▁m
▁ann ually</w>
▁D an
▁Agric ulture</w>
u ff
tur ▁es</w>
pr▁ oc▁
ograp h
int▁ ern
cr im
ablis h
▁sec uring</w>
▁fi ref
▁expl os
▁dismis sed</w>
▁chall eng
s a▁n</w>
oo thly</w>
i▁l ity</w>
f ind</w>
f ather</w>
▁vill ages</w>
▁trans par
▁sh ops</w>
▁down town</w>
▁disc overed</w>
▁curr iculum</w>
▁Seong nam</w>
is ti▁ng</w>
ed▁ ge</w>
com es</w>
ch eo▁n</w>
D e▁
▁stud ied</w>
▁sp ons
▁re place</w>
▁invest ments</w>
▁f ails</w>
▁custom ized</w>
▁Sec urities</w>
▁Be ijing</w>
ach iev
▁wid ely</w>
▁sp aces</w>
▁replac ed</w>
▁reas onable</w>
▁merch ants</w>
▁h ike</w>
▁g ained</w>
▁fa ith</w>
▁Str eet</w>
▁H on
▁An san</w>
s▁ ub
sh▁ all</w>
r▁eal ly</w>
re▁ la▁ted</w>
o▁ ok</w>
ir▁ ae</w>
h▁ igh
b ors</w>
▁im ag
▁f aster</w>
▁d rew</w>
▁K ia</w>
ul ted</w>
uch eon</w>
tor ies</w>
s ing▁
s ett
particip a▁te</w>
om b
herein a▁ft▁er</w>
ci a▁l</w>
air ed</w>
ac tion</w>
▁exemp tion</w>
ti s</w>
rec ru
p .m.</w>
j oy</w>
c▁h eon</w>
aut om
P resi▁d
▁v oting</w>
▁sou p</w>
▁fos ter</w>
you▁ r</w>
tr ie▁s</w>
rim ination</w>
m▁ in
ex ▁t</w>
c iv▁il</w>
b▁ le</w>
b ooks</w>
C o▁un
▁intern et</w>
▁fi erce</w>
▁f ill</w>
▁M r
▁Ch a</w>
y ear▁s</w>
gover n▁or</w>
e▁ ri
e▁ am</w>
er able</w>
ain t</w>
OS CO</w>
M us
E X</w>
&a▁pos▁ ;</w>
▁un usual</w>
▁st ability</w>
▁sh ooting</w>
▁g r▁
▁fre ely</w>
▁C itizens</w>
plo y▁
pa▁ id</w>
op eni▁ng</w>
m▁ ov
he▁ l▁d</w>
ell a</w>
co▁ st</w>
a th▁
Un it▁ed</w>
D iv
▁mis s</w>
▁dep ar
▁ d</w>
v▁ ey</w>
th▁ a▁t</w>
l os
en c▁y</w>
ea▁ sed</w>
c at
a▁r ed</w>
▁cr ack
▁continu ous</w>
▁ass aul
▁M ean
y a</w>
u ting</w>
pp ing</w>
l▁ evel</w>
g e▁t
f ans</w>
ea c
d es▁
ar e▁a</w>
G▁yeong gi</w>
▁re fr
▁c afe</w>
ver al</w>
res p▁
pos ite</w>
o king</w>
mor ning</w>
me et</w>
k er▁s</w>
coun tries</w>
N .</w>
C▁ ity</w>
C ente▁r</w>
2 6
▁disc rimination</w>
▁dem ands</w>
▁Tur key</w>
ter ▁ed</w>
r ights</w>
j u▁
h ealth</w>
g n</w>
▁situ ations</w>
▁sh ow
sh ould</w>
m om
kn owl
ent um</w>
bo x</w>
N am</w>
▁rem ove</w>
▁o therwise</w>
▁mut ual</w>
▁Ab ove</w>
st a▁ge</w>
res ol
ed ing</w>
an im
T ra▁
▁inv oice</w>
▁fam iliar</w>
▁bor row
▁Z one</w>
▁Par ticip
se▁ as</w>
l oo
h ot</w>
comp et▁
▁p op</w>
▁day care</w>
▁cop y</w>
u▁ nd</w>
res taur
qu a▁r
in clu▁ding</w>
establis h▁ed</w>
em p▁l
dr aw</w>
al▁ ls</w>
▁L ooking</w>
t▁ic le</w>
s▁ i</w>
mak ▁e</w>
it ual</w>
ig ar
if ts</w>
id▁ eo</w>
enter ▁ed</w>
ea▁ s</w>
aw n</w>
al▁ ity</w>
ad ver
E ▁n
▁u plo
▁spen ding</w>
▁recogn ize</w>
▁lin ked</w>
▁dang erous</w>
▁behav ior</w>
▁S ang
se o▁k</w>
ri ers</w>
c ur▁
c ard</w>
al▁ ue</w>
▁usu al</w>
▁tal ked</w>
▁M embers</w>
t omorrow</w>
n eigh
m▁ en▁t</w>
fin▁ al</w>
ch es
c e▁d</w>
al l▁ed</w>
▁w edding</w>
▁r are</w>
▁lea gue</w>
▁exc av
▁Nav er</w>
▁&▁ quot;</w>
re▁ ss
q▁ u▁
m at▁
h▁ ye</w>
e▁ ll</w>
evelop me▁nt</w>
con d</w>
bass y</w>
b ank</w>
▁pre viously</w>
▁piec es</w>
▁mist ake</w>
▁hum an
▁ac tions</w>
gu id
J ang</w>
D A
, 6
▁p ilot</w>
▁Kor e▁a</w>
prov id
pl ied</w>
g ov▁ern
d er▁
con fl
Pr▁ ov
▁v acc
▁a▁ nd</w>
▁am oun
▁a r▁
s▁h all</w>
sib ili▁ty</w>
ific ations</w>
diffic ul
ci ent</w>
a▁n ts</w>
Pa▁r ty</w>
▁eng ine</w>
▁Indus tries</w>
▁3 4</w>
mon ths</w>
m id</w>
igh ters</w>
fac il▁
ec on▁
doc um
M on
En ter
. .</w>
▁y e▁ar</w>
▁negoti ation</w>
ti▁ n▁g</w>
sy▁st em</w>
h oo▁n</w>
f e▁r
f a▁ce</w>
emerg en▁cy</w>
B us
20 th</w>
▁hand ed</w>
▁g e
▁Y un</w>
▁C ri
▁A s
▁200 7</w>
st a▁rt</w>
produc ti▁on</w>
m▁ er</w>
is ional</w>
ir ▁ed</w>
il i▁es</w>
at▁ ion▁s</w>
ation a▁l</w>
J u▁ne</w>
▁sh ut
▁s p▁
▁n ecess
▁l ess
▁doll ar</w>
▁P ower</w>
▁Mean while</w>
tr eat
rel▁ ated</w>
h am</w>
e▁s s▁
1▁ 9
▁wor st</w>
▁sing ing</w>
▁M ad
s▁ ix</w>
sus pec
re▁l ated</w>
re x
r u▁n
ind ic
e ung
S e▁r
E uro
▁fac ts</w>
▁N ex
s▁ ta▁
s▁ ch
s ociety</w>
elec ti▁on</w>
e the▁r</w>
am ou▁nt</w>
accor di▁ng</w>
abil i▁ty</w>
S▁ outh</w>
O per
J in
5 00</w>
, ▁
▁ter min
▁rel ation</w>
▁c red
▁bo at</w>
star t▁ed</w>
par ▁ed</w>
Sch o▁ol</w>
▁v eter
▁s entiment</w>
▁power ful</w>
▁har d
▁h arm
▁d er
▁Inst ead</w>
▁G re
t▁h ere</w>
tim▁ es</w>
r ap▁
p▁ol ice</w>
oti c</w>
l e▁d</w>
im pro▁ve</w>
h it</w>
e▁x p▁
et▁ ing</w>
ech an
de p▁
S C</w>
▁ow ned</w>
▁enterpr ise</w>
▁c itizen</w>
▁S ystem</w>
▁M an
▁H ang
▁For est</w>
r▁ ate</w>
l▁i k▁
in▁ d</w>
essi ons</w>
dis tribu
ch il▁
ar ound</w>
▁pain tings</w>
▁memor ies</w>
▁cl ou
▁c atch</w>
▁6 5</w>
sp e▁c
ou ido</w>
ograp hy</w>
j o▁ng</w>
el em
a▁n s
Coun cil</w>
▁tou ch</w>
▁s cienti
▁h eight</w>
▁fac ing</w>
▁def in
▁adop ted</w>
▁W on
t▁ h▁
tal▁ ks</w>
indus tri▁al</w>
g yp
coun t▁ry</w>
busin ess▁es</w>
ar row</w>
▁win s</w>
▁sem in
▁s ex
▁invol ving</w>
▁investig ated</w>
▁gl ass</w>
▁Yong in</w>
▁Chang won</w>
y▁ ears</w>
o▁ l</w>
is▁ m</w>
inv olv
ific ati▁on</w>
h▁ alf</w>
eat edly</w>
e ig▁ht</w>
ber g</w>
ay be</w>
ass ment</w>
S ta▁
▁success fully</w>
▁re jected</w>
▁pur poses</w>
▁netw or
▁f ounded</w>
▁diagnos is</w>
▁Pro t
▁I ts</w>
▁C r
o▁ un▁
o thers</w>
h a▁rd</w>
esti v▁al</w>
▁tim ▁e</w>
▁s eal</w>
▁j uven
▁ha v▁e</w>
▁g ate</w>
▁a spec
y one</w>
w eb
p u▁r
f er▁
ener y</w>
el er
ea▁ m</w>
at o▁ry</w>
armaceu tical</w>
U▁n ited</w>
Jap▁ anese</w>
&a▁pos▁ ;▁s</w>
▁m el
▁l e▁
▁ex ▁
▁bir thday</w>
▁W ednesday</w>
s ou
r▁ em
num ber</w>
mus ic</w>
m yeon</w>
d aemun</w>
am ong</w>
ad v▁
M Z</w>
J us
▁sharehol ders</w>
▁satis faction</w>
▁s pl
▁T imes</w>
▁Arti cles</w>
s un</w>
prof▁ it</w>
oy s</w>
co▁mp any</w>
al ogue</w>
▁resol ved</w>
▁gar den</w>
▁det eri
▁Con cer
tor ney</w>
qu ality</w>
por ti▁ng</w>
olo▁ g
S AT</w>
▁str aight</w>
▁G o
▁Br idge</w>
▁B el
pr ais
n ings</w>
f em
er age</w>
ar a</w>
A N</w>
▁tow ards</w>
▁in quir
▁fru it</w>
▁dis charg
▁bu yers</w>
prosec ▁u
off▁ icial</w>
con si▁
cas ▁es</w>
al ists</w>
▁num bers</w>
▁hel ping</w>
▁hand ling</w>
rec or
p▁ ri
prev e▁nt</w>
med▁ ia</w>
consid ▁
bec om
arb age</w>
&▁ap▁os ;</w>
▁s ources</w>
▁s oci
▁ap olog
th▁ ing</w>
t ow
probl em</w>
o▁r d▁ing</w>
me▁d ical</w>
im medi
▁u k</w>
▁employ ed</w>
▁cl ient</w>
▁belong ing</w>
v en▁
stud ents</w>
sc re
reg ion</w>
iv▁ er
he▁ al
c▁om p
,0 0▁0</w>
▁val u
▁sec ret</w>
▁rec over</w>
▁memor ial</w>
▁exc eeded</w>
▁W ashington</w>
▁Sp ain</w>
▁S om
▁Ac tress</w>
pr▁ ob
l ets</w>
hw a▁n</w>
a▁s k</w>
, 8
&a▁po▁s ;</w>
▁per man
▁in str
▁0 .
or▁ ry</w>
in▁ v
g ers</w>
employ e▁es</w>
cl as
c a▁ll</w>
administr ati▁ve</w>
K a▁ng</w>
3 7</w>
1 0th</w>
▁un ve
▁rel ief</w>
▁pro pos
▁pl ays</w>
▁hum ans</w>
▁f ing
▁dou b
▁cons ent</w>
▁classi fied</w>
k e▁rs</w>
en e▁ss</w>
dr a▁
c iv
▁tur ning</w>
▁sp icy</w>
▁pre fer</w>
▁injur y</w>
▁identi ty</w>
▁exten d</w>
▁Gyeong buk</w>
▁B oth</w>
▁Ac ademy</w>
▁A be</w>
tic▁ al</w>
o▁r th</w>
o▁r d</w>
ead ily</w>
c▁ er
b o▁r
art a</w>
▁h ot
▁continu ing</w>
▁N orthern</w>
tric ▁t</w>
tic ultural</w>
os un</w>
m us▁ic</w>
lo▁ ve</w>
ic▁ an</w>
e▁ ir</w>
b▁ uk</w>
H ye</w>
▁le isure</w>
▁inspec t</w>
▁coll ecting</w>
▁G un
u esday</w>
st e▁
s man</w>
or n</w>
mo d▁
k et
ish es</w>
f▁or m</w>
form ed</w>
bu il▁
b el▁
▁aim s</w>
▁C rea
th erm
p▁ o▁s
ond ary</w>
me e▁
employ ▁ed</w>
ell er</w>
con feren▁ce</w>
P ar▁k</w>
2 9
▁dis h</w>
▁Buddh ist</w>
t▁ ies</w>
o ir</w>
f▁am ily</w>
ed ged</w>
ech eon</w>
b▁e ing</w>
S oo</w>
▁v oc
▁retur ning</w>
▁re in
▁fav or</w>
▁aw ards</w>
▁Gang seo</w>
▁4 5</w>
ye on▁g</w>
u ition</w>
r ise</w>
par liam
oo▁ ls</w>
l friend</w>
i▁ gh</w>
ath y</w>
ac tly</w>
▁wat er
▁ma p</w>
▁dis advant
▁3 0
y▁ oung</w>
m ess
f oun
dre▁ n</w>
ann ou▁n
R ev
Bar eun
, 7
▁m al
▁f estivals</w>
▁W ill</w>
▁J ung
th in▁g</w>
s eok</w>
pl aces</w>
k inderg
i▁ ons</w>
ish eries</w>
ij eong
d a▁
c▁h ange</w>
a▁m p
ay ▁ed</w>
ar▁ tment</w>
ardi an</w>
D i▁
▁under ground</w>
▁plen ary</w>
▁fri endly</w>
▁flex ible</w>
▁disclos ed</w>
▁disapp eared</w>
▁center ed</w>
▁aut umn</w>
un g▁
min im
me an▁s</w>
fil m</w>
C C</w>
▁n utr
hea▁ d</w>
S o▁
S h▁
M i▁n
▁win ner</w>
▁suppl ied</w>
▁sm oke</w>
▁pr o▁
▁ag ent</w>
▁B en
on▁ es</w>
is io▁n</w>
f ind
as ting</w>
20▁ 0
12 th</w>
▁v it
▁un ification</w>
▁so ft</w>
▁forec ast</w>
▁cl ubs</w>
▁bl ind</w>
▁D i
sal es</w>
om▁ y</w>
l and
ind epend
candid a▁te</w>
▁th▁ er▁e</w>
▁fe elings</w>
▁S oon</w>
▁F amily</w>
r▁ ough</w>
r an</w>
loc at▁ed</w>
k▁ et</w>
inv es▁
equ ip
educ ▁ation</w>
ec o</w>
charac ter
Pro moti▁on</w>
B r▁
▁t i▁me</w>
▁manag ers</w>
▁c y
▁c ake</w>
wi▁ n
po▁ p
o▁r ts</w>
ot a</w>
hi▁ gh
duc ts</w>
B ur
▁contro versi
▁clim ate</w>
t▁r ict</w>
t ae</w>
s e▁d</w>
or se</w>
ir cles</w>
in ations</w>
ic ate</w>
i e▁nce</w>
ed▁ ly</w>
con du▁c
c m</w>
a▁ k
anm ar</w>
a e▁
▁restor ation</w>
▁prog res
▁n erv
▁inter ior</w>
▁inten si
▁F ur
▁3 3</w>
iber ati▁on</w>
h op▁e</w>
f▁er red</w>
f utu▁re</w>
an▁ ch</w>
V s</w>
En viron
3▁ 0</w>
19 th</w>
▁util ize</w>
▁t ar
▁pr im
▁c ited</w>
u▁s try</w>
u p▁
s▁ ized</w>
syst e▁m</w>
as k▁ed</w>
arg o</w>
agre ement</w>
D evel
B usin
▁part ner</w>
▁issu ance</w>
▁Shin han</w>
▁Pas tor</w>
s▁ ur
m ov▁
k▁ ey</w>
ing ing</w>
il os
i ant</w>
gre▁ at</w>
broad cas
W oo</w>
G w▁
Direc t▁or</w>
▁pat ent</w>
▁p riv
▁k ing</w>
▁R ather</w>
▁Ar my</w>
r▁ ul
pr ises</w>
m illion</w>
e▁ ls</w>
en▁ ing</w>
c▁h a▁r
ay ers</w>
▁qu ick</w>
▁land scape</w>
▁foot ball</w>
ucle▁ ar</w>
t▁ om
te▁ m
re q▁u
coun ter
a▁c c
3 3</w>
, 4
▁sh ipment</w>
▁prof essors</w>
▁por tion</w>
▁h eritage</w>
▁M ike</w>
os is</w>
U. S▁.</w>
Gy▁ eong
▁con clusion</w>
▁air craft</w>
tr u▁c
pro jects</w>
il ding</w>
gover n▁
ai▁ r</w>
D is▁
▁bo y</w>
▁aff ect</w>
ul▁ tural</w>
t▁h ree</w>
t▁ le</w>
t▁ ae</w>
re po▁rt</w>
organiz atio▁ns</w>
m ad▁e</w>
if▁ ic</w>
ho▁ l
g ▁e</w>
et ters</w>
ec ▁t</w>
av il
Associ ati▁on</w>
▁trou ble</w>
▁tea ching</w>
▁tea ch</w>
▁mil k</w>
▁c up</w>
▁accompan ied</w>
▁Res idents</w>
▁K um
yo▁ ur</w>
ur ement</w>
m▁ an
h aus
contin u
bu y</w>
amp▁ ;</w>
Y ang
▁gather ing</w>
▁dis close</w>
▁chann el</w>
▁Coll ege</w>
su fficient</w>
on▁ ce</w>
iti cal</w>
h▁ n
dis t
con▁ ti▁n
ch on</w>
bus▁ in
bud g▁et</w>
bl ing</w>
at ri
▁tr ends</w>
▁pleas ant</w>
▁legisl ation</w>
▁frequ ent</w>
▁fr aud</w>
▁T own</w>
▁D r
v ic▁e</w>
ll ing</w>
hi▁ m</w>
co▁m p▁
c ost</w>
an n▁
▁viol ations</w>
▁rem oved</w>
▁happ iness</w>
▁f allen</w>
s▁h oul▁d</w>
s▁ ystem</w>
sti▁ ll</w>
r▁ ep
exp a▁n
ener ation</w>
el ih
ea h</w>
c▁ oun
b▁ est</w>
ash ing</w>
H eal▁th</w>
▁h undreds</w>
ur e▁s</w>
s▁ l
o▁w ing</w>
l▁ ik
int▁ er▁
for ceme▁nt</w>
▁restric tions</w>
▁fir es</w>
▁ecos ystem</w>
▁Am azon</w>
ti▁ ci
s anc
rel atio▁ns</w>
ous ness</w>
mea▁ sur
lo▁ ok</w>
l in▁e</w>
intern at▁ional</w>
fac ▁t</w>
ac ti▁ve</w>
A sia</w>
▁reg ime</w>
▁id ol</w>
rul i▁ng</w>
il it▁y</w>
e▁n ti
es ides</w>
empl o▁y
b ro▁
H a</w>
&a▁po▁s ;▁t</w>
▁z ones</w>
▁w aves</w>
▁prosec utors</w>
▁h ous
▁R ob
▁Inv estig
▁Gw anak</w>
▁B ig</w>
su▁pp o▁rt</w>
reg ion▁al</w>
pl us</w>
p at▁
ma▁ t
Am er
▁r ally</w>
▁ ent</w>
w om▁en</w>
re port▁ed</w>
i▁n v
itch en</w>
issi ons</w>
f i▁ne</w>
dom▁ estic</w>
C ou▁n
▁temper atures</w>
▁smo king</w>
▁hon or</w>
▁bat tery</w>
ul ▁ed</w>
s e▁nt</w>
l e▁s</w>
i▁n cial</w>
g el
▁s a▁id</w>
▁replac ement</w>
▁princi pal</w>
▁analy ze</w>
▁ad ult</w>
▁N ot
▁C h▁
st a▁n
e▁ conom
exper i▁
dep artme▁nt</w>
cer tific
a▁in st</w>
C ourt</w>
▁st ea
▁parti ally</w>
▁S in
▁N ew
▁E U</w>
ind ep
ign ment</w>
e u▁n</w>
compan ie▁s</w>
S A</w>
D a▁
11 th</w>
1 8th</w>
▁st adium</w>
▁S ol
trans port
i ol
ew oo</w>
c ean</w>
b i▁
▁see king</w>
▁rep eatedly</w>
▁rec ycl
▁m all</w>
▁gr anted</w>
▁exp iration</w>
wo▁r ld</w>
s▁ er▁
p oi▁nt</w>
j un
j udg
g oo▁d</w>
econom ic</w>
b▁e fore</w>
attac hed</w>
ac ting</w>
a w▁ay</w>
Pri▁ me</w>
C on▁
▁reg ulatory</w>
▁r ating</w>
▁In nov
over se▁as</w>
oo den</w>
d ae</w>
Je▁ ju</w>
▁sol id</w>
▁des ire</w>
▁ded icated</w>
▁br ight</w>
▁Stud ents</w>
▁St and
wor kers</w>
rea▁ dy</w>
m ir▁ae</w>
de▁c i▁ded</w>
S h▁in</w>
, 9
&▁apo▁s ;t</w>
▁st ates</w>
▁sec re
▁s ac
▁rem ained</w>
▁n ote</w>
▁mar ine</w>
▁mand atory</w>
▁g arbage</w>
▁fur n
▁exhib itions</w>
▁dr aft</w>
▁M or
w▁ ar</w>
t me▁nt</w>
sit uation</w>
s ea</w>
presid enti▁al</w>
ma▁ y</w>
gu ar
an c▁ed</w>
0 ,0▁00</w>
▁th oughts</w>
▁ran king</w>
▁j um
▁clos ing</w>
▁S ur
s▁tr ong</w>
ro oms</w>
elec t▁ed</w>
b▁ e▁
a▁ rou▁nd</w>
ati s</w>
ain ts</w>
C oun▁
▁politi ci
▁im pose</w>
▁In spec
umb ent</w>
ul ating</w>
pr▁oc▁ ess</w>
per s▁
i▁c es</w>
eleb ri
ch o</w>
P▁ar ty</w>
C entr▁al</w>
4 8</w>
▁st aying</w>
▁p ork</w>
▁fl ag</w>
▁bic ycle</w>
▁P ur
v eh
st ory</w>
s m▁
ro▁u gh</w>
re▁ st</w>
for▁ m</w>
com▁ pl
citiz e▁ns</w>
c ourt</w>
201 5</w>
▁t uition</w>
▁s it</w>
▁im port</w>
▁identi fy</w>
▁i ▁t</w>
▁crea m</w>
▁categ ory</w>
▁A uth
zbek istan</w>
wo▁r king</w>
wh▁ ic▁h</w>
on a</w>
er k</w>
con▁ t
an▁ n
an▁ k</w>
ag er</w>
W elfa▁re</w>
▁volunt ary</w>
▁tem ple</w>
▁sol ved</w>
▁r i▁ght</w>
▁don ated</w>
▁Par is</w>
▁Con trol</w>
wh a▁t</w>
un ion</w>
ultur ▁e</w>
t▁r y▁ing</w>
si o▁ns</w>
pres s
o y▁
o pl▁e</w>
m ant
ft ware</w>
er g▁
dep u▁ty</w>
arm ing</w>
ap ed</w>
D el
▁str eets</w>
▁deliber ate</w>
▁beg ins</w>
▁P OSCO</w>
▁Gir ls</w>
with standing</w>
tor al</w>
sh ort</w>
s afety</w>
r i▁s
pro gr▁am</w>
in▁ cial</w>
inspec ti▁on</w>
in sur
h▁ el
f os
c ust
brea k</w>
Mar ch</w>
▁mas sive</w>
▁Gal axy</w>
w a▁nt</w>
en n
ay ment</w>
P r▁es
▁win ners</w>
▁ro of</w>
▁r ▁
▁inspec tions</w>
▁expen se</w>
▁con tribu
▁aud iences</w>
▁ar chitec
▁U rban</w>
▁19 6
situ ati▁on</w>
pl▁ ex</w>
or ful</w>
m yeo▁n</w>
m em▁
grad u
er in▁g</w>
cul▁ tural</w>
a▁ fte▁r</w>
an ish</w>
an el</w>
▁ur ged</w>
▁p our
▁m ood</w>
▁an ticip
▁ad ap
▁J eong
un▁ ity</w>
ter ▁n
iv▁ en</w>
intern ation▁al</w>
e▁n t▁
▁displ ayed</w>
▁ab und
▁R ural</w>
▁R eal</w>
▁M ajor</w>
▁K wang</w>
ul p
res erv
em phas
ee▁ ds</w>
ed g▁ed</w>
d ▁e</w>
a u</w>
&ap▁os▁ ;</w>
▁sol ar</w>
▁comm unities</w>
▁appro ach</w>
▁acqu isition</w>
▁N ong
s▁ afety</w>
ov .</w>
conc entr
bec a▁me</w>
▁writ er</w>
▁r oyal</w>
▁pos itions</w>
▁p eak</w>
▁f ulf
▁demonstr ation</w>
▁deb ut</w>
▁cal c
l ater</w>
e in</w>
co▁n t
▁ver ification</w>
▁scholar ship</w>
▁fin es</w>
▁el imin
▁custom s</w>
▁cancell ation</w>
▁4 00</w>
os s
m anufactur
g ir
es tr
erea ved</w>
compa▁n ies</w>
ampion ship</w>
Ju▁ ly</w>
G r
▁suppl ies</w>
▁sm ile</w>
▁s auce</w>
▁comp ar
▁bea ch</w>
▁Se wol</w>
urr y</w>
tem per
sec reta▁ry</w>
sc▁h ool</w>
respec tively</w>
mi▁ll ion</w>
h i</w>
e▁n g
beg▁ an</w>
S ept
▁s ick</w>
▁larg er</w>
▁fun eral</w>
▁ear th</w>
▁dest ination</w>
▁C ustom
um ber</w>
partic▁ ip▁
p re</w>
ex chang
M e
H all</w>
Gover n▁ment</w>
▁vi ews</w>
▁th us</w>
▁L un
repres ent▁
ph ot
oth e▁r</w>
n ews</w>
j▁ oy</w>
is h▁
ik es</w>
ign ation</w>
h ig▁h</w>
g ent
ec te▁d</w>
▁prev enting</w>
▁mess ages</w>
▁kil om
▁inform ed</w>
▁gr and</w>
▁comp on
w ing</w>
u g▁
per ly</w>
ond on</w>
on ment</w>
h▁av ▁e</w>
f ig
▁refug ees</w>
▁g aining</w>
▁Al ong</w>
▁1 .5</w>
ti g
s o▁l
n▁ ess</w>
ic k▁
c ap▁
S ong
Pro sec
F eder
C o▁n
Artic▁ l▁e</w>
▁trans port</w>
▁sw imming</w>
▁surpr ised</w>
▁sub ordinate</w>
▁ass igned</w>
wh▁ ere</w>
u h
si us</w>
m ulti</w>
larg e▁st</w>
it ely</w>
i w
ellec tual</w>
atio▁n al</w>
al▁ ready</w>
ak ▁
A s▁
0 00</w>
▁r ace</w>
▁ph ones</w>
▁minis try</w>
▁er ror</w>
▁chann els</w>
▁boo k
▁am b
▁U.S.- China</w>
▁Ital y</w>
wh el
tu▁ al</w>
t ook</w>
s▁ oon</w>
l ey</w>
il t</w>
c en▁
an▁ other</w>
Ch▁ ina</w>
▁wea pons</w>
▁sup posed</w>
▁ev ac
▁J ang
w▁ i▁ll</w>
s▁ un</w>
re port
is▁ t
h app
fu▁ ll</w>
f inis
duc es</w>
A pril</w>
1 5th</w>
▁w ine</w>
▁a te</w>
▁C el
rev eal▁ed</w>
pl at
ov e▁r</w>
ot▁ el</w>
h▁ a▁d</w>
fir s▁t</w>
eong nam</w>
cri tici
c ou
b al</w>
3 4</w>
2▁ 0</w>
▁volunt eers</w>
▁gu ard</w>
▁dis asters</w>
▁c o▁
▁Ir an
m anufac
envir o▁n
d ig
F o▁
▁tax pay
▁saf ely</w>
▁reg arded</w>
▁f ake</w>
▁Sen ior</w>
re t▁
pr ise</w>
p oor</w>
l er</w>
itt ees</w>
gan ic</w>
driv i▁ng</w>
P▁ l
P yong
N E
Kor▁ ean</w>
J a▁ng</w>
▁selec ting</w>
▁ref used</w>
▁recru it</w>
▁hol ds</w>
▁gu ests</w>
▁ex tingu
os eong</w>
h um▁an</w>
ent age</w>
e h▁
chil d</w>
Fin anci▁al</w>
▁tim ing</w>
▁step s</w>
▁s outh</w>
▁deep ly</w>
▁con fron
▁Yong san</w>
▁St ore</w>
▁Asi ana</w>
r▁ d</w>
oc▁r atic</w>
inc▁ re▁ase</w>
h ou▁
a▁t es</w>
▁u l</w>
▁J ohn</w>
wee k
sex u▁al</w>
resear ch▁er</w>
rece i▁ve</w>
pro moti▁on</w>
ill▁ ion</w>
if i▁ed</w>
e▁ lec
exc ell
c itizens</w>
ate▁ gy</w>
▁vis its</w>
▁st eadily</w>
▁s ix
▁lif elong</w>
▁K oo</w>
pop ul▁ar</w>
ma▁r ket</w>
issu es</w>
d▁ own</w>
d et▁
at▁ her</w>
B u▁
1 .
▁strength ened</w>
▁k eeping</w>
▁f ro
▁d r▁
▁accur ate</w>
▁J u</w>
r o▁ss</w>
pl an
p it
l ar▁
j ung</w>
i▁l l▁
f ish
ch ai▁rm▁an</w>
a▁ st
as hed</w>
Sec uri▁ty</w>
3 8</w>
▁sinc er
▁epis ode</w>
▁arr anged</w>
▁Pl anning</w>
▁M od
se ver
rou d</w>
res ul▁ts</w>
politi c▁al</w>
iv ▁ed</w>
invest▁ ig
e▁n d
e▁ men▁t</w>
c all</w>
b es</w>
@▁ -▁@</w>
▁w est</w>
▁un comfortable</w>
▁prom ise</w>
▁gu est</w>
▁cons ult</w>
▁bo ost</w>
▁Y eah</w>
▁M ilitary</w>
▁Independ ence</w>
▁201 ▁
u▁ tion</w>
techn ology</w>
sup▁ port</w>
sec uri▁ty</w>
l▁ ine</w>
ir t</w>
e▁ x</w>
en ior</w>
der ▁s</w>
A p
▁veget ables</w>
▁k ids</w>
▁b id
▁atten dance</w>
vers ity</w>
p .▁m.</w>
ow n▁ed</w>
e▁n se</w>
e d▁uc
d one</w>
as c
an▁ ks</w>
▁up coming</w>
▁h ur
▁e scape</w>
▁S orry</w>
▁Hwas eong</w>
▁Ar ab
se▁ cond</w>
o▁ u▁t</w>
ow ad
oc r▁
go▁ al</w>
en ses</w>
c ame</w>
am ber</w>
J eon
A ug
▁over l
▁op pon
▁advertis ement</w>
th▁ ere</w>
ri▁ se</w>
pr ing</w>
poin t▁ed</w>
our▁ t</w>
et own</w>
e t▁s</w>
comm unity</w>
▁proc essed</w>
▁e c
▁c ells</w>
▁allow ance</w>
▁T witter</w>
▁G ar
▁C er
vis it</w>
urr ence</w>
th ere
govern m▁ent</w>
cl▁ os
af ternoon</w>
ac h▁
S▁e o▁ul</w>
S o</w>
7 5</w>
▁partic ularly</w>
▁p al
▁l ab
▁j us
▁ch osen</w>
▁c ou▁ld</w>
▁Hea vy</w>
▁CC TV</w>
sus p▁
l▁ ife</w>
k▁ now</w>
j oin
i▁ als</w>
h ib▁
f ine</w>
e▁n tly</w>
▁sm oothly</w>
▁sh ips</w>
▁s inc▁e</w>
▁rout es</w>
▁piec e</w>
▁fe et</w>
▁dis appoin
▁co ordin
▁app oint</w>
▁P o
▁I s
un i
tog eth▁er</w>
t l▁y</w>
o▁ pe</w>
j u▁ng</w>
h ours</w>
fr▁ i
d uring</w>
a▁ ms</w>
ag a▁in</w>
S ▁h
In tern▁
▁sti p
▁low ered</w>
▁exper tise</w>
▁enjoy ing</w>
▁My anmar</w>
▁E gyp
ur ches</w>
por▁ t
m y▁eon</w>
ea ble</w>
▁volunt arily</w>
▁serv ants</w>
▁main taining</w>
▁k een</w>
▁cons ensus</w>
▁calcul ated</w>
▁Offic ials</w>
▁Gor yeo</w>
star ti▁ng</w>
quart e▁rs</w>
previ o▁us</w>
n e▁d</w>
li▁ sh</w>
h u▁
em er▁
af▁ ter</w>
ach es</w>
4 9</w>
▁sam ples</w>
yo▁ ung</w>
v e▁r</w>
l▁ ittle</w>
id ential</w>
go al</w>
expec t
cur r▁
c k</w>
art ers</w>
▁slow down</w>
▁in stitutes</w>
▁advertis ements</w>
▁S u</w>
ti▁ al</w>
ol▁ ogy</w>
m e▁d</w>
f▁ in
a▁m a</w>
a▁ rea</w>
▁satis fied</w>
▁rec ip
▁mob il
▁l ink</w>
over s</w>
od es</w>
lik ely</w>
iv▁ ing</w>
find i▁ng</w>
eas ing</w>
coun tri▁es</w>
att en▁
Nor t▁h</w>
&▁ a▁
&a▁pos; d</w>
▁thor oughly</w>
▁revital ize</w>
▁pers pec
▁offic io</w>
▁lux ury</w>
▁a uto</w>
sa▁ y</w>
n u▁m
in formation</w>
f requ
eun mirae</w>
et▁ ter</w>
es pec
di a</w>
S E
P▁ ark</w>
C ultur▁al</w>
▁fl av
▁cor ner</w>
▁clos er</w>
▁br idge</w>
▁H ead</w>
▁2 ,000</w>
sub ▁
s oc▁
ro le</w>
l og
il eg
S ong</w>
C D</w>
Bl▁ ue</w>
▁st ance</w>
▁l ibr
▁c at</w>
▁accum ulated</w>
▁S ociety</w>
▁M ich
u d</w>
t▁ iv
s een</w>
fu▁ l</w>
ea▁ t</w>
▁str ange</w>
▁st ood</w>
▁sett led</w>
▁sc andal</w>
▁min or</w>
▁m o▁n
▁kn ows</w>
▁f oun
▁&q▁u o▁t;</w>
w▁ ard</w>
s▁ orr▁y</w>
s▁ ol
m▁ ar▁
minis t▁er</w>
k▁ ers</w>
g ather
fe▁ el</w>
ch▁ ool</w>
as sed</w>
and is</w>
Y o▁on</w>
Comm▁ ittee</w>
▁li ked</w>
▁l ength</w>
▁inten ded</w>
▁c ircles</w>
▁B ucheon</w>
▁B ae</w>
ver▁ sy</w>
ver n
rel eas▁ed</w>
pos t</w>
pe▁r son</w>
o▁ ri
owad ays</w>
ou g▁ht</w>
m ove</w>
l ea▁r
e▁nt ary</w>
P al
▁gener ations</w>
▁f it</w>
▁L t
sp a▁ce</w>
q▁ ue</w>
i▁ tie▁s</w>
du▁r ing</w>
▁inc umbent</w>
▁implem enting</w>
▁c ultur
▁W ater</w>
▁H w
ur▁ ch</w>
un ivers
pos sib▁
l▁ et</w>
hos t▁ed</w>
g▁ ot</w>
f il▁
e▁ ong</w>
es▁ ted</w>
▁tex t
▁off ers</w>
▁im ports</w>
▁hel p
▁favor able</w>
▁expl ains</w>
▁Dis aster</w>
sp ace</w>
ra▁p h</w>
ood les</w>
on ight</w>
l t</w>
in c▁lud
comp▁an ie▁s</w>
ach eon</w>
In cheon</w>
Gang won</w>
▁produc ing</w>
▁certif ied</w>
▁bur eau</w>
▁a c▁
▁H eritage</w>
▁Ch un
pe▁ opl▁e</w>
mon t▁h</w>
ien t▁ed</w>
disc u▁
a▁ mo▁
aff airs</w>
5 2</w>
▁st ayed</w>
▁m agn
▁fil ming</w>
▁S uch</w>
w▁ it▁h</w>
t▁ ive</w>
tiv ▁es</w>
s uc▁h</w>
pos▁ it▁ion</w>
is▁ on</w>
et c.</w>
conduc t▁ed</w>
al k
H▁ an</w>
Gang nam</w>
Ch a▁ir
9 2</w>
2 1st</w>
▁recor ding</w>
▁b io</w>
▁adj ustment</w>
▁ab sol
▁4 0s</w>
▁3 6</w>
r▁ ed
re po▁r
lea di▁ng</w>
l on▁g</w>
k age</w>
d ingly</w>
▁s ew
▁s ai▁d</w>
▁res ulting</w>
▁perc entage</w>
▁mag az
▁l ea▁
▁collap sed</w>
▁b ereaved</w>
▁Every one</w>
▁3 8</w>
ti▁ l</w>
th rou▁
s ent</w>
man ip
lec ted</w>
h wan</w>
con ti▁n
appear ▁ed</w>
ak a</w>
ag on</w>
N o.</w>
D evelopme▁nt</w>
▁illeg ally</w>
▁extr em
▁evalu ate</w>
▁b ar</w>
▁an gry</w>
▁Bar eunmirae</w>
ven ti▁on</w>
serv ices</w>
p▁ ar▁
j ak</w>
enterpris ▁es</w>
di▁ sc
cont in▁ue</w>
ay a</w>
ak arta</w>
▁tempor arily</w>
▁harm ful</w>
▁agric ulture</w>
▁Dru g</w>
z h
si▁ ty</w>
rex it</w>
r al</w>
pr eme</w>
organiz ati▁on</w>
m ent▁s</w>
environ me▁nt</w>
caus ▁ed</w>
c ou▁rt</w>
▁trea t</w>
▁ph ase</w>
▁n arrow</w>
▁l e▁v
▁hel icop
▁a l▁
▁Mar itime</w>
wi▁ fe</w>
q▁u▁ ot;</w>
or ient▁ed</w>
l ad
go i▁ng</w>
g l▁
&▁apos; ▁s</w>
▁succ eeded</w>
▁sp okesman</w>
▁rep eated</w>
▁lim itations</w>
▁anx iety</w>
▁ab norm
▁Do osan</w>
ic i▁al</w>
etro po▁l
diff▁er ent</w>
attac h▁ed</w>
S K</w>
▁w ild</w>
▁o d
▁mar ks</w>
▁F isheries</w>
t ech</w>
p▁ art</w>
on ic</w>
ey ed</w>
el l▁
comm uni▁ty</w>
b en
A ut
3 6</w>
▁di e</w>
▁comm od
▁b ow
u▁s h</w>
ordin ary</w>
m its</w>
la▁ w</w>
f▁ ro▁m</w>
f u▁r
f ol
e▁ ars</w>
e ived</w>
dr y</w>
at o</w>
S e</w>
▁tour nament</w>
▁res erve</w>
▁person ality</w>
▁op posed</w>
▁co ol
▁ tr
w arr
th ird</w>
s▁ exual</w>
p ain
n ation</w>
la▁ w
is ▁t</w>
ig g
if ic▁
au gh</w>
angh ai</w>
ac ific</w>
Sup re▁me</w>
C o
,5 00</w>
▁rea c
▁par agraphs</w>
▁ob ser
▁log istics</w>
▁g am
▁Sh ow</w>
s per
k g</w>
f▁ uture</w>
ex▁ c
c ou▁
ach ing</w>
A pr▁il</w>
▁beh alf</w>
▁ass oci
▁Th ursday</w>
▁Sou theast</w>
▁O b
▁J oint</w>
▁3 ,000</w>
tu s</w>
tern s</w>
reg ar
o▁l ogy</w>
fi▁r st</w>
f ish</w>
ch ▁es</w>
al one</w>
Dep u▁ty</w>
2 7th</w>
▁restric ted</w>
▁g ri
▁crack down</w>
▁cl oud</w>
▁Gwang jin</w>
▁Ex change</w>
u t▁ion</w>
t▁ al
s ym
s k▁
p ool</w>
m ind</w>
el▁ d</w>
dec▁ is▁ion</w>
az ing</w>
ad d▁ed</w>
B O</w>
▁withdraw al</w>
▁oper ates</w>
▁U zbekistan</w>
▁Jeon ju</w>
▁H ousing</w>
▁Air lines</w>
w el
ult▁ ural</w>
trad ition▁al</w>
pol icies</w>
iver ▁
iss▁ ue</w>
il ty</w>
e▁n cy</w>
e▁ um</w>
exp a▁nd</w>
ati cs</w>
ap▁ ed</w>
af te▁r</w>
▁the ory</w>
▁res t
▁indic ators</w>
▁ex cluding</w>
uc k
t▁ ake</w>
se▁ en</w>
ow▁ s</w>
ous▁ ly</w>
op i▁n
inform▁ ation</w>
de ung
ar res
a he▁ad</w>
Univer ▁
N G</w>
▁B ang</w>
s▁ ince</w>
sur ▁e</w>
n or
m u▁st</w>
m et
j oin▁
gu es</w>
dis ab
con serv
ch ief</w>
ar i</w>
S i</w>
A hn</w>
▁w alls</w>
▁sm ell</w>
▁ris en</w>
▁El ementary</w>
▁A ward</w>
w o▁men</w>
o▁ te</w>
m i▁ng</w>
int egr
g rou▁nd</w>
f ew</w>
e▁ ff
er▁ y</w>
c▁ ar
a▁r ty</w>
W omen</w>
J▁ ae</w>
Ch il
&apos; ▁
▁sit ting</w>
▁sec ondary</w>
▁s ik</w>
▁ris ks</w>
▁m erg
▁certific ates</w>
▁boo ked</w>
▁Pre viously</w>
s eas
r▁ s</w>
ran ki▁ng</w>
o▁ le</w>
over ▁
mat ch</w>
m or▁
eti zens</w>
es▁ tiv
ag ram</w>
a ur
H ead
1 4th</w>
▁w astes</w>
▁pl▁ ace</w>
▁investig ations</w>
▁h idden</w>
s▁ e
sa▁ ying</w>
ook min</w>
infl u
gr and
c▁ ent</w>
ap▁ p
A▁ ss
Agric ultur▁al</w>
▁ser iously</w>
▁s qu
▁gener ated</w>
▁fre edom</w>
▁entr eprene
▁comp ete</w>
▁G uro</w>
und▁ ai</w>
t▁ ment</w>
spec ial</w>
ro▁ w
mor ni▁ng</w>
fr ont</w>
eti n</w>
elec tr▁
b▁ o
D P</w>
▁st ages</w>
▁dom in
▁S ure</w>
▁Law maker</w>
w▁ or▁
sus p
sup pl
rou▁ ps</w>
pos▁ ition</w>
▁vis ion</w>
▁separ ated</w>
▁pres ervation</w>
▁h ate</w>
▁abs ence</w>
▁Eng land</w>
um ul
om ing</w>
om estic</w>
li▁ ve</w>
l es▁s</w>
i▁ cial</w>
inc▁ rea
e▁x pec
avo id
ag▁ ain▁st</w>
ab inet</w>
Serv i▁ce</w>
Com▁ m
▁review ing</w>
▁pr o</w>
▁out come</w>
▁dist ingu
▁d eal
▁Not withstanding</w>
un ds</w>
elebri ties</w>
contr a▁ct</w>
al i▁ty</w>
Con struc
▁scor es</w>
▁scen es</w>
▁n o▁t</w>
▁mul ticultural</w>
▁institu tional</w>
▁Pri ze</w>
▁Jeoll anam</w>
tr ue</w>
por t▁s</w>
pas sed</w>
iti▁ ve</w>
empl▁ oy
cons ci
Mar▁ ch</w>
G eun</w>
▁b ear</w>
▁T h▁
▁Co ast</w>
vi o▁l
v id▁eo</w>
tr ea▁
s o▁m
im al</w>
ig er
enti ally</w>
dis c▁
co in</w>
4 2</w>
▁‘ ‘</w>
▁strugg ling</w>
▁boy friend</w>
▁ad mitted</w>
▁St adium</w>
t unately</w>
pr▁ og
pro▁ bl
pl▁ y</w>
p oll
ilit ation</w>
design at▁ed</w>
▁p i
▁m ission</w>
▁l ed
▁fac tories</w>
▁disp utes</w>
▁Gyeongsang nam</w>
t▁ on</w>
th ei▁r</w>
s▁ ayin▁g</w>
se qu
s i▁n
o▁ b
m▁ od
m▁ at
id er</w>
ag e▁s</w>
B u
&▁a pos▁;t</w>
▁to il
▁r oo
▁Com pared</w>
▁A g
w▁ it
f a▁r
environ ment</w>
e ul</w>
b or</w>
az ak
ap h
ap es</w>
all ig
ac le</w>
▁w ill
▁v otes</w>
▁small er</w>
▁prov ision</w>
▁perman ent</w>
▁fea sibility</w>
▁Il bo</w>
▁C andid
▁Afr ica</w>
▁2 .
ul g
pol itan</w>
ig h▁er</w>
d est
af t▁
Y▁ oo</w>
▁some what</w>
▁so il</w>
▁res ▁
▁n oted</w>
▁l ights</w>
▁gradu ate</w>
▁a im</w>
▁Un ification</w>
z one</w>
t▁ri al</w>
s▁ ide</w>
s av
re▁ t
pro mis
pa▁ y
pay me▁nt</w>
foll ows</w>
Tr u▁mp</w>
▁rail way</w>
▁loc als</w>
▁fac ed</w>
▁Ch un</w>
wor ds</w>
w ee▁
ual ties</w>
t al</w>
gr at
f u▁n
ed estr
eas y</w>
direc t▁ly</w>
K▁or ea▁n</w>
& am▁p;</w>
▁var i
▁res truc
te▁ ch</w>
par k</w>
o▁ use</w>
ot ten
oo▁ ks</w>
n at▁
igh ter</w>
if ▁e</w>
gover n▁ment</w>
g yo</w>
d ust</w>
an a▁l
S on</w>
H ou▁se</w>
1 7th</w>
▁th e▁ir</w>
▁mis s
▁car bon</w>
▁be ef</w>
▁analy zing</w>
▁V ol
▁Sw ed
▁M ok
▁M er
▁@ ▁
s▁ ai▁d</w>
r ank
n ation
differ e▁nt</w>
c au
O ct
▁s or▁ry</w>
▁occ as
▁liter ature</w>
▁c ust
▁answ ered</w>
▁S al
▁N et
▁I l</w>
w▁ ith
u til
pos▁ si▁ble</w>
or gan
m▁ uch</w>
ea ting</w>
d own
cl o▁se</w>
b▁ec ome</w>
a eg
S um
S ep
L G</w>
Hw a▁ng</w>
H e</w>
13 th</w>
▁n orth</w>
▁mat ches</w>
▁m ass
▁impres sive</w>
▁f erry</w>
▁const antly</w>
▁academ y</w>
▁K E
▁&apo▁s ;▁s</w>
sus pen
sid ▁e</w>
ew er</w>
e y▁
d eath</w>
c▁h a▁nge</w>
a▁n c
a▁mo▁ unt</w>
ab▁ out</w>
A I
▁re f▁erred</w>
▁kilom eters</w>
▁fa ith
▁cl erk</w>
▁G ood</w>
▁@▁ -@</w>
u el
l in</w>
inn ov▁
em a</w>
c▁ha▁r ge</w>
compl▁ ex</w>
cas es</w>
b▁ ers</w>
at▁ i▁on</w>
ab uk</w>
B yung</w>
▁sc enery</w>
▁enti ty</w>
▁character ized</w>
▁ass istance</w>
▁abund ant</w>
▁Se ocho</w>
▁R ed</w>
▁H ong
per▁ ty</w>
p ass</w>
k n▁
g i
ex isti▁ng</w>
ev en
ess i▁on</w>
ai▁r man</w>
a c</w>
O R
L im</w>
Ch e
Bareun mir▁ae</w>
, 3
▁calc ulation</w>
▁F our</w>
▁Conf uc
v ent</w>
t▁ ional</w>
mon▁ ey</w>
min u▁te</w>
g reat</w>
fun▁ ds</w>
co▁n t▁
a▁l ity</w>
Gwang ju</w>
; ll</w>
▁k itchen</w>
▁gir lfriend</w>
▁cons ist
▁b ond</w>
▁V alley</w>
▁Med ium</w>
▁C ath
▁C J</w>
y wood</w>
ron ic</w>
r e▁d</w>
m eas▁
in te▁
eff or▁ts</w>
ai▁ l
Y ear</w>
W▁ or
▁le▁v el</w>
▁fol k</w>
▁drea ms</w>
▁civ ilian</w>
▁b odies</w>
▁Y eon</w>
▁E ui</w>
▁Del iberation</w>
▁D em
▁Bl ack</w>
te▁ ll</w>
res sion</w>
pro▁ c
ep age</w>
enc our
em y</w>
direc tor</w>
c▁h an▁ge</w>
aff ili
F C</w>
▁w ooden</w>
▁tur ns</w>
▁tar iff</w>
▁resid ence</w>
▁di alogue</w>
▁P ost</w>
▁N e
▁B ible</w>
▁20 ▁
vol unt
tr▁ ict</w>
ti▁ c
per▁ sonal</w>
lo▁ w
e▁ ge</w>
ens ▁e</w>
eep s</w>
du▁ ce</w>
con▁ti▁n ue</w>
ca▁ p
S por▁ts</w>
G ov▁ern
2 6th</w>
▁tr ain
▁t ears</w>
▁sens itive</w>
▁s oo</w>
▁rain y</w>
▁m ir
▁honor ary</w>
▁har assment</w>
▁franch ise</w>
▁F SS</w>
su▁ n</w>
s por▁ts</w>
mon t▁hs</w>
i z</w>
e▁ te</w>
C▁ enter</w>
▁qual ification</w>
▁l etters</w>
▁c utting</w>
▁an ti
▁acqu aint
▁I D</w>
▁Han oi</w>
vi e▁
k ish</w>
it ability</w>
in qu
5 5</w>
▁sen iors</w>
▁form ation</w>
▁c argo</w>
su ff
st ing</w>
re te</w>
orth e▁rn</w>
or ▁e</w>
maj or</w>
j▁ ae</w>
fr▁ o▁m</w>
O s</w>
M▁ ar
1 s▁t</w>
▁th▁ ink</w>
▁mur der</w>
▁in sufficient</w>
▁happen s</w>
▁brea d</w>
▁Th ai</w>
▁S o
▁R en
val ue</w>
therm ore</w>
s in▁g</w>
om e▁n</w>
h ea▁r
erg ency</w>
B a▁nk</w>
Ar t</w>
2 8th</w>
▁tr uck</w>
▁targ ets</w>
▁st om
▁l ong
▁Wor kers</w>
v el</w>
ug ar</w>
sh ap▁ed</w>
rais ▁ed</w>
n▁ ame</w>
l ead</w>
g rea
e▁ ther</w>
ex chan▁ge</w>
a ver
H y▁
Busin e▁ss</w>
20 0▁
▁neighbor hood</w>
▁ear ned</w>
▁ac tress</w>
▁Th e▁re</w>
us hed</w>
su ant</w>
sit es</w>
or▁ es</w>
e very</w>
der ▁ed</w>
dec lar
ba▁ se</w>
Pro f
C ultu▁re</w>
▁re views</w>
▁pos s
▁mo is
▁f ail</w>
▁ex ist</w>
▁b ath
▁M ac
▁Innov ation</w>
v ate</w>
t ype</w>
oo▁ ds</w>
offic ials</w>
mo▁ ve</w>
m ust</w>
in ery</w>
hist ory</w>
e▁ er</w>
en a</w>
A ▁n
▁win ds</w>
▁ter r
▁t op
▁ex haus
▁dem entia</w>
▁cont ain</w>
▁Gyeongsang buk</w>
▁Gim po</w>
▁Aud it</w>
▁5 0s</w>
wi▁ de</w>
pre dic
m aking</w>
l angu
is t▁er</w>
ful▁ ly</w>
eas e▁d</w>
dis app
curr ent▁ly</w>
ches tra</w>
ch a▁ng
c iti▁es</w>
Tra▁ de</w>
S▁ eo</w>
F r▁
▁ins isted</w>
w▁h er▁e</w>
sus pic
st ablish
produc t</w>
pr o</w>
os c
ol es</w>
j ang</w>
in struc
in iti
h ol▁
gr ade</w>
er▁ ing</w>
d iv▁
J un▁g</w>
G ro▁up</w>
▁sub committee</w>
▁gir ls</w>
▁dis position</w>
▁M ir
pr▁ov ide</w>
osp it▁al</w>
ol d
m▁ ental</w>
m e▁nts</w>
ff▁ ic</w>
ag eous</w>
R e
O▁ ffice</w>
N e▁w</w>
I A</w>
4 4</w>
▁ph r
▁par ks</w>
▁f ighting</w>
▁controversi al</w>
▁con g
▁achiev ements</w>
▁Reg ional</w>
▁H er</w>
▁Con stitutional</w>
tr ip</w>
sec tor</w>
re vis
iv alent</w>
eep er</w>
ea ch
deung po</w>
co▁ ll
b ase</w>
G▁ u</w>
G r▁
Al t▁h
3 9</w>
▁un t▁il</w>
▁revis e</w>
▁prob ably</w>
▁estim ate</w>
▁em otional</w>
▁e ast</w>
▁c a▁n</w>
▁Sp anish</w>
▁Int elligence</w>
▁Dec laration</w>
ustain able</w>
p▁os ▁
i▁r st</w>
ev e▁r
er▁ ce</w>
ad em▁
act▁ iv
V i▁ce</w>
G a▁ng
C ▁up</w>
▁r ock</w>
▁prot est</w>
▁nur sing</w>
▁b an</w>
▁Ad ministr
▁5 ,000</w>
▁2 6
▁ try</w>
un▁ ch</w>
s▁ ik</w>
si▁ a</w>
r▁ et▁
rec on
hib ition</w>
en▁ ti
cor p▁or
A g
▁work place</w>
▁subscri bers</w>
▁rev olution</w>
▁prom p
▁gener ally</w>
▁P resid
▁Han a</w>
tem por
su ffer
or i▁ty</w>
j▁ ust</w>
ijeong bu</w>
estab l▁
e el
dh ood</w>
cil or</w>
anc e▁s</w>
ai▁ ly</w>
P l▁
Indus tri▁al</w>
▁uncer tain
▁serv ing</w>
▁practic es</w>
▁memb ership</w>
▁j oy</w>
▁eng ineering</w>
▁b r▁
tr i▁ll
ol▁ ve</w>
h our</w>
er▁ ation</w>
en er▁gy</w>
el▁ l
elih ood</w>
b▁ us</w>
at▁ io▁ns</w>
H a▁n
▁pas sion</w>
▁l ▁
▁gradu ates</w>
▁for ms</w>
▁Sm art</w>
s el</w>
r igh▁ts</w>
pos sib▁le</w>
o▁ to</w>
iz▁ at▁ion</w>
ios ity</w>
fi▁l m</w>
Th▁ at</w>
C▁h ina</w>
2 3rd</w>
▁assaul ted</w>
▁2 8
th i▁n
r▁ a
re port</w>
qu arter</w>
S ub
H a▁ll</w>
G an▁g
DA Q</w>
▁work shop</w>
▁fundam ental</w>
▁equ ity</w>
▁answ ers</w>
▁Jud ge</w>
st▁ ar
sea s▁on</w>
n as
gr i</w>
e▁r a</w>
d▁ ep
diff▁ ic
d a▁te</w>
cer tif
▁semin ar</w>
▁r oll
▁ind oor</w>
▁cur ious</w>
wor▁ ks</w>
v i▁s
th ou▁gh</w>
ra th▁er</w>
p▁ port</w>
oc ol
il▁ lio▁n</w>
d ay▁s</w>
b▁ ur
ain e▁d</w>
a eb
Su▁ preme</w>
20▁1 9</w>
2 5th</w>
▁prec ious</w>
▁mon etary</w>
▁fir ▁st</w>
▁cri tical</w>
▁I sn</w>
▁I sl
u▁ k</w>
um es</w>
su▁ it</w>
r▁ec ent</w>
r▁ is
p ti▁on</w>
memb er▁s</w>
ici ans</w>
er▁ n
chang ed</w>
4 3</w>
201 4</w>
▁subsid iary</w>
▁mon itor</w>
▁effec tively</w>
▁correspon dent</w>
▁U K</w>
▁B MW</w>
▁3 7</w>
st▁ op</w>
r y
oot ball</w>
i ated</w>
R▁ W</w>
J oon</w>
▁thor ough</w>
▁stat ements</w>
▁m ine</w>
▁fri ed</w>
▁S um
▁Cel sius</w>
u▁ t
tr illi▁on</w>
r ail
p ir
ov el</w>
j oy
ig▁h ts</w>
e▁ ff▁
cre a▁te</w>
char g▁es</w>
bas▁ ic</w>
a ul</w>
▁n e
▁ir reg
▁inst alling</w>
▁h ired</w>
▁h an
▁consid erable</w>
▁M BC</w>
▁A f
t arg
por ter</w>
o ti▁
m▁ us
emb l▁y</w>
econ o▁my</w>
de▁v el
a os</w>
Spec i▁al</w>
I sl
▁thous ands</w>
▁se ts</w>
▁f ever</w>
▁T uesday</w>
▁M oo</w>
w ent</w>
ur b▁an</w>
re p▁or
re plac
n ex▁t</w>
in ev
i us</w>
S o▁ng</w>
Jus ti▁ce</w>
In stitu
▁strateg ic</w>
▁pres ence</w>
▁k illing</w>
▁celebr ate</w>
▁ass embly</w>
ri▁s k</w>
ret u▁rn</w>
occ up
inter n▁
e▁ at</w>
ent l▁y</w>
ear n
du▁r in▁g</w>
c ili
c a▁rs</w>
1 1▁
▁util izing</w>
▁prom ising</w>
▁m i</w>
▁har mony</w>
▁ex actly</w>
▁cl othing</w>
t▁ oo</w>
t m▁ent</w>
sib ilities</w>
p▁l ace</w>
e z</w>
comm er
ch all
ag ency</w>
▁un expected</w>
▁t un
▁post pon
▁mis sed</w>
▁m icro
▁expec tation</w>
▁cont ained</w>
▁b eat</w>
▁acqu ired</w>
▁Ar t▁icle</w>
ul▁ d</w>
s pon
pol ici▁es</w>
in jur
en si▁ve</w>
con tribu
bl▁ em</w>
b e▁r</w>
avil ion</w>
atte▁n t▁ion</w>
ai▁n s</w>
U l
I l
▁hop ed</w>
▁hea ting</w>
▁Comm erce</w>
ul ▁t</w>
s ively</w>
oo ked</w>
m o▁r
em▁b ly</w>
ec▁ tion</w>
com par▁ed</w>
Su per
R es▁
▁wh▁ o</w>
▁six th</w>
▁fr▁ om</w>
▁charg ing</w>
▁Lun ar</w>
▁L ondon</w>
s▁ ing
si▁ m
s e▁s</w>
om er
iver s</w>
in s▁
diff e▁r
develop▁ ed</w>
dem a▁nd</w>
can n▁ot</w>
ang ible</w>
al ism</w>
P▁ ol
P resident</w>
In d▁
▁war ned</w>
▁strateg ies</w>
▁sh el
▁m o▁
▁m oon</w>
▁incen tives</w>
▁cap abilities</w>
▁analy sts</w>
▁Wo ori</w>
▁Song pa</w>
w al
s▁m all</w>
proc ed
pers o▁ns</w>
on▁ y</w>
in▁ t▁o</w>
ic als</w>
h aps</w>
eng er</w>
ad j
act▁ ively</w>
ac ter
▁prom otional</w>
▁p roud</w>
▁op posite</w>
▁moun tains</w>
▁help ful</w>
▁d i▁
▁construc ted</w>
▁com fort</w>
▁chea p</w>
▁accommod ation</w>
▁Cri tics</w>
se▁ e</w>
p oin▁
or es</w>
ne w▁
lo▁ st</w>
com▁p a▁red</w>
com i▁ng</w>
an▁ cial</w>
a ze</w>
S NS</w>
B ank</w>
▁viol ating</w>
▁the i▁r</w>
▁str onger</w>
▁r om
▁h ospital
▁g ifts</w>
▁fac es</w>
▁ar gue</w>
▁aband oned</w>
▁U N</w>
▁G reat</w>
u▁ le</w>
u▁ g
s▁ ing</w>
r▁ athe▁r</w>
rea son
pr▁ ep
pop ul▁
ow ns</w>
n ia</w>
in▁ cluding</w>
e ing</w>
dis p
diff i▁c
con nec
bo▁ ok</w>
augur ation</w>
T our
St a▁te</w>
Co▁m m
9 5</w>
4 7</w>
▁subscri ption</w>
▁shor tly</w>
▁pres erv
▁fun ding</w>
▁fos tering</w>
▁ex it</w>
▁differ enti
▁Re uters</w>
▁Iran ian</w>
▁Indi an</w>
▁H ome</w>
▁Co ach</w>
▁ it</w>
var▁ ious</w>
in tr▁
f ound
ex ten
ew or
el ine</w>
draw i▁ng</w>
d rew</w>
competi ti▁on</w>
ch e▁ck</w>
agric ultur▁al</w>
ad d▁
acc o▁rd▁ing</w>
G roup</w>
4 6</w>
▁sharehol der</w>
▁m ission
▁counter measures</w>
▁child birth</w>
▁Un ions</w>
▁Rep ubl
you▁ th</w>
w ould</w>
r ice</w>
pr ices</w>
ove▁r seas</w>
l▁ ook</w>
i▁ er</w>
ell i▁ng</w>
do▁ esn</w>
anm unj
S am▁
2 4th</w>
▁w illing</w>
▁sav ings</w>
▁gre en
▁c ycle</w>
▁Str ategy</w>
▁Sh anghai</w>
▁M etropolit▁an</w>
x i</w>
w ear</w>
v al▁ue</w>
u ous</w>
rev ital
ploy ed</w>
pl anni▁ng</w>
organiz ▁ed</w>
or g▁
l ives</w>
ir ty</w>
fam ili▁es</w>
er ial</w>
er as</w>
ee ing</w>
c▁ au▁
be t▁ween</w>
additi on▁al</w>
▁wit n
▁util ization</w>
▁th ea
▁rec ession</w>
▁notif ication</w>
▁mom entum</w>
▁h ire</w>
▁den ied</w>
▁com ment</w>
▁cas ualties</w>
▁R ight</w>
▁Environ mental</w>
u▁r es</w>
sur v▁ey</w>
res ults</w>
per cent</w>
mod▁ el</w>
loc ▁
lig ence</w>
en c▁ed</w>
c oll▁
H i▁gh</w>
2 9th</w>
▁unve iled</w>
▁typ ical</w>
▁qu ar
▁fr▁ ont</w>
▁ear n</w>
▁crow ded</w>
▁cou l▁d</w>
▁contr ary</w>
s▁h ou▁ld</w>
sh ip
p▁ re
pl a▁
mit ting</w>
ir s</w>
du ty</w>
contro ver▁sy</w>
appro priate</w>
W h▁
Sp▁ ec
▁f ab
▁dis coun
▁T aek
▁M apo</w>
▁Hy o</w>
▁&a▁ pos;s</w>
sti▁ tu
si tion</w>
sh al▁l</w>
p▁er son</w>
ow▁ ing</w>
os ing</w>
mid d▁le</w>
me▁ eting</w>
i▁ n▁
ing dom</w>
ey es</w>
am un</w>
D aej
1 6th</w>
▁w estern</w>
▁t▁ he</w>
▁supplem entary</w>
▁re ference</w>
▁propos als</w>
▁mut atis</w>
v in▁g</w>
tak ▁en</w>
s▁ ung</w>
manag e▁ment</w>
l aw▁
k e▁t</w>
expl ain▁ed</w>
ch ar▁
ch air
b re▁
▁s c▁
▁review ed</w>
▁par ▁
▁Ye osu</w>
▁K ookmin</w>
▁Jeon nam</w>
▁Fur thermore</w>
▁Comm unity</w>
tic ▁e</w>
s▁t ud
r▁ ole</w>
pr em
our c▁es</w>
m ay▁or</w>
indus▁ trial</w>
end ship</w>
dis clos
dep art
dam a▁ge</w>
Un i▁
J a▁p
▁su fficient</w>
▁sim ultan
▁rum ors</w>
▁mut andis</w>
▁inten sive</w>
▁attrac tions</w>
vi ol▁
truc tion</w>
parag ra▁ph</w>
or▁ ted</w>
c▁ are</w>
and i▁ng</w>
S er▁
Ch ung</w>
5 G</w>
▁manufactur ers</w>
▁i s▁
▁doc um
▁adj usted</w>
w ri
w ak</w>
uc tu
st able</w>
spe▁ ed</w>
resid enti▁al</w>
produ▁c t</w>
mis si▁on</w>
investig▁ ation</w>
f▁ ter</w>
f u
en ty</w>
do▁ or</w>
allig rap
all i▁ng</w>
all et</w>
S oci▁al</w>
Gover ▁n
G A</w>
▁viol ated</w>
▁so ftware</w>
▁sl eeping</w>
▁s ounds</w>
▁instruc tors</w>
▁ch urches</w>
▁b on
▁ab sor
▁D av
▁Chung nam</w>
sc ale</w>
s ter</w>
r▁ u
jec tion</w>
househ ol▁ds</w>
en▁ tial</w>
em ploy▁
c am
a▁ round</w>
ativ ▁es</w>
appl i▁ed</w>
▁resear cher</w>
▁n oodles</w>
▁break fast</w>
▁P C</w>
ver s▁
pa▁ ss
n ucle▁ar</w>
n ig▁ht</w>
i▁ ous</w>
i el
eo▁ l</w>
ci t▁y</w>
b illion</w>
ad▁ v
T his</w>
P a▁
K▁or▁ ea</w>
K o▁r
3 0th</w>
▁n av
▁destro yed</w>
▁con grat
▁advis ory</w>
▁Prot ection</w>
▁G un</w>
sel ▁f</w>
s anc▁
ma▁ d▁e</w>
c▁ ity</w>
bl es</w>
b ly</w>
al ▁e</w>
S chool</w>
▁ver ify</w>
▁orig in</w>
▁l ot
▁furn iture</w>
▁fru its</w>
▁cultur es</w>
▁c ook</w>
▁U n</w>
▁Th eir</w>
▁Mongol ia</w>
to▁ ur
s▁ tr▁
s▁ k
st ep</w>
s old</w>
negoti atio▁ns</w>
m▁ ost</w>
illeg ▁al</w>
ie▁ f</w>
h▁ t</w>
est ors</w>
eg ae</w>
cr imin
co▁ un▁
c anc▁
bur s
O n
▁tit led</w>
▁sh▁ all</w>
▁m igr
▁extr a
▁every day</w>
▁equ ivalent</w>
▁don ations</w>
▁doc tors</w>
▁di et</w>
▁M c
▁C are</w>
▁Ac ts</w>
▁200 6</w>
ur ▁al</w>
po▁r ts</w>
org an▁
iv ▁er</w>
ih eung</w>
i at
ga▁ ve</w>
c old</w>
af tern
Hy und▁ai</w>
&qu ▁o▁t;</w>
▁kn owing</w>
▁accoun ted</w>
▁a g▁
▁Olymp ic</w>
▁M an</w>
▁Cor p.</w>
▁C ard</w>
▁6 00</w>
s ical</w>
s ev▁en</w>
me▁ et▁ing</w>
con f▁
cl ▁e</w>
S c▁h
M▁ inis
L and</w>
Def en▁se</w>
Dae▁ gu</w>
▁man power</w>
▁coll ective</w>
with out</w>
pr▁ es▁
f▁ er</w>
cit▁ iz
ch e
az ▁
G im
▁stud io</w>
▁o x
▁achiev ement</w>
▁T ea
▁Mar ine</w>
▁L ove</w>
▁Ar gent
v ▁es</w>
ur▁ ing</w>
si k</w>
pres cri
off i▁ci
e ously</w>
ch a▁n</w>
a▁ ti▁
Sec ur
O K</w>
A D</w>
0 5</w>
▁un employment</w>
▁reflec ts</w>
▁m echan
▁har v
▁el ements</w>
▁c o▁uld</w>
▁c elebrities</w>
y l
s o▁ng</w>
r▁ an</w>
prov id▁ed</w>
on a▁l</w>
it ain</w>
int▁er▁ est</w>
in su▁r
il ▁ed</w>
il i▁
K T</w>
Ass ociation</w>
▁th o▁se</w>
▁prefer ential</w>
▁pr ay</w>
▁perspec tive</w>
▁mar tial</w>
▁leg s</w>
▁co al</w>
▁but ton</w>
▁Sup er</w>
▁S us
▁S elf</w>
▁D ream</w>
ti ms</w>
spec i
o▁w er</w>
ow e▁d</w>
if▁ ic
c us▁
Tr ump</w>
Dep artme▁nt</w>
Ch u▁ng</w>
5 3</w>
▁busin ess
▁For ce</w>
▁20 ,000</w>
s ign▁
op hy</w>
iz za</w>
fl edg▁ed</w>
excell e▁nt</w>
end ant</w>
announ c▁
an ches</w>
Wor ld</w>
S elf</w>
S ec▁
N o▁rth</w>
▁pre ven
▁lik es</w>
▁fl u
▁ex istence</w>
▁arti stic</w>
▁an cient</w>
s▁ ts</w>
st yle</w>
s ud
op en▁ed</w>
mark ets</w>
m etropolit▁an</w>
ific ally</w>
g ok</w>
e▁nt al</w>
eph one</w>
ener gy</w>
de f▁
c ent
ac▁ h</w>
C u▁l
▁c ute</w>
▁ar ▁e</w>
▁Mr .
▁F ederal</w>
▁F TC</w>
st ep
so▁ ld</w>
ref e▁r
partic i▁p
ous ▁e</w>
ic ▁ed</w>
ic le</w>
gh▁ t</w>
e▁n dly</w>
ch o
b▁l em</w>
Y eon
▁ship ped</w>
▁prem iums</w>
▁pen insula</w>
▁d ur
▁W ith
▁H a
▁Da ewoo</w>
▁Comm and</w>
▁C N
wh o▁se</w>
w el▁l</w>
pp oin
po▁ in
our▁ th</w>
offic ▁e</w>
od aemun</w>
e▁n sive</w>
evalu ati▁on</w>
eff e▁ct</w>
cl ub</w>
a▁l k</w>
M i</w>
H ae</w>
C oll
▁w ▁h
▁u ▁
▁spec ies</w>
▁sh ock</w>
▁observ ed</w>
▁med al</w>
▁mark ed</w>
▁dec eased</w>
▁W ell</w>
▁P res
▁I m</w>
▁Gang dong</w>
▁5 5</w>
tr av▁
h▁ wa</w>
fl oor</w>
exper ▁ts</w>
es el</w>
R ec
Comm▁ it▁tee</w>
B e
9 8</w>
▁un known</w>
▁system atic</w>
▁suspen d</w>
▁o ff▁
▁bal anced</w>
▁Th ough</w>
▁Gyeong ju</w>
f ar▁
d▁ am
di▁ n▁g</w>
contr▁ ol</w>
a▁l es</w>
av ▁e</w>
at o▁rs</w>
ak ed</w>
ab▁ il▁ity</w>
P S</w>
Intern at▁ional</w>
&a▁p▁os ;▁s</w>
▁t ot
▁reflec ting</w>
▁ob st
▁join ing</w>
▁compl icated</w>
▁Som etimes</w>
treat me▁nt</w>
t ments</w>
str ong</w>
rel eased</w>
pro j▁
on ers</w>
lawmak ▁er</w>
ent▁ r
ea▁ l
bri ef
b a▁nd</w>
b an
add it▁ional</w>
Eng lish</w>
▁un ions</w>
▁sugg est</w>
▁semiconduc tors</w>
▁extra ordinary</w>
▁eas ing</w>
▁ac compl
▁G umi</w>
▁2 3
ul ates</w>
sec▁ urity</w>
re▁ su▁l
per i
m▁ on▁
fr aid</w>
for ced</w>
es is</w>
ere in
comm ission
bi▁ll i▁on</w>
au th▁
a it</w>
Sam sung</w>
Pol i▁cy</w>
2 2nd</w>
▁th i▁nk</w>
▁exc eeding</w>
▁en ds</w>
▁coun ter</w>
▁conf usion</w>
▁brea king</w>
▁Is ra
▁H ist
▁1 20</w>
to▁ ld</w>
s il
reg i▁on</w>
publ i▁c</w>
ot▁ e</w>
on o▁my</w>
mi▁ll i▁on</w>
m ent
l▁ ast</w>
ic▁ ts</w>
en s▁
bec o▁m
ai▁ ls</w>
T O</w>
M y
C l▁
▁sac rif
▁libr aries</w>
▁ir on</w>
w▁ a</w>
un ch</w>
r▁ ec▁
pr▁ ot
o ons</w>
m▁ .</w>
lis ▁
iqu es</w>
in i▁ng</w>
ee th</w>
d em▁
c▁ ess</w>
B ud
▁st artups</w>
▁rest ore</w>
▁remov al</w>
▁pro ve</w>
▁ph ilos
▁S aem
▁Per sons</w>
▁L ake</w>
▁2 7
t▁ri es</w>
ref lec
po▁ s▁
ou ts</w>
op eration</w>
gener al</w>
fir ▁
d▁ el
d ivid
coun c▁il</w>
c or▁
In t▁ern
Ce▁n ter</w>
A n▁
▁revital ization</w>
▁over whel
▁mak eup</w>
▁ch at</w>
▁advis ed</w>
▁O k
serv ▁ed</w>
ph ys
op port▁
h oon</w>
W ▁h
▁sol o</w>
▁reg ret</w>
▁p ow
▁mat h</w>
▁gu ys</w>
▁g all
▁earn ings</w>
▁col orful</w>
▁c and
▁20 22</w>
tr ade</w>
rup ted</w>
par ki▁ng</w>
ou ths</w>
off ee</w>
iv ▁es</w>
in fl▁
im pl▁
if ier</w>
hist o▁ry</w>
e▁n ▁
ang ▁e</w>
▁rep ayment</w>
▁qu iet</w>
▁ma them
▁j u
▁in ner</w>
▁contain er</w>
▁b e▁
▁11 9</w>
th▁ eir</w>
st an</w>
r on</w>
pre▁ vious</w>
pers ons</w>
om ▁e</w>
min utes</w>
ma▁ il</w>
ld wide</w>
iz a▁tion</w>
h ou▁rs</w>
gr▁ ow
gover▁n me▁nt</w>
fi▁ ed</w>
e▁ et</w>
ex c▁
ett e▁r</w>
et ti▁ng</w>
ch ec
ar▁ d
an▁ ces</w>
U▁ .S.</w>
M yung</w>
▁th ick</w>
▁ordin ances</w>
▁go▁ in▁g</w>
▁N o
▁3 D</w>
t▁w ee▁n</w>
ti▁v al</w>
r▁ o
l at
import a▁nt</w>
i o
d u▁st</w>
bit r
bec ome</w>
b at
Ph one</w>
5 ,000</w>
▁rob ot</w>
▁perc eption</w>
▁dis charge</w>
▁Inspec tion</w>
▁G en
▁Administr ative</w>
s▁ is</w>
r i▁ce</w>
o▁ i</w>
mark e▁t</w>
i▁t al</w>
ing ness</w>
id arity</w>
g▁ roup</w>
f ic
ef▁f o▁rts</w>
d▁ it</w>
bl ock
Y e▁
Min i▁s
A ▁h
▁spea king</w>
▁neigh bors</w>
▁m on▁
▁h asn</w>
▁for get</w>
▁correc tion</w>
▁b oss</w>
▁Presid ential</w>
▁200 5</w>
si t▁e</w>
resid ent▁s</w>
r a▁n
ob ong</w>
k▁ i</w>
itt▁ en</w>
g▁row th</w>
form ati▁on</w>
e▁ al</w>
devel▁ op</w>
Pres▁ iden▁t</w>
Ass oci▁
▁pos ts</w>
▁per su
▁m ent
▁dis mant
▁deleg ation</w>
▁col onial</w>
▁circ le</w>
▁an ger</w>
▁an c
▁ag gres
▁Ye ouido</w>
▁Sch ol
▁Reg ulations</w>
▁Per iod</w>
▁D aily</w>
suspec t▁ed</w>
sup p▁ly</w>
streng th
re▁ en</w>
requ ir
mat ters</w>
h igh▁er</w>
ev en▁ts</w>
ef▁ t</w>
confir m▁ed</w>
bu▁ s
an ymore</w>
am ing</w>
Ch in▁a</w>
▁pur sue</w>
▁larg ely</w>
▁d ress</w>
ut▁ e</w>
s▁ ay</w>
r es</w>
os ted</w>
o b▁er</w>
ket ball</w>
ett es</w>
ch i▁ld</w>
at ings</w>
Or dinance</w>
▁wel come</w>
▁hom epage</w>
▁fin als</w>
▁dep ends</w>
▁coll ea
▁acc es
▁C SAT</w>
▁B rexit</w>
▁ ti▁on</w>
tion ally</w>
p▁ar ty</w>
p sych
ott en</w>
implem ent
f und</w>
f act</w>
em en▁ts</w>
differ ent</w>
dem onstr
con d▁uc
con di▁
E ducation</w>
1 2▁
▁led ger</w>
▁immigr ants</w>
▁hand led</w>
▁h ole</w>
▁fil es</w>
▁e n▁
▁diagnos ed</w>
▁des per
▁deleg ated</w>
▁b en
ur g
ne▁ ws</w>
lo ad</w>
h erit
facil i▁ty</w>
e▁ar ch</w>
esti▁ g
cr isis</w>
cooper ation</w>
bui▁l t</w>
ass oci
S oon</w>
R oh</w>
2 n▁d</w>
▁t end</w>
▁sol utions</w>
▁sign al</w>
▁short age</w>
▁flo ors</w>
▁U ijeongbu</w>
▁H oll
▁Ch osun</w>
▁5 0,000</w>
▁ atio▁n</w>
tr ust</w>
s▁y s▁tem</w>
ri d</w>
p▁l ease</w>
i▁ onal</w>
i efs</w>
h yeon</w>
dec rea
d ur
P op</w>
201 3</w>
▁trea sury</w>
▁re hab
▁norm ally</w>
▁m arg
▁f are</w>
▁c able</w>
▁ban king</w>
▁Sh ould</w>
▁J ongno</w>
▁D r.</w>
ye▁ ars</w>
w ar▁d</w>
pl ant</w>
p resident</w>
ot▁ te</w>
or mit
or i▁g
m emor
lo om
j un▁g</w>
introduc ▁ed</w>
inter pre
e▁n e</w>
cons ul
ac▁ ts</w>
O S</w>
Econom ▁ic</w>
▁conc rete</w>
▁ac knowl
▁For um</w>
▁B road
wo▁ ok</w>
ut ation</w>
st o▁re</w>
jec t▁s</w>
fl o
dec ision</w>
d e▁rs</w>
an oth▁er</w>
ag ue</w>
Ch ang
Amer ic▁an</w>
A cc
4 1</w>
▁s ugar</w>
▁restruc turing</w>
▁rel ax
▁num erous</w>
▁mov es</w>
▁minis tries</w>
▁cont acted</w>
▁bo xes</w>
▁Enter tainment</w>
v▁ al
tr▁ ies</w>
tr av
tr ans▁
shar i▁ng</w>
s ports</w>
pl ic
par t▁y</w>
n ear</w>
m▁ obile</w>
m▁ aking</w>
m on</w>
i▁c k</w>
h▁ an</w>
ho▁ l▁d</w>
ea▁ st</w>
c▁ ame</w>
Lea g▁ue</w>
L ib▁
&apos; m</w>
▁valu able</w>
▁sol ving</w>
▁rel ▁
▁S im
▁M yeong</w>
▁&qu ▁o▁t;</w>
progr am</w>
pas s▁ed</w>
ou t▁
og an</w>
l ev
institu tio▁ns</w>
ewor thy</w>
c▁ o
c elebr
a▁p p▁
an tial</w>
am i</w>
Y a▁ng</w>
Sh in
R o▁
▁uni form</w>
▁transl ation</w>
▁Tur kish</w>
▁Comp etition</w>
▁3 9</w>
xim ately</w>
v ▁ed</w>
over ing</w>
os h
or able</w>
oper ati▁ng</w>
n ic</w>
long ed</w>
en▁ ded</w>
con▁ cer
c ro
a▁b ou▁t</w>
aw a</w>
app ing</w>
F u▁nd</w>
▁week ends</w>
▁minim ize</w>
▁fl oo
▁em otions</w>
▁d ealing</w>
▁c oin
▁S e▁
▁Rev olution</w>
vis iti▁ng</w>
ti m</w>
str ateg
p▁er s▁on</w>
on▁ ic</w>
fem a▁le</w>
d▁ er
c and▁
aes ong</w>
St ati▁on</w>
J oo</w>
Ch airpers▁on</w>
▁tal ented</w>
▁k eeps</w>
▁el ev
▁des k</w>
▁ch ronic</w>
▁ch em
▁a ro
▁P rem
▁Elec tion</w>
u▁n de▁r</w>
sec tion</w>
ro o▁m</w>
of▁ f</w>
high e▁st</w>
eti me</w>
be▁ fore</w>
Sept emb▁er</w>
9 9</w>
▁reg ularly</w>
▁purch ases</w>
▁pregn ant</w>
▁impres sion</w>
▁grow s</w>
▁fac ilit
▁dem anding</w>
▁c igar
▁S illa</w>
▁Eng ineering</w>
ul a▁r</w>
se e▁ms</w>
s ea▁
l▁ik▁ ely</w>
j▁ oo</w>
itt▁ le</w>
inc re▁
e ff▁
conv en▁
con vers
a▁ ff
al rea▁dy</w>
ak ▁e</w>
Comm issi▁on</w>
. m▁.</w>
▁t ough</w>
▁t or
▁s i▁nce</w>
▁rel ocation</w>
▁op tion</w>
▁l iber
▁bo oth</w>
w ill
ti n</w>
s afe</w>
it ably</w>
i ances</w>
he▁ on</w>
e th
a▁ir s</w>
a▁ n▁
P▁ ro
F or▁
▁w ashing</w>
▁t end
▁rev eal</w>
▁politici ans</w>
▁pat tern</w>
▁pass port</w>
▁n ovel</w>
▁identi fication</w>
▁g ▁
▁exchang ed</w>
▁equ ality</w>
▁attemp t</w>
▁P or
▁J am
ul n
se▁ nd</w>
p▁l eas▁e</w>
prec ed
mat h</w>
lif ▁e</w>
iz ure</w>
h uman</w>
expen s▁es</w>
d▁ ays</w>
c▁ aus
ar ▁t</w>
M an
I P</w>
D▁ ae</w>
2 7
▁war eh
▁mo thers</w>
▁in n
▁design s</w>
▁competi tions</w>
▁b id</w>
▁attemp ted</w>
▁apolog ize</w>
▁acc ept
w id
th ▁s</w>
pa▁r ty</w>
ock et</w>
o ked</w>
l▁ aw
in tro▁
e▁n ing</w>
ex erc
d eok</w>
cont▁ in
G overnor</w>
▁vess els</w>
▁dist inc
▁KOS PI</w>
▁Jin ju</w>
▁Br anch</w>
▁Am bassador</w>
yr ics</w>
ta in▁
s af
r▁ oom</w>
professi on▁al</w>
pre▁ s
m oun
k l
i▁d ent</w>
increa si▁ng</w>
el▁ fare</w>
c a▁rd</w>
bu▁ d
a▁ r▁
ac ti▁v
▁vir tual</w>
▁un clear</w>
▁st ake</w>
▁recon struction</w>
▁h n
▁dr inks</w>
▁def icit</w>
▁b anned</w>
▁argu ment</w>
▁W all</w>
▁Th eater</w>
▁L ater</w>
▁C amp
▁Bel g
▁B ol
t▁ ors</w>
re▁g ular</w>
res ▁p
pre h
org a▁n
oper at▁ed</w>
m em▁b
h▁ ealth</w>
e▁ ed</w>
di▁ ed</w>
del iver
d ir▁
com▁p any</w>
M▁ in▁
▁tri als</w>
▁per i
▁issu ing</w>
▁br anches</w>
▁F C</w>
▁Candid ate</w>
sub je▁ct</w>
str eam</w>
s tic
j oo▁n</w>
fi el
ex t
end ers</w>
cand i▁d
ac ti▁on</w>
S cien▁ce</w>
M A</w>
Je o▁ng</w>
F▁ or
▁t ight</w>
▁inter views</w>
▁hop es</w>
▁exam ples</w>
▁d um
▁correspon ding</w>
▁character istic</w>
▁V is
v arious</w>
t▁ ant</w>
rec e▁nt</w>
n ational</w>
m un</w>
i▁n to</w>
h ap▁
g rou▁ps</w>
e▁v ent</w>
expl ained</w>
exp e▁ct▁ed</w>
a▁ us▁e</w>
anc ement</w>
am ent</w>
ab b
S▁e ou▁l</w>
Ko▁ re
D on
▁u tive</w>
▁sub mission</w>
▁sc ulp
▁n eck</w>
▁i l</w>
▁gr at
v al</w>
minim ▁um</w>
m uc▁h</w>
l ig▁ht</w>
g ove▁rn
form ing</w>
ex i▁st
be▁ li
at ell
ali for
ak en</w>
aftern o▁on</w>
N a</w>
G od</w>
Bl ue</w>
▁th e▁y</w>
▁stor ed</w>
▁or g
▁extrem ely</w>
▁conn ect</w>
▁U. N.</w>
▁U l
▁Lea der</w>
▁An gel
y m</w>
un gri</w>
um a</w>
t el
si▁ ze</w>
ro ads</w>
ri ous</w>
or▁ ity</w>
n ati▁onal</w>
j o▁on</w>
is ms</w>
fl u
e▁as y</w>
ev en▁t</w>
des i▁gn</w>
ag r
ac t▁or</w>
▁res ignation</w>
▁neighbor ing</w>
▁hom etown</w>
▁dismis sal</w>
▁chea per</w>
▁c iting</w>
▁bu yer</w>
▁al on▁g</w>
▁T ake</w>
▁S quare</w>
▁H eo</w>
▁20 00</w>
we▁l fare</w>
view ers</w>
sti ll</w>
po▁l icy</w>
p rivate</w>
olog ic▁al</w>
m▁ p
le▁ ading</w>
l t;</w>
im a</w>
fam iliar</w>
f un</w>
execu ti▁ve</w>
b udg
Gy▁eong gi</w>
. 8
▁st ating</w>
▁sp ir
▁sav ed</w>
▁eng age</w>
▁U pon</w>
un▁ g
und ang</w>
ti o▁n
s ens
s ay▁ing</w>
pos s▁
pa▁ ss</w>
op pi▁ng</w>
m ly</w>
impo▁r tant</w>
h▁ yun</w>
est a▁te</w>
eri a▁ls</w>
d im
▁succ eed</w>
▁pas ses</w>
▁int ellectual</w>
▁grad uation</w>
▁dea ths</w>
▁ar ch
▁Particip ants</w>
un ded</w>
s o▁ns</w>
rais i▁ng</w>
p▁ res
loom berg</w>
li▁ st</w>
i▁n ance</w>
in▁ come</w>
ez uel
es th
dr ama</w>
comp▁ any</w>
ar row
ag i▁ng</w>
accor dan▁ce</w>
acc ident</w>
&▁ap▁os ;t</w>
▁tr an
▁ten sion</w>
▁st y
▁r ises</w>
▁oppon ent</w>
▁im pris
▁form al</w>
▁f eared</w>
▁democr acy</w>
▁cons ol
▁conn ecting</w>
▁conf ident</w>
▁B o</w>
▁B it
▁3 0,000</w>
ym nas
w ri▁
t ou▁r
sh o▁rt</w>
l ow▁er</w>
i▁st▁ ry</w>
h▁ ope</w>
fa▁ ir</w>
avoid able</w>
ar ch
S y
S eptember</w>
▁pl ate</w>
▁o ve▁r</w>
▁med iation</w>
▁loc ations</w>
▁gu ilty</w>
▁c rew</w>
▁b ill
tr i▁
tr ical</w>
tic▁ le</w>
s▁ elf</w>
spe▁ cial</w>
sh a▁re</w>
r is▁
loo ki▁ng</w>
increa se</w>
fa▁m ily</w>
en▁ ted</w>
ap yeong</w>
an t▁
ack et</w>
ac ti▁ng</w>
Techn olo▁gy</w>
St ates</w>
Oper ati▁on</w>
Na▁ tional</w>
Con f
▁un likely</w>
▁r ains</w>
▁or dering</w>
▁en ters</w>
▁S il
▁M anch
▁L eg
▁J ob</w>
ugg age</w>
s▁ ite</w>
s un
qu es▁
or ders</w>
op▁ er
itiv ely</w>
e▁n ed</w>
develo▁p m▁ent</w>
a ju</w>
O P</w>
Jap a▁n
5 ▁th</w>
▁with draw</w>
▁s ustainable</w>
▁s and
▁op tim
▁off line</w>
▁mov ements</w>
▁immedi ate</w>
▁Auth ority</w>
t ude</w>
stor es</w>
r ors</w>
pur po▁se</w>
od a</w>
me▁ di
m ine</w>
l▁ ess</w>
it ter</w>
ins eng</w>
id en▁ts</w>
en▁ ess</w>
consid er
chil d
O c▁
J os
▁w ou▁ld</w>
▁telecomm unication</w>
▁st ro
▁ra ises</w>
▁pass age</w>
▁not eworthy</w>
▁g as
▁f ewer</w>
u it</w>
s▁ al
ph o▁to</w>
pen ed</w>
m▁ i</w>
m▁ eans</w>
ge▁t ting</w>
ea st</w>
e ze</w>
de▁ m
aver a▁ge</w>
anc er</w>
H ouse</w>
E con
5 0
▁sub contrac
▁st ops</w>
▁rehab ilitation</w>
▁equ al</w>
▁ass istant</w>
▁W inter</w>
▁Pl an</w>
▁Comp anies</w>
ye on
ul▁ ture</w>
ul ▁es</w>
sp re▁ad</w>
som ▁e</w>
press way</w>
op p
om▁ an</w>
g▁ ive</w>
es p
cus t▁om
contin u▁ed</w>
a▁l ways</w>
a▁c tive</w>
ai▁r ma▁n</w>
En forceme▁nt</w>
D ec▁
▁us eful</w>
▁per mit</w>
▁mid st</w>
▁in auguration</w>
▁dang er</w>
▁Prosec utor</w>
▁M un
▁Jeon buk</w>
▁4 8</w>
ve▁ h
ut e▁s</w>
r id
mob i▁le</w>
is▁ h</w>
ins egae</w>
gh ts</w>
c y
c ot
a▁r k</w>
L ED</w>
F o▁od</w>
A▁h n</w>
; d</w>
▁sex ually</w>
▁l angu
▁exc eeds</w>
▁con gl
▁20 0,000</w>
tra ff▁ic</w>
s oo▁n</w>
s ingly</w>
pos ure</w>
person n▁el</w>
ow ners</w>
n▁ umber</w>
m i▁s
l ands</w>
j a▁e</w>
is▁h ed</w>
investig▁ atio▁n</w>
inv es▁t
il▁l egal</w>
en▁ tly</w>
d▁ uring</w>
al ities</w>
S ▁u
Inv est
▁tr a
▁res ume</w>
▁rad io</w>
▁qu arters</w>
▁pos ting</w>
▁par ent</w>
▁p anel</w>
▁P acific</w>
w▁ ould</w>
w▁ ays</w>
ul ty</w>
su▁r es</w>
qu ar▁
op▁ ment</w>
me▁m b▁ers</w>
m i▁d
issu▁ es</w>
im u▁m</w>
h▁ igh</w>
frastruc tu▁re</w>
f a▁ct</w>
b ar
J a▁e</w>
B a▁
A ▁u
A ugust</w>
▁stom ach</w>
▁p ill
▁mach ines</w>
▁inf ants</w>
▁f at</w>
vi e▁w</w>
ve h▁
the▁ se</w>
sc ene</w>
is ▁e</w>
ir▁ st</w>
ex pl▁
a▁m ong</w>
ar▁ ts</w>
applic ati▁on</w>
Q u
P o
▁u ally</w>
▁subsid ized</w>
▁sett le</w>
▁pat terns</w>
▁interpre tation</w>
▁fr ustr
▁expres sing</w>
▁ar en</w>
▁Exc use</w>
▁D et
▁Bur eau</w>
th▁ a▁n</w>
presid e▁ntial</w>
o on
e ye</w>
d ow▁n</w>
com pens
ang yo</w>
ai▁n ing</w>
J anu
D em▁
▁pen ding</w>
▁p edestr
▁man ual</w>
▁legisl ative</w>
▁collabor ation</w>
▁claim ing</w>
▁Y e</w>
▁W at
▁M aybe</w>
▁4 2</w>
▁2 4
wh▁ eth▁er</w>
w ife</w>
t yp
sp ea
reg a▁r
ok do</w>
n i</w>
lea▁ st</w>
k▁ n
ir able</w>
i an
comp▁an i▁es</w>
b▁ um</w>
at▁ h
5 7</w>
&ap▁os;▁ re</w>
▁urg ently</w>
▁tel ephone</w>
▁s an
▁r iding</w>
▁laun ching</w>
▁gr ound
▁eg gs</w>
▁amoun ts</w>
▁T or
wh er▁e</w>
sl etter</w>
pro mo
op ment</w>
gr a▁
fri e▁ndly</w>
fort unately</w>
e▁ k</w>
ea▁ sy</w>
cr▁ ea
ch airpers▁on</w>
av ed</w>
a i
Ord in▁
G ove▁rn
D es
▁vir tually</w>
▁step ped</w>
▁slow ly</w>
▁psych ological</w>
▁com ▁
▁ch ances</w>
▁attrac tion</w>
▁Taek wondo</w>
▁K inderg
▁For tunately</w>
▁Des ign</w>
▁Con s
▁Ch ae</w>
v ent
ut▁ ure</w>
s▁ ome</w>
so▁ cial</w>
s ep
r▁ ight</w>
prom ise</w>
m yung</w>
m ag
em ▁ed</w>
elec tions</w>
des ign</w>
ca▁ st</w>
cap it▁al</w>
Y u</w>
M ark
L ife</w>
Ad minis
A g▁
▁w ouldn</w>
▁sugg ests</w>
▁objec tion</w>
▁h orse</w>
▁f i▁rst</w>
▁experi encing</w>
▁K BS</w>
▁Hy ung</w>
w oo▁k</w>
v▁ ice</w>
un i▁
th or
s▁ im
sing le</w>
pro▁ ject</w>
par t▁
os t
n e▁c
m an▁y</w>
in t▁o</w>
f igh
con d▁
am in</w>
▁wea pon</w>
▁w rap
▁tri ps</w>
▁s essions</w>
▁res ource</w>
▁prim ary</w>
▁jus tif
▁fin alized</w>
▁cons ci
▁T ell</w>
▁Represent atives</w>
▁Par tic
▁N A
▁D e
▁C redit</w>
▁Buddh a</w>
▁B ang
▁Ass et</w>
om m▁
o ing</w>
m ember</w>
il▁l i▁on</w>
fr i▁
consec u
ch u▁l</w>
▁serv er</w>
▁peti tions</w>
▁lea ked</w>
▁juven ile</w>
▁disp atch</w>
▁consult ations</w>
▁Swed en</w>
▁N ak
▁E as
▁Cl ub</w>
wh▁ et▁her</w>
s▁y st▁em</w>
ou▁ s
m▁ar▁ ket</w>
m▁ any</w>
ir e▁ct</w>
h and</w>
g as</w>
f av▁
elec om</w>
d ed
c▁ annot</w>
critici z▁ed</w>
b ery</w>
al▁ f</w>
ai▁ l</w>
M al
Administr ati▁on</w>
▁vis ible</w>
▁subst ances</w>
▁st ands</w>
▁reorganiz ation</w>
▁pas tor</w>
▁met al</w>
▁compens ate</w>
▁b o▁
▁Kum ho</w>
w elfare</w>
u▁n ity</w>
tr an▁s
red u▁ce</w>
re fl
on li▁ne</w>
m yeong</w>
i▁ ving</w>
fee▁ l</w>
du▁ ced</w>
con stitu
ch▁ an</w>
b▁ ro
ar▁ ound</w>
ant a</w>
a .▁m.</w>
W a</w>
Associ atio▁n</w>
▁strugg le</w>
▁r atings</w>
▁crea tes</w>
▁cr u
▁br inging</w>
▁b ank
▁attrac tive</w>
▁atten d
▁G M</w>
▁Br itain</w>
vill a▁ge</w>
ta i▁n</w>
sec urity</w>
rup ti▁on</w>
otten ham</w>
join▁ ed</w>
it a▁l</w>
inst all
ic▁ ial</w>
fun ds</w>
d a
comp etition</w>
ar riv
O ne</w>
Dem oc▁ratic</w>
9 7</w>
&a pos▁;
▁stat ue</w>
▁res istance</w>
▁renew able</w>
▁ph armaceutical</w>
▁m yst
▁inten se</w>
▁evac u
▁compl ained</w>
▁M E
w▁ een</w>
u▁r ity</w>
t▁ ow
th▁ od</w>
p▁ol▁ icy</w>
pos t
pos i▁
ocol ate</w>
me▁m b
lo▁ c
j oint</w>
it o▁rs</w>
ial ▁s</w>
gen e▁r
fl ow</w>
et o</w>
ab o▁r</w>
Ch airman</w>
Ar ticle</w>
▁p ig
▁discharg ed</w>
▁day time</w>
▁bur ned</w>
▁US D</w>
▁Sec ond</w>
▁Res ources</w>
▁Pre vention</w>
vid eo</w>
poin ts</w>
pl▁ ay
play e▁rs</w>
iev ed</w>
govern men▁t</w>
fam o▁us</w>
ec tions</w>
ast al</w>
ar ely</w>
M ov
M S</w>
▁un avoidable</w>
▁trad ition</w>
▁t aught</w>
▁spons ored</w>
▁p ip
▁nerv ous</w>
▁hea tw
▁d e</w>
▁bid ding</w>
▁acc eler
▁T est</w>
▁B loomberg</w>
w▁ an▁t</w>
win ni▁ng</w>
un▁ der</w>
und ae</w>
ris k</w>
prosec uti▁on</w>
of▁f ice</w>
ocr▁ atic</w>
och ang</w>
m▁on th</w>
m em
ke▁ ep</w>
k a</w>
ee▁ p</w>
c▁ r▁ea
c▁ le</w>
cas ting</w>
c ut</w>
c ould</w>
Se ok</w>
En▁g lish</w>
&ap▁os; t</w>
▁str ict</w>
▁s par
▁ret ail</w>
▁res ulted</w>
▁guarant eed</w>
▁gen re</w>
▁en v
▁M il
transport ati▁on</w>
the▁ me</w>
reg ul▁
par ents</w>
ow ned</w>
osp el</w>
ob ▁s</w>
l eep</w>
iz z
ea c▁e</w>
d ney</w>
commission ▁ed</w>
bo a▁rd</w>
ap art
L ab▁or</w>
I s</w>
& amp▁;</w>
▁wh i▁le</w>
▁t eeth</w>
▁t astes</w>
▁re wards</w>
▁p apers</w>
▁ob ject</w>
▁in corpor
▁confron tation</w>
▁Jin ping</w>
▁Con sumer</w>
▁4 3</w>
rup t</w>
r at▁e</w>
pri▁ vate</w>
prais al</w>
play ▁er</w>
p ack
o▁p ment</w>
l ost</w>
k▁ ind</w>
ie▁ ve</w>
hear t</w>
gover▁n m▁ent</w>
ess e▁s</w>
ear ning</w>
clu▁ de</w>
circ umst
a▁mp ;</w>
ag en▁cy</w>
ad o</w>
Min i▁st▁ry</w>
Li▁ ber
Ch i▁ef</w>
&a▁ po▁s▁
▁will ingness</w>
▁t ools</w>
▁respon ses</w>
▁langu ages</w>
▁ch ain</w>
▁a d▁
▁T our</w>
▁C o.</w>
▁Arab ia</w>
y angju</w>
u▁ ation</w>
u ff</w>
sh or
o▁ ff▁ice</w>
ot ers</w>
h appy</w>
di e</w>
der▁ ly</w>
azak h
ap artme▁nt</w>
amp s</w>
N A</w>
▁requ esting</w>
▁r ow</w>
▁instruc tor</w>
▁di versi
▁decrea sing</w>
▁dec isions</w>
▁cou ples</w>
▁ch emical</w>
▁autom obile</w>
▁T ri
▁G e
▁Fr amework</w>
▁&apos; t</w>
yst e▁m</w>
w alk</w>
tic es</w>
ri e▁d</w>
pro jec▁t</w>
p y▁o</w>
on▁ gs</w>
ma▁r k</w>
is t▁s</w>
ill er</w>
i enc▁e</w>
h igh▁
h a▁r
gu k</w>
etropo▁l itan</w>
establish me▁nt</w>
establis ▁h
develo▁p ment</w>
d in▁gs</w>
cl e▁ar</w>
ch e▁rs</w>
ar i▁ng</w>
Comm itte▁e</w>
C en▁ter</w>
B A</w>
5 8</w>
& q▁u▁ot;</w>
▁pr ide</w>
▁mor t
▁mill ions</w>
▁h ub</w>
▁h a▁s</w>
▁Rev iew</w>
▁Partic ularly</w>
▁O s
▁&a▁ pos;
vehic l▁es</w>
v ices</w>
us ive</w>
ta▁ ge</w>
sch oo▁ls</w>
s o▁n
per f
p iec
m▁ ents</w>
je▁c ts</w>
j un</w>
i a
g t;</w>
fail ▁ed</w>
eff ect</w>
c▁ ut</w>
corp▁or ate</w>
an▁ ding</w>
Indus t▁ry</w>
5 6</w>
5 1</w>
▁prohib ited</w>
▁neg ligence</w>
▁l isting</w>
▁deteri or
▁appro pri
▁H appy</w>
▁E un
t om▁
sa▁ f
prin ci
o▁u th</w>
ot▁ h
on to</w>
j oo</w>
insur an▁ce</w>
etw ork</w>
ec tors</w>
e ve</w>
di▁ d</w>
cl ock</w>
ch eck</w>
a▁c tion</w>
and a</w>
ad mi▁n
ac▁ k
N▁ o.</w>
8 8</w>
▁pro longed</w>
▁hea ted</w>
▁3 00,000</w>
w in▁
pr ac▁
pl a▁n</w>
leg ▁al</w>
k eep</w>
i▁ sion</w>
improv eme▁nt</w>
elec tr
constru▁c tion</w>
con tro▁
L ot▁te</w>
In stitute</w>
H A
D S</w>
. 6
▁or ganic</w>
▁exc ited</w>
▁const ant</w>
▁a p▁
▁Ex hibition</w>
son nel</w>
s n
retur n▁ed</w>
regar di▁ng</w>
prov i▁ncial</w>
p eace</w>
l▁ ead</w>
is ti▁cs</w>
in stitu▁
i king</w>
f▁ ore</w>
fe▁ ll</w>
f oo▁d</w>
et ely</w>
ch airper
b ang</w>
am en</w>
H o</w>
1 0▁
▁sup porters</w>
▁stea dy</w>
▁n ations</w>
▁ar bitr
▁any where</w>
▁Han jin</w>
us e▁d</w>
th i▁nk</w>
ser▁ vice</w>
ow in▁g</w>
oc▁ k</w>
o th▁
l iving</w>
int ell
hav i▁ng</w>
eac eful</w>
comp an▁y</w>
b ong</w>
M C</w>
H ak</w>
8 ▁th</w>
0 8</w>
▁n eve▁r</w>
▁inv ent
▁im position</w>
▁det ention</w>
▁bur d
▁Stand ards</w>
▁Sh ip
▁F ive</w>
▁D oo</w>
vi ation</w>
us▁ ing</w>
sy n
su▁l a</w>
sa▁ le</w>
pro bl▁em</w>
n e▁rs</w>
mea▁ su▁res</w>
esti ons</w>
em ployees</w>
em atic</w>
c entr▁al</w>
am e▁s</w>
aft▁ e▁r</w>
ac ▁t</w>
I D</w>
I C</w>
▁n ▁
▁mot or</w>
▁magaz ine</w>
▁l on
▁inev itably</w>
▁grand mother</w>
▁fair ness</w>
▁cal m</w>
▁c ast</w>
▁Dong daemun</w>
u▁n g
stat▁ us</w>
partic▁ip▁ ate</w>
n eeded</w>
m ail</w>
m ach
ind u▁
h a▁nd</w>
f our▁th</w>
ex▁ pl
e ffic
d oll
c our▁
b▁ et▁ter</w>
aud▁ it</w>
as tically</w>
acc ou▁n
Prov ide▁d</w>
O C</w>
Li▁ber ty</w>
A ir</w>
▁shou lder</w>
▁sh eet</w>
▁eng in
▁decl ined</w>
▁cons isting</w>
▁arriv al</w>
▁a fraid</w>
▁Ven ezuel
▁Bi o
t▁ en
trad it▁ional</w>
str en▁g
sh a▁r
sched ul▁ed</w>
res tric
me▁m bers</w>
it ude</w>
der ful</w>
corpor a▁te</w>
ch em
b oy
au▁ lt</w>
Presi▁d ent</w>
Offic ▁e</w>
Da egu</w>
▁trav el
▁pre ference</w>
▁max im
▁le g</w>
▁law yers</w>
▁increa singly</w>
▁for g
▁exemp ted</w>
▁ed ge</w>
▁decor ated</w>
▁aspec ts</w>
ti▁ ms</w>
p op▁
o▁ s▁
ox ide</w>
oun g
i▁ ew</w>
ilat eral</w>
h▁ erein
here i▁n
f ers</w>
em p▁
ch▁ eon</w>
b rea▁
O ctober</w>
L og
J o▁ng</w>
▁s id
▁m eets</w>
▁l ending</w>
▁fl uctu
▁en coun
▁ch art</w>
▁c art
▁Conf ederation</w>
ye e▁s</w>
um▁ p</w>
um p
tin ue</w>
t otal</w>
st ern</w>
rea di▁ng</w>
pr▁o duct</w>
ph oto</w>
og▁ n
m▁ark ▁et</w>
mov ie</w>
m enti
increa sed</w>
econ▁ omic</w>
dev e▁lop
compl et▁ed</w>
M oo▁n</w>
▁networ ks</w>
▁i m▁
▁dis tribute</w>
▁depar ture</w>
▁clin ical</w>
▁Sh insegae</w>
▁O p
▁D MZ</w>
▁B er
▁4 4</w>
x y</w>
u a▁l</w>
sh▁ ot</w>
f▁ ar</w>
fu▁ nd</w>
ai▁ gn</w>
S he</w>
R A</w>
E C</w>
,0 00
▁th r
▁t ab
▁rea ching</w>
▁person ally</w>
w est</w>
tu▁r n</w>
sum ▁
requ ▁
pos▁ al</w>
iv e▁d</w>
ic ▁t</w>
h ope</w>
h e
gr a▁de</w>
er ty</w>
bo▁r n</w>
at▁ ure</w>
Am eric
▁y ea▁rs</w>
▁week ly</w>
▁t om
▁produc ers</w>
▁princi ples</w>
▁inter ven
▁con clude</w>
▁ch air</w>
▁W ol
▁T w
▁S a
▁S BS</w>
▁Indones ian</w>
▁Ex pec
▁B io</w>
with in</w>
us ▁es</w>
un s</w>
prof it</w>
p etr
ou t▁h</w>
n eg▁
m ye▁on</w>
is▁ is</w>
e▁n ▁t</w>
ea c▁h</w>
dro p</w>
b▁ eg
az y</w>
G eum
▁ship building</w>
▁pres erve</w>
▁pat rol</w>
▁bath room</w>
▁Austral ian</w>
w a▁n</w>
t ou
s k</w>
p▁ ower</w>
oph is
med i▁
m ate</w>
l▁ arge</w>
e▁conom ic</w>
es t▁s</w>
d on▁
d e▁r
crea t▁ed</w>
commer ci
a▁ ds</w>
A▁r ti▁cle</w>
▁y e▁ars</w>
▁underst ood</w>
▁tal ents</w>
▁shou ldn</w>
▁schol ars</w>
▁pre d
▁pra ised</w>
▁l od
▁k m</w>
▁in fr
▁c a▁
▁Investig ation</w>
s▁c ale</w>
s urr
r ain
progr a▁ms</w>
probl ems</w>
jo▁ o</w>
ic tion</w>
h ak</w>
g iv▁en</w>
exi▁st ing</w>
em an</w>
ann o▁un
▁y o▁u</w>
▁wors ening</w>
▁vis a</w>
▁refug ee</w>
▁out lets</w>
▁in sp
▁in her
▁immigr ation</w>
▁f er
▁chec k
▁Pri or</w>
t▁ic l▁e</w>
p▁ ur
pr▁o j▁ect</w>
i▁ red</w>
fo▁ ll
fin ancial</w>
d ai▁ly</w>
c▁l os
conc er▁
Su w▁on</w>
▁super ior</w>
▁sl ump</w>
▁r igh▁t</w>
▁pr▁ ice</w>
▁n etizens</w>
▁flav or</w>
▁dis pos
▁ch e▁ck</w>
▁L ibrary</w>
w at▁
ust me▁nt</w>
sur v
s ize</w>
pon se</w>
n or▁
mit t▁ed</w>
m en
k ets</w>
i▁ll▁ ion</w>
h o▁s
enc i▁es</w>
ch ▁ul</w>
aw ing</w>
atten ded</w>
ar ts</w>
ann ers</w>
S ol
K▁or e▁an</w>
A E</w>
;▁ m</w>
9 4</w>
▁w eb</w>
▁tr uly</w>
▁s is
▁l uggage</w>
▁inv esting</w>
▁fr ame</w>
▁at torney</w>
▁appl iances</w>
▁absol ute</w>
▁Chung buk</w>
t▁ ro
t e
or iz
mat eria▁ls</w>
lear ni▁ng</w>
i▁ c▁h</w>
it t▁ed</w>
in ni▁ng</w>
ic ted</w>
h e▁re</w>
fu▁r ther</w>
coun sel
cl u▁d
cas ▁e</w>
b▁e▁ come</w>
ail ing</w>
D o▁ng</w>
2 3
▁wh▁ ere</w>
▁un familiar</w>
▁s ought</w>
▁n ob
▁mas k</w>
▁invest or</w>
▁bull etin</w>
▁O ver</w>
▁Ch e
y ang
ul s
s▁ h▁
s▁ h</w>
meas ure</w>
l a▁ck</w>
gi ene</w>
even th</w>
ec tion
dr am
communic ati▁on</w>
ap▁ er</w>
ans w
Intern▁ et</w>
In ter
C C
▁w e▁ll</w>
▁thous and</w>
▁surv ival</w>
▁sup er</w>
▁hea ded</w>
▁discus sing</w>
▁boo ths</w>
▁Tr aining</w>
▁B udget</w>
▁&apo▁s ;t</w>
▁ ement</w>
w▁it h▁in</w>
tain me▁nt</w>
sh owi▁ng</w>
res u▁lt</w>
re ported</w>
p u▁sh</w>
op▁ in
inc▁ rea▁se</w>
er e▁d</w>
eas ures</w>
del i▁
dam age</w>
d u</w>
acc us▁ed</w>
▁t esting</w>
▁prot ected</w>
▁ow nership</w>
▁mist akes</w>
▁c au
▁affili ates</w>
▁Holl ywood</w>
v▁ er</w>
t▁h y</w>
re▁ v
produc ▁ed</w>
os a</w>
o T</w>
m un
hy ▁e</w>
f▁ fer
fri ends</w>
empl o▁
dr a▁ma</w>
con d
car ri▁ed</w>
b▁ u▁t</w>
ab ou▁t</w>
U▁ S</w>
Rep resent
O T
Elec tr▁
D A</w>
▁under way</w>
▁re tr
▁po is
▁cam eras</w>
▁Manag er</w>
▁Gu ard</w>
▁Ch an</w>
▁An yang</w>
▁2 50</w>
▁10 0th</w>
t▁h er▁e</w>
tal ks</w>
ou▁ ght</w>
ok en</w>
li ance</w>
he▁ at</w>
f ol▁
c▁ ri
ch▁ ange</w>
chil d▁ren</w>
ch e▁d</w>
▁pl edge</w>
▁manip ulation</w>
▁i Phone</w>
▁dr one</w>
▁depos its</w>
▁d awn</w>
▁categ ories</w>
▁Trans portation</w>
▁J ourn
wr itt▁en</w>
v▁ en
inter est</w>
hy up</w>
h eon</w>
ee▁ ch</w>
c▁ hed</w>
comp▁ anies</w>
b al▁l</w>
an tic</w>
al ties</w>
Dis trict</w>
9 6</w>
▁techn iques</w>
▁publ ication</w>
▁h ed</w>
▁am azing</w>
▁V al
▁R ail
▁Offic er</w>
▁G ye
▁F ed</w>
▁Ex pressway</w>
y▁ er</w>
w or▁th</w>
v▁ er
ven ue</w>
sh in</w>
sch ol
r an▁ge</w>
pr o▁t
perfor▁m a▁nce</w>
ou l
o ffer
n orthe▁rn</w>
k ind</w>
g lobal</w>
ec▁ te▁d</w>
dis crimin
cont ent</w>
con fi▁r
compl eted</w>
co a▁ch</w>
cau g▁ht</w>
b▁ ased</w>
T alk</w>
Sp▁ec ial</w>
Sm a▁ll</w>
Pro▁v ince</w>
P o▁l
&a▁po▁s ;▁s</w>
▁taxpay er</w>
▁t ied</w>
▁sec onds</w>
▁sear ching</w>
▁s ells</w>
▁l abor
▁is▁ sue</w>
▁gu ardian</w>
▁finis hing</w>
▁ess ay</w>
▁Stud ies</w>
▁P anmunj
▁Gim hae</w>
▁Cheong do</w>
▁B each</w>
w anese</w>
pr▁ od
pr ic▁ed</w>
i▁ ence</w>
it cher</w>
id ation</w>
h ment</w>
ev i▁d
e ur</w>
con t▁r
bus in▁
beco▁m ▁e</w>
at▁ eg
appro pri
Institu t▁e</w>
E co▁n
▁ther apy</w>
▁sn acks</w>
▁rea ction</w>
▁fl ights</w>
▁fi re
▁dis ▁
▁dep end
▁Se o▁ul</w>
▁L ord</w>
▁Ind eed</w>
▁G ov.</w>
▁Cong ress</w>
▁5 00,000</w>
▁&▁ a
t y
se▁ veral</w>
on ze</w>
n ▁s</w>
m ilitary</w>
indus tr▁y</w>
i an▁ce</w>
g ames</w>
er i▁es</w>
bus i▁n
bel iev
at us</w>
al tern
ac ing</w>
S▁ ec
L e▁
In c▁heon</w>
C O
B as
5 9</w>
# 9
▁see kers</w>
▁har der</w>
▁autom atic</w>
▁KOS DAQ</w>
str ess▁ed</w>
s am▁e</w>
pe▁ ri
p ub▁lic</w>
mis sions</w>
hos ▁p
er▁ at▁ion</w>
du ▁e</w>
d ang
d .</w>
b▁ udget</w>
a▁m p</w>
air▁ man</w>
M ayor</w>
201 2</w>
▁th a▁n</w>
▁t e▁r
▁in land</w>
▁d il
▁bir ds</w>
▁b oom</w>
wr it
ter ies</w>
sy s▁tem</w>
stud e▁nt</w>
rel at▁
p▁ re▁
on▁ t</w>
m ill
i▁t te▁e</w>
in▁ st▁
fi▁r s▁t</w>
fi x
en tic
dro me</w>
ar ms</w>
al ition</w>
U V</w>
P▁ ublic</w>
0 1</w>
▁wor ship</w>
▁tax ation</w>
▁succ ession</w>
▁se izure</w>
▁l o▁
▁injur ies</w>
▁fres h
▁firef ighters</w>
▁cos t
▁communic ations</w>
▁a▁ fter</w>
▁U.S.- North</w>
▁Tai wanese</w>
▁S ung
▁D omestic</w>
▁Ac coun
u is
tion ary</w>
su ff▁
str eng▁
ri ble</w>
p▁ ric
p us
olo▁g ical</w>
it ory</w>
if elong</w>
id ers</w>
cr ime</w>
ch a▁n
c alled</w>
administr▁ ative</w>
ad a</w>
Pol i▁ce</w>
P re▁sid
7 7</w>
▁seas ons</w>
▁n ights</w>
▁mo tiv
▁minis ters</w>
▁log ic</w>
▁h al
▁fl ood</w>
▁exc iting</w>
▁K wak</w>
▁K imchi</w>
▁D a</w>
▁Chun cheon</w>
nec e▁ss
ib l▁e</w>
h▁ ot</w>
h al
d▁ ec▁
direc ▁
dep art▁
d i▁c
S afe▁ty</w>
H an▁
Administr ati▁ve</w>
5▁ 0</w>
10 ▁th</w>
&a▁p▁os ;m</w>
▁writ ers</w>
▁w oo</w>
▁struc tural</w>
▁star tup</w>
▁sal t</w>
▁represent ing</w>
▁manufactur er</w>
▁heal ing</w>
▁fl at</w>
▁consult ative</w>
▁cons ervation</w>
▁chec ks</w>
▁att ach</w>
▁Tr ad
▁T ower</w>
▁Int egr
tur ▁al</w>
sid er</w>
resid▁ ents</w>
pers▁ on
p ea▁ce</w>
off▁ ic
me▁ etin▁g</w>
loc ated</w>
in▁ ation</w>
i u▁m</w>
grow i▁ng</w>
fl ix</w>
fam ilies</w>
es tic
c iti▁
ar▁ ly</w>
ag a▁inst</w>
St ud
F ebru
▁supervis or</w>
▁sh ift</w>
▁recru iting</w>
▁p up
▁ob jects</w>
▁n arrow
▁l ighting</w>
▁l ev
▁influ enced</w>
▁h urry</w>
▁foot age</w>
▁exc ep
▁advant ages</w>
▁Med ia</w>
▁M emor
▁Kinderg arten</w>
▁H am
▁Em bassy</w>
w▁h a</w>
w ar▁
v▁ ir
throu▁ g▁h</w>
t un
respon▁ se</w>
ma i▁n
m al
langu a▁ge</w>
d▁ ev
ca▁l led</w>
at▁ a</w>
ad ong</w>
Th ere</w>
Serv ice</w>
M ot
D irector</w>
20 ▁th</w>
. &apos;</w>
▁t ens</w>
▁r o▁
▁produc tivity</w>
▁pre ferred</w>
▁ill ness</w>
▁esc al
▁emb arr
▁direc tions</w>
▁abol ition</w>
▁a ired</w>
▁W ang</w>
▁F u
▁Con test</w>
▁A wards</w>
spec if▁ic</w>
r▁ ights</w>
pro▁ du▁c
on▁ ment</w>
m▁ ust</w>
f ul
ex tr
er ge</w>
c▁ an▁
comp eti▁
comm▁ ittee</w>
b ri▁
app▁ rov
adv ance</w>
P ublic</w>
5 4</w>
20▁1 6</w>
▁proc esses</w>
▁phr ase</w>
▁hear ts</w>
▁bur ied</w>
▁Res ear
▁Oper ation</w>
▁O pen</w>
▁ on</w>
tr end</w>
sum mer</w>
pre fer
l▁ iving</w>
lim ited</w>
ess ly</w>
d▁ ro
d▁ ef
b ok
b en▁
a▁ ld</w>
aw ar
S en
K ong</w>
6 3</w>
1 .▁
▁supervis e</w>
▁sp ots</w>
▁show case</w>
▁sc r
▁rec all</w>
▁poll ut
▁j unior</w>
▁in sur
▁encour aging</w>
▁compl eting</w>
▁b ad
▁b acter
▁ag es</w>
▁Se ungri</w>
▁4 1</w>
ye▁ ong</w>
v ily</w>
su ally</w>
s ex</w>
ri a</w>
requ e▁st</w>
off i▁c
m as
h▁erein aft▁er</w>
g ye</w>
g a</w>
f ee</w>
e▁c t▁ion</w>
ea uty</w>
def en▁se</w>
c▁ enter</w>
chang ▁ed</w>
ati n</w>
H was
Elec tron
8 5</w>
▁threa tened</w>
▁sw ing</w>
▁str ea
▁pour ed</w>
▁explos ion</w>
▁cl ar
▁ch eering</w>
▁camp ing</w>
▁Yeong deungpo</w>
▁Trea sury</w>
▁P ay</w>
▁Dong jak</w>
▁7 5</w>
▁2 .5</w>
y▁ st
v▁ i
stu▁ dy</w>
pop ular</w>
on als</w>
m▁ anag
m ain▁
lea der</w>
invest ment</w>
in conven
hea▁ ds</w>
d augh
b i</w>
a el</w>
Ph il
Oct ob▁er</w>
▁restric tion</w>
▁repres ent</w>
▁rel atives</w>
▁real istic</w>
▁k id
▁S an</w>
▁Cap ital</w>
▁B ong</w>
▁Argent ina</w>
w ay▁s</w>
thr▁ oug▁h</w>
th rea
t led</w>
spe▁ ci
shar ehol
se i</w>
re d▁uc
r at▁
pre▁ ss
ou ble</w>
ky u▁ng</w>
jo▁ in</w>
ir o</w>
inc re▁as
h▁el p</w>
f a
end ations</w>
each ment</w>
dis ast▁er</w>
c▁ as
con tract</w>
cer emony</w>
c ente▁r</w>
ar ▁s</w>
an ity</w>
amm ar</w>
ad vis
J un</w>
B o
▁str et
▁r oles</w>
▁prof itability</w>
▁inform atization</w>
▁ha bit
▁h a▁ve</w>
▁grat eful</w>
▁Inst agram</w>
tr a▁ck</w>
t less</w>
sy▁st e▁m</w>
sum mi▁t</w>
st ar</w>
sh r
ph o▁ne</w>
oper a▁te</w>
n om
int▁ern al</w>
ing re
im ent</w>
hou s▁
g ap</w>
e▁ o</w>
bu▁ k</w>
at mos
N ovember</w>
Aug u▁st</w>
▁integr ation</w>
▁def eat</w>
▁con stitutional</w>
▁clou ds</w>
▁T ottenham</w>
▁Fin ally</w>
▁B ong
z o</w>
uc ky</w>
ti▁ c</w>
s▁ id
si t▁es</w>
sec ti▁on</w>
sec retary</w>
ol ved</w>
leg isl
eti es</w>
en c▁es</w>
e iling</w>
div isi▁on</w>
distr ib▁
disab l▁ed</w>
con f▁ir
c enter▁ed</w>
al▁ y
O c
M a▁
I CT</w>
B▁ usan</w>
Am e▁r
▁w ealth</w>
▁prin ting</w>
▁pr ayer</w>
▁part ners</w>
▁n am</w>
▁m in</w>
▁k i</w>
▁comm and</w>
▁air line</w>
vol un
tour i▁sm</w>
s▁ ec▁
situ▁ at▁ion</w>
s essi▁on</w>
refe▁r r▁ed</w>
rec o▁
re vi▁ew</w>
r ain</w>
probl e▁ms</w>
pl eas
m u</w>
exhib iti▁on</w>
P CO</w>
▁targ eting</w>
▁t ells</w>
▁system atically</w>
▁symb ol</w>
▁spec ulation</w>
▁mus cles</w>
▁miss ile</w>
▁in appropriate</w>
▁des irable</w>
▁clos ure</w>
▁class room</w>
▁ch arm</w>
▁ME RS</w>
▁J a</w>
▁Con ference</w>
u▁ p
streng th▁en</w>
sti ce</w>
sh ed</w>
rec ently</w>
n▁ ov
ind u▁stry</w>
hy th
f▁ ourth</w>
f ound</w>
f a▁ll</w>
b▁ etter</w>
ac he</w>
ab ol
K ing</w>
▁t ower</w>
▁sm a▁ll</w>
▁sil ver</w>
▁sign ature</w>
▁resc ued</w>
▁comm ander</w>
▁M el
▁M O
▁Inter ior</w>
y an▁g</w>
sta▁ ff</w>
pop ul
o▁ int</w>
mov ▁ed</w>
me▁ as
int▁er est</w>
in ate</w>
ign ity</w>
est▁ ival</w>
el ▁s</w>
c over
a▁t eg
au g▁h
arant ine</w>
S CO</w>
Comm it▁tee</w>
▁t ool</w>
▁str eam</w>
▁s ing</w>
▁rec overed</w>
▁r ot
▁r ank</w>
▁pun ished</w>
▁p itcher</w>
▁mathem atics</w>
▁di esel</w>
▁dem ol
▁bl ow</w>
▁U U</w>
▁Kak a
▁Expec tations</w>
▁Confuc ian</w>
th o▁
stu▁d en▁ts</w>
r▁ o</w>
receiv i▁ng</w>
os es</w>
or▁ d
l▁ ack</w>
j eo▁ng</w>
ivers a▁ry</w>
ir eless</w>
f▁ir s▁t</w>
f inal</w>
ex po▁rt</w>
e uk
b▁ eh
Rus sia</w>
Econ o▁my</w>
D▁ ec
D▁ a
▁t onight</w>
▁pic ked</w>
▁out look</w>
▁har mon
▁encour aged</w>
▁em issions</w>
▁d ancing</w>
▁Republ ican</w>
▁R ef
uti n</w>
so ft</w>
reg istr
i▁ ti▁es</w>
h eat</w>
ex▁ pec
emp▁l oy
el i▁ng</w>
at al</w>
an ting</w>
Nov emb▁er</w>
In nov
I ▁n</w>
G e▁n
E U</w>
▁sav ing</w>
▁jum ped</w>
▁inn oc
▁fro zen</w>
▁d ormit
▁be t▁ween</w>
▁J ames</w>
▁For tress</w>
▁Comm unications</w>
veh ic▁le</w>
techn▁ ology</w>
s▁ s</w>
rim inal</w>
ph y▁
or al</w>
ook ie</w>
mak ers</w>
k es</w>
inves▁ tment</w>
hw amun</w>
fe▁ es</w>
ell ence</w>
de▁ l
aul o</w>
ap o▁s▁
adem▁ ic</w>
Sec reta▁ry</w>
G e
F und</w>
0 7</w>
▁wh oles
▁scienti fic</w>
▁promp tly</w>
▁f o▁c
▁f em
▁expres sions</w>
▁def ined</w>
▁conven tion</w>
▁N ak</w>
v ulner
un til</w>
s▁ec on▁d</w>
re▁su▁l ts</w>
re vi▁
p▁ ri▁
p ical</w>
mi▁n imu▁m</w>
k ly</w>
in▁ ter
il▁ ar</w>
ic▁ at▁ion</w>
g ress</w>
g am▁e</w>
e▁c tive</w>
ex hib▁
cili ation</w>
as t▁ic</w>
ai▁ led</w>
acc ep
Prov▁ inc▁e</w>
Japa▁n ese</w>
J ang
9 ▁th</w>
▁w e
▁surpr ise</w>
▁out break</w>
▁inv ite</w>
▁h obby</w>
▁ex ists</w>
▁compon ents</w>
▁Wh ether</w>
▁O ut
▁Egyp t</w>
▁B esides</w>
▁A rea</w>
wh▁ ile</w>
urr ing</w>
tr aining</w>
tec h▁n
sec ur
r▁ea s▁on</w>
or ds</w>
og n▁
manag ▁er</w>
l a</w>
h▁ ome</w>
enti onal</w>
emb le</w>
d emocr
b▁ usiness</w>
W ar</w>
S D</w>
M oo</w>
Eng li▁sh</w>
Ch eo▁ng</w>
C E▁
Ar t▁
▁prot ecting</w>
▁lif ted</w>
▁ab or
▁R eal
▁Hu h</w>
▁Eas tern</w>
▁Ben to</w>
y▁ et</w>
up yeong</w>
tak en</w>
sm oki▁ng</w>
s ymp
j on▁g</w>
fort ably</w>
eong buk</w>
dep artment</w>
c er</w>
br a▁nd</w>
a▁l ue</w>
ab ies</w>
Eng ine
▁won derful</w>
▁tr acking</w>
▁symb ol
▁str aw
▁p ack</w>
▁ex empl
▁contr ast</w>
▁Y eong</w>
▁St ock</w>
▁Pro perty</w>
▁2 2
▁&▁ a▁mp;</w>
ur ban</w>
ung er</w>
uc▁ c
sm artph
s ale</w>
pr▁o ject</w>
op pos▁ition</w>
i▁ ev
in▁ clud
in c▁l
h▁ ea
h uge</w>
g row</w>
g ar
enc ement</w>
emplo▁y ment</w>
dus try</w>
ati on▁
S u</w>
O r▁
▁veter ans</w>
▁sp ot
▁sp eaker</w>
▁retur ns</w>
▁r oot</w>
▁progres sive</w>
▁o ri
▁m alls</w>
▁fulf ill</w>
▁f i▁
▁cover age</w>
▁coun sel</w>
▁ar ms</w>
▁Techn o</w>
▁Per haps</w>
▁H ope</w>
t▁ in▁g</w>
s ig▁n
pur su▁
i▁n ter
id eo</w>
g ung</w>
g age</w>
e▁c ts</w>
ev ision</w>
el ig
diff▁er en▁t</w>
ay o▁r</w>
alifor nia</w>
V ill
O E
N▁ am</w>
▁sup plement</w>
▁sn ow
▁sc at
▁res ort</w>
▁peti tion
▁n or
▁id e
▁dis tur
▁confir ming</w>
▁additi onally</w>
▁P rivate</w>
▁Gun san</w>
▁Ear th</w>
▁5 0
y▁ ear▁s</w>
sup po▁r
si▁ d
rea d▁y</w>
pro perly</w>
pr ic▁es</w>
po▁ or</w>
plac ▁e</w>
p ower
oc▁ ks</w>
m iddle</w>
k y▁u</w>
ic ro</w>
hou s▁es</w>
g rou▁p</w>
es h</w>
b ac▁k</w>
a▁m es</w>
ati▁ c</w>
at te▁nd</w>
at or
al i▁ze</w>
N o▁
H u
G rou▁p</w>
E a▁st</w>
Dis tric▁t</w>
▁vis ual</w>
▁str ic
▁sem i</w>
▁s um</w>
▁r itual</w>
▁initi ally</w>
▁exam s</w>
▁b e▁c
▁b att
rank ▁ed</w>
plac ▁es</w>
o▁ ci
j ourn
i▁t ary</w>
investig▁ at▁ion</w>
infl▁ u
if ted</w>
h all</w>
exec u▁
den ed</w>
ce▁r tain</w>
at ar</w>
ad i▁um</w>
M E</w>
▁un ified</w>
▁t a▁
▁p ine</w>
▁mach inery</w>
▁h itting</w>
▁comm encement</w>
▁ch ocolate</w>
▁S sang
▁N atur
▁K B</w>
▁C E
w ea▁
st ar▁
s exual</w>
p▁ ing</w>
poin▁ ts</w>
oo th
l▁ ea▁
i▁ li
insu▁r ance</w>
hel▁ p</w>
facil itie▁s</w>
e▁m ber</w>
ep▁ t</w>
en j▁oy</w>
ell ed</w>
d▁ irec
di plom
di ed</w>
condu▁c t</w>
cl▁ ub</w>
T BC</w>
For ei▁gn</w>
C s</w>
7 9</w>
,▁ 000</w>
▁viol ent</w>
▁n omin
▁inquir y</w>
▁i sol
▁fri endship</w>
▁driv en</w>
▁des truction</w>
▁del inqu
▁aud itor</w>
▁Pl aza</w>
▁D oc
▁& amp;</w>
vers eas</w>
u ating</w>
t▁er m</w>
st ay</w>
sent enc▁ed</w>
rel ations</w>
p ic▁
out si▁de</w>
or ities</w>
l▁ and</w>
g il</w>
ew o▁rk</w>
esti m
P O</w>
K R▁W</w>
A▁r t</w>
&a p▁o▁s
▁ter rit
▁rem ote</w>
▁meas urement</w>
▁judg ing</w>
▁heatw ave</w>
▁gradu ated</w>
▁en able</w>
▁e ▁
▁dismis s</w>
▁de ployed</w>
▁bl oss
▁bel t</w>
▁aut onomy</w>
▁attac ks</w>
▁Y on
▁Bur ning</w>
▁B uk
▁Afr ican</w>
▁200 4</w>
z er
u▁ ry</w>
sp ir
re▁ f
rev ealed</w>
my u▁ng</w>
mo▁n th</w>
m eter</w>
l i▁n
ky un▁g</w>
ign s</w>
hom ▁e</w>
est yle</w>
equ ality</w>
div ision</w>
distribu ti▁on</w>
comp▁ an▁ies</w>
comm un▁
cl▁ ud
c ateg
bus y</w>
at▁ is</w>
adv a▁n
Dec r▁ee</w>
6 ▁th</w>
▁wat ers</w>
▁sew age</w>
▁prin t</w>
▁o uter</w>
▁fir ed</w>
▁di ab
▁descri bed</w>
▁ag ents</w>
▁4 6</w>
ul ent</w>
u e▁s</w>
ti f▁
t elecomm
special iz▁ed</w>
so▁ ci
sec t▁or</w>
pr▁ event</w>
priv ileg
prev e▁n
p port</w>
o▁r ry</w>
oper▁ ating</w>
ic ian</w>
gre ement</w>
f an</w>
exp e▁n
discu▁ ss</w>
d ev▁el
T a▁
O lymp
O l
E ur▁
Dec emb▁er</w>
20 20</w>
▁w ood</w>
▁th reat</w>
▁recru ited</w>
▁pursu ed</w>
▁open s</w>
▁op tions</w>
▁l ap
▁k ind
▁fi x</w>
▁disapp ear</w>
▁b orrow</w>
▁Nam yangju</w>
▁F ootball</w>
▁3 6
▁200 2</w>
y▁ eong</w>
tro versy</w>
ter▁ m</w>
sub scri
sc en
ph y</w>
h▁ y
foll ow▁ed</w>
d ated</w>
cos ts</w>
c ore</w>
be▁c a▁us▁e</w>
b i▁ll</w>
b i▁g
a▁n ds</w>
ar io</w>
ac ent</w>
T ec
C en▁
▁wor n</w>
▁up date</w>
▁s▁ ince</w>
▁sec tions</w>
▁recycl ing</w>
▁fin ancing</w>
▁contro lled</w>
▁conduc ts</w>
▁cap tured</w>
▁U sually</w>
▁ tio▁n</w>
un gh
ul▁ y</w>
t▁im ▁e</w>
s▁ ee▁
sh▁ op</w>
ro▁w th</w>
o▁ cr
ic ked</w>
fin ite</w>
ec os
competi tiv
be t▁wee▁n</w>
ativ e▁ly</w>
Se ong</w>
L ocal</w>
8 7</w>
4 00</w>
▁y ear▁s</w>
▁por tra
▁effec tiveness</w>
▁at tributed</w>
▁ass essed</w>
▁ap par
▁Mex ican</w>
▁M yeong
▁Canad ian</w>
work er▁s</w>
w oman</w>
tax i</w>
s▁ enior</w>
sup porti▁ng</w>
sem icon
ra▁ in</w>
per or</w>
m▁ ove</w>
i o▁r</w>
ho▁ od</w>
f a▁r</w>
dis trict</w>
d eal</w>
chi▁l dren</w>
ce▁n ter</w>
ar▁t m▁ent</w>
ar i▁es</w>
I l</w>
C▁ omm
C iv▁il</w>
7 2</w>
18 ▁th</w>
&apo▁s ;t</w>
▁w ishes</w>
▁pro p
▁foun der</w>
▁architec ture</w>
un iver
sing▁ le</w>
sh owed</w>
res▁ earch</w>
p▁er▁ son</w>
pr▁o duc
pen s▁
ow▁ n
n▁ ational</w>
l ow
iz er</w>
iti g
in i</w>
if i▁c
g▁ il</w>
g a▁n
exper ience</w>
est a▁
eb ack</w>
d▁uc t</w>
co▁m m▁
c ars</w>
ar▁ ks</w>
ann a</w>
Dis t▁rict</w>
4 t▁h</w>
▁tr ag
▁sc ri
▁func tional</w>
▁def ects</w>
▁N ob
▁M unicipal</w>
w arm</w>
v ic▁
ur▁ r
tr▁ ib
te▁ er</w>
ta▁ ek</w>
t a▁r
p▁l ay</w>
mut at▁is</w>
m eal</w>
issi o▁n</w>
inter▁ es▁ted</w>
imb ap</w>
ic on</w>
fras tru▁c
ex p▁er
e u▁p</w>
dire▁c t▁or</w>
denuclear izati▁on</w>
conditi o▁ns</w>
c e▁nt</w>
br an▁ch</w>
a▁t t▁
an▁ ted</w>
Rus s▁ia</w>
J▁ in</w>
A sian</w>
▁wal ked</w>
▁w ash</w>
▁uni forms</w>
▁separ ation</w>
▁r ank
▁public ity</w>
▁journ alists</w>
▁ec ological</w>
▁div or
▁c ope</w>
▁bel ongs</w>
▁F uture</w>
▁Ac tually</w>
▁A round</w>
y outh</w>
st and</w>
rea l▁
po▁p ular</w>
o▁ ms</w>
m il▁lion</w>
impo▁r t▁ant</w>
h ospital</w>
comm erc
busin esses</w>
Tour i▁sm</w>
P C</w>
K won</w>
Coun ci▁l</w>
▁wareh ouse</w>
▁vir us</w>
▁t all</w>
▁r ough</w>
▁newsp apers</w>
▁instr uments</w>
▁gu ards</w>
▁correc tive</w>
▁cont ext</w>
▁Ital ian</w>
▁Coun cilor</w>
▁Bu ilding</w>
▁7 00</w>
wit h▁
th e
ro a▁d</w>
o▁t al</w>
o▁n g▁
op pos
on s▁
l▁ ong</w>
in e▁s</w>
in e▁d</w>
e▁ up</w>
d a▁m
c ivil</w>
b▁ ak</w>
brief i▁ng</w>
at ever</w>
P G</w>
Jos e▁on</w>
&ap▁os;▁ ve</w>
▁th inks</w>
▁t elling</w>
▁surv eys</w>
▁ref unded</w>
▁objec tive</w>
▁o cean</w>
▁high way</w>
▁every where</w>
▁cur iosity</w>
▁concentr ate</w>
▁b ound
▁b e▁g
▁Nav y</w>
pr▁o f
m ix
end ants</w>
devel▁ op
co▁ l
b or▁
R u▁s
Dem ocr▁atic</w>
1 00
▁w ild
▁trav eled</w>
▁terr or
▁r arely</w>
▁pi ano</w>
▁green house</w>
▁fail ing</w>
▁facilit ate</w>
▁dis trib
▁design er</w>
▁c r▁
▁c alligrap
▁al liance</w>
▁Th us</w>
▁Pur suant</w>
▁B ro
▁8 00</w>
▁1 ,0
tr e▁ss</w>
r▁ul ing</w>
rep▁ or▁ted</w>
o▁ per
ou ses</w>
in e▁ss</w>
in ent</w>
f elt</w>
eo ju</w>
emer▁ gency</w>
emb ly
d▁ irect</w>
del eg
coo p▁er
c op
ac k▁
abil iti▁es</w>
Y ou</w>
M ex
Jap a▁n</w>
J u</w>
D▁ ay</w>
A f▁f
▁z ero</w>
▁t ox
▁pat ri
▁p ays</w>
▁hon est</w>
▁ex posure</w>
▁E X
t een
t an</w>
st▁ ep</w>
st o▁ck</w>
pos sibili▁ty</w>
pen ses</w>
op p▁os
ool ▁s</w>
n ur
n is</w>
i▁r l</w>
i▁m p▁
in y</w>
hou ses</w>
h a▁ll</w>
for▁ ce</w>
fac tory</w>
establis hed</w>
en ly</w>
el der▁ly</w>
ea▁ l</w>
cre d▁it</w>
cont e▁nt</w>
c as▁
brea k
b ill</w>
Pen insula</w>
Jap anese</w>
Janu a▁ry</w>
&▁qu ▁o▁t;</w>
▁wh er▁e</w>
▁rem ark
▁rel ieve</w>
▁occup ied</w>
▁new sletter</w>
▁f a▁
▁experim ent</w>
▁c eiling</w>
▁c ats</w>
▁Sun cheon</w>
▁St atistics</w>
▁Se odaemun</w>
▁Po cheon</w>
▁Cath olic</w>
▁All ow
w▁or ld</w>
ult▁ ure</w>
st an▁d
r▁ ow</w>
respon sib▁
re in
pl a▁y</w>
o▁ k
omer ates</w>
o ther
m ur
herein a▁fter</w>
e▁st ate</w>
ess e▁d</w>
conf e▁r
con trib
coll e▁ge</w>
M r.</w>
▁th e▁r▁e</w>
▁text books</w>
▁re verse</w>
▁pow der</w>
▁lec tur
▁hea vily</w>
▁do ors</w>
▁democr atic</w>
▁bl ocking</w>
▁bas ement</w>
▁b ul
▁a h</w>
▁T ong</w>
▁H ae
▁G ame</w>
yo▁ nd</w>
v ation</w>
v ar
un▁ it</w>
un iversi▁ty</w>
sur es</w>
s qu
organiz ations</w>
natur ▁al</w>
n ity</w>
k▁ yu</w>
im pr▁ov
h arm
h ans
ever y▁
et w▁een</w>
dem and</w>
azakh stan</w>
am ation</w>
J a▁n
Elec tr
A M</w>
8 4</w>
2▁ 00
▁wit ness</w>
▁ul tra</w>
▁th r▁ough</w>
▁repres ents</w>
▁rem emb
▁relation ships</w>
▁fr amework</w>
▁eas tern</w>
▁des ired</w>
▁chil dhood</w>
▁Ch i▁na</w>
▁20 21</w>
wor l▁d</w>
trea tment</w>
our▁ ce</w>
ot▁ ion</w>
mem▁ bers</w>
i▁ ke</w>
iti s</w>
il▁ d</w>
fur th▁er</w>
facil i▁ties</w>
e▁ au</w>
d▁ on</w>
contin ued</w>
b u▁r
P A</w>
Lib▁ erty</w>
H▁ an
En tr
Com pl▁ex</w>
▁transpar ent</w>
▁rel ics</w>
▁qu it</w>
▁photograp hs</w>
▁philos ophy</w>
▁p r▁es
▁l ying</w>
▁jud iciary</w>
▁class ical</w>
▁agre ements</w>
▁T ong
▁Comm unication</w>
▁Bas ic</w>
v oc
str▁ y</w>
se▁ t</w>
n▁ ext</w>
nu▁m b▁er</w>
lo an</w>
in ema</w>
ic▁ ies</w>
g roups</w>
educ a▁tion</w>
d am</w>
consid er▁ed</w>
co al</w>
aw a▁y</w>
as m</w>
announ ceme▁nt</w>
Ag en▁cy</w>
▁reg ret
▁p izza</w>
▁obser ve</w>
▁j u</w>
▁j in</w>
▁for ests</w>
▁f ant
▁d ess
▁K n
▁H er
▁G apyeong</w>
▁G all
▁D obong</w>
▁Ch amber</w>
▁C amp</w>
s▁ ame</w>
sk in</w>
sid ▁
ro▁ w</w>
ra ised</w>
l oo▁k</w>
gre▁ en</w>
f▁ ood</w>
f al
en▁t ary</w>
d▁ es▁
c▁om p▁
crea▁ t▁e</w>
air y</w>
J ▁ung</w>
H os
Gyeon▁g gi</w>
B y
▁special izing</w>
▁relig ion</w>
▁reg eneration</w>
▁pr▁ o
▁observ ation</w>
▁necess ity</w>
▁guarant ees</w>
▁comb ines</w>
▁che ese</w>
▁borrow ed</w>
▁bel ief</w>
▁after math</w>
▁a t▁
▁St ar</w>
▁S t▁
y gen</w>
tur ned</w>
s▁ ure</w>
so▁m e
s pr
r▁es▁ ult</w>
p▁er▁ iod</w>
prof ess▁
own e▁rs</w>
org▁ an
j u▁d
im p▁rov
i on▁
ex▁ per
es it
es h
er▁ n</w>
equ ▁
d▁em a▁nd</w>
cos ▁ts</w>
b▁ el
administr atio▁n</w>
ab il▁
K w▁on</w>
Gang w▁on</w>
D s</w>
▁tran sition</w>
▁tax is</w>
▁st amp</w>
▁simultan eously</w>
▁s u</w>
▁s ang</w>
▁renew ed</w>
▁p ure</w>
▁oblig ation</w>
▁manufactur ed</w>
▁l ie</w>
▁helicop ter</w>
▁f ly</w>
▁dep ression</w>
▁S k
▁Ren ault</w>
▁Gwang hwamun</w>
▁D ae
un c
r▁ am</w>
re▁ce ive</w>
ol▁ ved</w>
mov eme▁nt</w>
min ut▁es</w>
jur is
j ▁un</w>
i▁c al</w>
i▁ e</w>
id ate</w>
ff ers</w>
e▁ pt</w>
en ti▁ng</w>
eal and</w>
d▁ is▁
dom in
di▁ rec
cou▁ ldn</w>
c a▁n
bas is</w>
atis tical</w>
Ta i
Se▁ ou▁l</w>
L abor</w>
A t
6 4</w>
2 .
▁uplo aded</w>
▁th rew</w>
▁reb ound</w>
▁hot els</w>
▁challeng es</w>
▁ar med</w>
▁Sy dney</w>
▁Super intendent</w>
▁S iheung</w>
▁P angyo</w>
w as▁te</w>
vi ew▁
u▁ r</w>
u▁ blic</w>
sk ills</w>
sho▁ w</w>
pro c▁
pre p▁ar
m▁ y
f oot</w>
e▁l t</w>
ec tious</w>
conditi ons</w>
bi▁ g</w>
ann o▁un▁
an d▁s</w>
W e▁l
Prov in▁cial</w>
H e▁al
Co▁un cil</w>
C ar
A R</w>
2▁ 00</w>
▁organiz ing</w>
▁gl ob
▁entreprene urs</w>
▁des c
▁co astal</w>
▁ch ampionship</w>
▁bott le</w>
▁appl ies</w>
▁Mok po</w>
▁Cooper ation</w>
tr a▁ns
si▁ ons</w>
sh ing</w>
reason able</w>
produc tion</w>
prac tic
pers on▁al</w>
o▁ il</w>
ophis tic
i▁n v▁
incr▁ eased</w>
ig ation</w>
g▁ ame</w>
fin an▁cial</w>
e▁ ach</w>
emb▁ ers</w>
d ire▁ct</w>
d eep</w>
crea ti▁on</w>
bur d▁en</w>
be▁ for▁e</w>
b etter</w>
a▁n c▁e</w>
arres t▁ed</w>
W o▁r
Unive▁r sity</w>
S▁ on</w>
P y
I FA</w>
A R
▁tex ture</w>
▁sti mul
▁sh ut</w>
▁publ ishing</w>
▁pri zes</w>
▁l uck</w>
▁l ift</w>
▁hy un</w>
▁cy ber</w>
▁ar ise</w>
▁accur ately</w>
▁P utin</w>
▁D okdo</w>
ur c▁h</w>
t▁ ain</w>
tr▁ ol</w>
tr▁ ip</w>
st▁ ar</w>
sh ot</w>
sever ▁al</w>
se o▁ng</w>
s us▁
r▁eal l▁y</w>
reduc ti▁on</w>
r u▁n</w>
ma▁ king</w>
it▁ ted</w>
e▁mb ly</w>
educ ation▁al</w>
ec tly</w>
cust o▁m
b ur▁
al y▁
af ts</w>
Y ork</w>
L ove</w>
J ud
7 6</w>
▁wh▁ en</w>
▁sincer ely</w>
▁rem od
▁l yrics</w>
▁inf ection</w>
▁for ming</w>
▁contribu tions</w>
▁c uts</w>
▁Pal ace</w>
▁Chr ist</w>
to▁ ur</w>
t as
si onal</w>
sen ior</w>
sch oo▁l</w>
pay ment</w>
particip ate</w>
ol▁ og
l▁ o
it o</w>
in▁ c
involv ▁ed</w>
id en▁ce</w>
erm al</w>
ep ts</w>
ak er</w>
Found ati▁on</w>
▁wid th</w>
▁sh ower</w>
▁restor ed</w>
▁rep utation</w>
▁execu ted</w>
▁def eated</w>
▁a uction</w>
▁Re form</w>
▁P ress</w>
▁M icro
▁C alifornia</w>
under▁st a▁nd</w>
un ▁e</w>
tu al▁ly</w>
s▁ ea</w>
ser▁ ve</w>
man a▁g
in▁ at▁ion</w>
il iti▁es</w>
h w▁a</w>
cor rec
arb ucks</w>
and o</w>
am ount</w>
am ination</w>
ab l▁
F estiv▁al</w>
Don a▁ld</w>
▁wor ldwide</w>
▁surv ive</w>
▁sl owing</w>
▁refr iger
▁over time</w>
▁off▁ icial</w>
▁mot or
▁mon opol
▁commemor ate</w>
▁cl ause</w>
▁N ations</w>
▁B al
ular ities</w>
t▁ alk</w>
ti ll</w>
s▁ing le</w>
rec o▁rd</w>
prescri b▁ed</w>
p u▁t</w>
ord i▁n
i▁s s▁
form ance</w>
ex ist</w>
er a▁l</w>
burs ement</w>
bi▁ll ion</w>
af▁ ety</w>
Y ou▁ng</w>
Sam▁ sung</w>
Pyong ya▁ng</w>
N o</w>
Gw a▁ng
Bus a▁n</w>
6 1</w>
▁tou ching</w>
▁ter minal</w>
▁spl it</w>
▁prov isional</w>
▁pain ful</w>
▁p etro
▁oper ational</w>
▁op posing</w>
▁mus h
▁men us</w>
▁exc eption</w>
▁e at
▁dro ve</w>
▁c ar▁
▁al g
▁acqu ire</w>
▁S ar
▁Offic ial</w>
▁M un</w>
▁M u
u▁ me</w>
to▁ wn</w>
st one</w>
sec u▁re</w>
rec▁ ently</w>
re pr▁es
prosec ution</w>
produ▁c tion</w>
pre v▁
po▁l ice</w>
m▁ ajor</w>
law m▁ak
ho▁ using</w>
gi▁ v▁e</w>
f▁ i
es ti▁ng</w>
c▁h o
ati tude</w>
am▁ a</w>
ag ainst</w>
T E</w>
6 6</w>
&ap▁os; r▁e</w>
▁w eigh
▁u tion</w>
▁toil et</w>
▁there for</w>
▁re plied</w>
▁quar ter
▁pack aging</w>
▁mois ture</w>
▁k ill</w>
▁in ser
▁faith fully</w>
▁entr us
▁en ro
▁draw s</w>
▁defin itely</w>
▁a f▁ter</w>
▁I I</w>
▁G ender</w>
▁Braz ilian</w>
u▁r al</w>
un it</w>
t om</w>
soci e▁ty</w>
p▁os e</w>
particip ati▁ng</w>
o▁r ed</w>
over ty</w>
on e▁s</w>
ol ine</w>
n e▁r</w>
im ate</w>
hist or
herei▁n a▁ft▁er</w>
ee▁ ded</w>
d able</w>
an es</w>
am ▁s</w>
agre▁ ed</w>
F am
1▁ 5</w>
▁under go</w>
▁there fore</w>
▁sever ely</w>
▁requir ing</w>
▁occup ation</w>
▁fl ying</w>
▁fe ed
▁exempl ary</w>
▁def endant</w>
▁d ad</w>
▁ac id</w>
▁Y eo</w>
▁C O
▁An n
wh▁ y</w>
un ive▁r
t een</w>
sem iconduc
s ely</w>
rul ing</w>
of t▁en</w>
l iter
im▁ pro▁ve</w>
ey▁ es</w>
ew ay</w>
environ ment▁al</w>
employ ed</w>
em et
a▁ ud
al▁ ty</w>
En vir
9 1</w>
8 9</w>
▁w o▁n</w>
▁v alley</w>
▁thea ters</w>
▁r ear</w>
▁per ▁
▁l iver</w>
▁exten uating</w>
▁en ding</w>
▁cri tics</w>
▁cover ing</w>
▁conver gence</w>
▁concer ts</w>
▁commerci alization</w>
▁ar t
▁acknowl edged</w>
vol u▁n
us ter</w>
un▁ d</w>
sh o▁ws</w>
s eon</w>
s en▁
o▁ d
op▁ le</w>
ok cho</w>
n ae</w>
l an▁d</w>
i▁n s</w>
i al▁ly</w>
h im
g▁ ram</w>
gen c▁y</w>
fir m</w>
ev ents</w>
electr▁ ic</w>
e ive</w>
dis mis
dir▁ ec▁
dep▁ th</w>
d an</w>
cer ta▁in</w>
b▁ ur▁
ann u▁al</w>
ann iversa▁ry</w>
acc ide▁nt</w>
Sep t▁
P eople</w>
Ordin▁ an▁ce</w>
M a▁y</w>
Hy▁ undai</w>
Gyeongsang nam</w>
7 8</w>
0 2</w>
▁serv es</w>
▁s y
▁r ing</w>
▁qual ifications</w>
▁port al</w>
▁p ep
▁p acked</w>
▁k n▁
▁investig ative</w>
▁excav ation</w>
▁bas ketball</w>
▁attemp ts</w>
▁Sou thern</w>
▁S an
z o▁ne</w>
y ro
wit▁h out</w>
some▁ thing</w>
sa▁ fe</w>
r▁e port</w>
rai▁ se</w>
r u▁l
prov inc▁e</w>
pri▁ se</w>
no▁ un
m▁ ar
ma▁ k▁e</w>
h is▁
ecess or</w>
co▁mp an▁y</w>
cons▁ um
ch ase</w>
b ook
av ail
ass aul
as er</w>
ana▁l y
Feder ati▁on</w>
8 6</w>
6 7</w>
▁p eaceful</w>
▁l ies</w>
▁happen ing</w>
▁dis tor
▁crow d</w>
▁ar tif
▁US A</w>
▁T ime</w>
▁H aving</w>
▁F F</w>
▁Elec tric</w>
wr ong</w>
su ffici
st▁ ory</w>
sol ve</w>
s om▁
r▁ eg▁
resp o▁n
relation sh▁ip</w>
p a▁re</w>
opin io▁ns</w>
op p▁ed</w>
onom o▁us</w>
ol der</w>
of▁f ic
l im</w>
it e▁ms</w>
it ement</w>
gr▁ ow</w>
c▁ s</w>
cl ean
cent e▁rs</w>
as ▁h
any▁ thing</w>
ail ▁ed</w>
L an▁d</w>
J▁ap an</w>
Govern men▁t</w>
D I</w>
A m▁
▁syn ergy</w>
▁r ub
▁prec ed
▁per petr
▁ob taining</w>
▁o the▁r</w>
▁k ey
▁f ast
▁exam ining</w>
▁cong estion</w>
▁celebr ation</w>
▁be in▁g</w>
▁ap ology</w>
▁advant ageous</w>
▁M e</w>
▁K aesong</w>
▁G oseong</w>
▁Baek je</w>
y▁ ong</w>
un i▁on</w>
t our</w>
t aking</w>
su▁ b▁
st ro
r▁ef er
pro▁duc t▁s</w>
n t</w>
in spe▁c
import ant</w>
for eign</w>
fi▁ ts</w>
est ab▁
es ity</w>
com ed</w>
b in</w>
b a</w>
a▁t in▁g</w>
ati gue</w>
al▁ led</w>
all yu</w>
SE AN</w>
Ch e▁
201▁ 8</w>
13 ▁th</w>
▁war nings</w>
▁u▁ p</w>
▁shor ter</w>
▁reserv ed</w>
▁predic ts</w>
▁mission ary</w>
▁g olden</w>
▁foc uses</w>
▁dom inated</w>
▁conf idential</w>
▁S ales</w>
▁L os</w>
y cles</w>
u ary</w>
t▁h rough</w>
techn olog
sp okes
scor ▁ed</w>
s ent▁
res earch</w>
pr▁o b▁lem</w>
pr is▁on</w>
p a▁y</w>
is s
e▁ sti
de▁ al</w>
c▁ ould</w>
cour se</w>
c au▁se</w>
br and</w>
at o▁r</w>
arant ee</w>
ar ly</w>
R▁ oh</w>
E ast</w>
3▁ 00</w>
▁th row</w>
▁t ank</w>
▁ret ail
▁propor tional</w>
▁mass age</w>
▁l aid</w>
▁inc idents</w>
▁exam ined</w>
▁disc overy</w>
y esterday</w>
w ro▁
val uation</w>
ul t▁s</w>
t▁ aking</w>
tur n▁ed</w>
shi▁ ps</w>
ser i▁es</w>
re fo▁rm</w>
pr a▁c
pe▁r c▁ent</w>
perform anc▁es</w>
p en▁
j o
f oot
e▁ lo▁
enti▁ re</w>
ed u▁c
d e▁nt</w>
b▁e e▁n</w>
a▁ king</w>
an i▁es</w>
am ics</w>
Wh en</w>
Univer s▁ity</w>
L▁ im</w>
L a▁
H wang</w>
1▁ 1</w>
▁un stable</w>
▁t igh
▁t ies</w>
▁st ation
▁s eller</w>
▁reven ues</w>
▁ref res
▁men tion</w>
▁med ic
▁lea k</w>
▁ju ice</w>
▁fish eries</w>
▁conven ed</w>
▁M ark
▁200 1</w>
us s</w>
t▁ est</w>
th ink</w>
ten d</w>
play ers</w>
p e▁r</w>
p eti
o▁ ffi▁ce</w>
oc ate</w>
l im▁
l ation</w>
ir▁ d</w>
in st▁
ili ans</w>
h and▁ed</w>
fav or
des ig▁n
c▁r▁ea te</w>
c▁om ing</w>
con ver
canc▁ er</w>
a▁ pe</w>
an t▁ed</w>
ac ro▁ss</w>
M▁ in</w>
K i▁ng</w>
C er
▁st eering</w>
▁ren ov
▁mus icians</w>
▁del eted</w>
▁coun cil
▁comp eting</w>
▁V R</w>
▁St arbucks</w>
▁D al
ye ol</w>
uni q▁ue</w>
seas o▁n</w>
rel atio▁n
ori▁g inal</w>
man▁ ag
in▁ s
h an▁ds</w>
g▁ as</w>
e▁n t▁s</w>
ef▁ ul</w>
eb a▁ll</w>
e try</w>
do g</w>
den uclearization</w>
cur▁ r
7 1</w>
▁wholes ale</w>
▁sk ill</w>
▁res trict</w>
▁rel uc
▁indic ating</w>
▁frequ ency</w>
▁exc ess</w>
▁displ ays</w>
▁cap able</w>
▁bec ▁
▁as leep</w>
▁all ey</w>
▁accept ance</w>
▁E d
web site</w>
wa it</w>
u▁n ique</w>
t▁ al</w>
s en</w>
pas ▁t</w>
par▁ ts</w>
particip▁ at▁ion</w>
p et</w>
our se</w>
op es</w>
i▁sh ed</w>
iv in▁g</w>
inc▁rea se</w>
im pres
g e▁
for c▁ed</w>
eter ans</w>
equ i▁p
ellig en▁ce</w>
cus▁ tom
ce▁ pt</w>
bus▁in es▁s</w>
au▁ gh
ad▁ or</w>
ab road</w>
Se ocho</w>
S in
M▁in▁ istry</w>
F a▁ir</w>
Div isi▁on</w>
Comm i▁ttee</w>
A gency</w>
0 4</w>
&qu o▁t▁;</w>
▁v ary</w>
▁th in</w>
▁qu oted</w>
▁postpon ed</w>
▁pen etr
▁lic en
▁heal th
▁doub t</w>
▁car di
▁With out</w>
▁Nex en</w>
▁Lt d</w>
w▁ n</w>
vis ion</w>
trav▁ el</w>
st an
sh ow
sched ule</w>
real ity</w>
prepar ▁ed</w>
par ti
o▁n line</w>
negoti ations</w>
iz▁ ati▁on</w>
if iers</w>
ic ity</w>
e▁x c
e▁ duc
exam inati▁on</w>
est▁ iv
establi▁ sh</w>
equip me▁nt</w>
clu▁d in▁g</w>
a▁n ks</w>
Tr ade</w>
S▁ chool</w>
Me▁ tro
IC E</w>
1 .5</w>
▁~ ~</w>
▁work places</w>
▁rob ots</w>
▁reti red</w>
▁prospec tive</w>
▁pres ents</w>
▁mer it</w>
▁inquir ies</w>
▁in scri
▁gr as
▁govern ance</w>
▁er rors</w>
▁d ried</w>
▁Tor onto</w>
▁E v
▁B undang</w>
wi▁th o▁ut</w>
un k
t▁ uring</w>
t▁ ion▁s</w>
tr i▁ed</w>
tig ious</w>
th▁ ly</w>
sch ools</w>
promo ti▁ng</w>
pl ane</w>
or a</w>
mod el</w>
ligh ted</w>
h▁ ouse</w>
h▁ n</w>
high▁ ly</w>
gr▁ow th</w>
g am▁es</w>
exp▁ ec▁te▁d</w>
en joy
ec ti▁ng</w>
di pl
c▁ alled</w>
&apo▁s ;
▁scre ened</w>
▁rea ders</w>
▁qu ota</w>
▁p o▁wer</w>
▁min i</w>
▁har sh</w>
▁calcul ating</w>
▁am o▁ng</w>
▁Z h
▁P aulo</w>
▁L ifelong</w>
▁As ked</w>
▁5 4</w>
s▁ aw</w>
s ign</w>
s elli▁ng</w>
pres ent</w>
ph ot▁
perfor▁m ance</w>
le▁ m</w>
ip o</w>
e▁c ti▁on</w>
e▁ f
eg▁ u</w>
des p
Serv ic▁es</w>
S ang
S a
6 2</w>
12▁ th</w>
▁w er▁e</w>
▁tend ency</w>
▁su its</w>
▁sear ched</w>
▁rea ppoin
▁rank ings</w>
▁pregn ancy</w>
▁mid term</w>
▁hy giene</w>
▁h ea▁d</w>
▁d yn
▁bo ats</w>
▁T omorrow</w>
▁S and
▁N etwork</w>
▁G olden</w>
▁G eo
▁E th
▁200 3</w>
un ist</w>
ub erc
t▁h e▁re</w>
re form</w>
prof ess
por ary</w>
n ee▁ds</w>
mee▁ ting</w>
i ou▁s</w>
h us
form▁ ed</w>
e▁ar ly</w>
er ful</w>
duc ted</w>
custom e▁rs</w>
chi▁l dr▁en</w>
b▁ ody</w>
b▁ ette▁r</w>
bea u▁
ar▁ es</w>
adem ic</w>
S ea</w>
O▁ ff▁ice</w>
J a</w>
Dec ember</w>
11▁ th</w>
▁y uan</w>
▁telecomm unications</w>
▁sur g
▁st agn
▁se em▁s</w>
▁pos itively</w>
▁occ urrence</w>
▁me ant</w>
▁manag es</w>
▁l oud</w>
▁inv itation</w>
▁discoun ts</w>
▁cro ps</w>
▁cool ing</w>
▁abnorm al</w>
▁a re▁
▁Se▁ oul</w>
▁Fl oor</w>
▁Exper ience</w>
▁Ch ild</w>
us hing</w>
us e▁rs</w>
res ta▁
ov▁ er▁n
o o▁t
lo▁ oking</w>
i ang</w>
f ath▁er</w>
ex clus
es try</w>
er r
e els</w>
a▁c tual</w>
Y eon</w>
E stablish
▁w ireless</w>
▁shut down</w>
▁n eu
▁liqu or</w>
▁gr ammar</w>
▁enthusi astic</w>
▁deliber ated</w>
▁G ong
ye▁ ol</w>
s▁h ow</w>
st or▁es</w>
sc reen</w>
purch as
pl ans</w>
opport uni▁ty</w>
m▁ al</w>
lo a▁ns</w>
inst all▁ed</w>
includ ▁ed</w>
h app▁
gov▁ern ment</w>
e▁nti re</w>
e▁ff▁ ect</w>
ex clud
ev ▁e</w>
ens ively</w>
e a▁ns</w>
consecu ti▁ve</w>
comm itte▁e</w>
a▁ir man</w>
ar ea▁s</w>
Y o▁
G erm
De▁ f
C▁ on
0 6</w>
▁wor ries</w>
▁rel easing</w>
▁mo▁n ey</w>
▁lod ging</w>
▁liv elihood</w>
▁dec ades</w>
▁aud ition</w>
▁as ide</w>
▁arr ang
▁W e
▁Un fortunately</w>
▁Par ents</w>
▁P a▁rty</w>
▁Manch ester</w>
▁G ochang</w>
▁Ad v
u▁ sing</w>
there of</w>
th e▁rn</w>
orig in▁al</w>
on line</w>
on i▁ng</w>
l eme▁nt</w>
l at▁er</w>
in ity</w>
head quarte▁rs</w>
h ar▁d</w>
g one</w>
fin ▁e</w>
ci ences</w>
b ut
b ir▁
att ack</w>
al ed</w>
Med i▁um</w>
I ▁f</w>
6 8</w>
▁techn ique</w>
▁st uck</w>
▁shel ter</w>
▁sea food</w>
▁produc er</w>
▁flo ating</w>
▁fl ows</w>
▁f ederal</w>
▁ex agg
▁Em ergency</w>
▁8 5</w>
wi▁ n</w>
u tio▁n</w>
tif ication</w>
ti an</w>
th▁ er▁e</w>
pr▁ is
o tive</w>
n▁ et</w>
ne▁ t
n ot
ind▁us try</w>
impo▁r t
g ave</w>
for c▁
exp re▁ss
ev ent
c▁l ass</w>
b▁ in</w>
be zz
b its</w>
a▁ il</w>
ar ization</w>
ap▁ pl
al ong</w>
8 2</w>
▁t ea▁m</w>
▁some where</w>
▁o m
▁lif ting</w>
▁infl ation</w>
▁i ll</w>
▁gl ad</w>
▁econom ies</w>
▁do zens</w>
▁a s▁
▁a n▁
▁Panmunj om</w>
▁C os
w a▁r</w>
v o▁
ta▁l k</w>
t ab▁le</w>
ss▁ ion</w>
sc e▁ne</w>
r▁e p▁ort</w>
pur pose</w>
pro▁ gr
prom ot▁ed</w>
pres su▁re</w>
pl a▁nt</w>
ob iles</w>
jud▁ g
intro du▁c
ick▁ ly</w>
hear i▁ng</w>
d ea
c▁ en▁ter</w>
ber ry</w>
b out</w>
at oes</w>
ans i▁on</w>
U r
F r▁ee</w>
7 3</w>
19 ▁th</w>
▁tr ucks</w>
▁r ush</w>
▁pres enting</w>
▁mus cle</w>
▁for ▁
▁fea tured</w>
▁dis ability</w>
▁d ating</w>
▁comp uters</w>
▁comm endation</w>
▁b ound</w>
▁ap art</w>
▁all ocation</w>
▁Chungch eongnam</w>
▁Angel es</w>
tac hed</w>
sub m▁
se▁ t
o▁ sed</w>
our▁ s</w>
nec e▁ss▁
loc a▁l</w>
it a</w>
inter vi▁ew</w>
im age</w>
hol di▁ng</w>
h ap
ft op</w>
est e▁rn</w>
ec▁ on▁
ec ture</w>
ea tly</w>
c▁h il
buil t</w>
at eral</w>
anno▁un▁ ced</w>
ag enci▁es</w>
K .</w>
9 3</w>
3 1st</w>
▁y ouths</w>
▁wind ows</w>
▁view ing</w>
▁rev oke</w>
▁pain ted</w>
▁l augh
▁d ic
▁consist ently</w>
▁compar ison</w>
▁Os aka</w>
▁Ky ung
▁K TX</w>
▁4 7</w>
work ▁ed</w>
us ers</w>
sur g
oo d▁s</w>
mov▁ ie</w>
m anned</w>
i▁s ter</w>
i▁ bu▁
is ive</w>
ien n
id em
f▁ emale</w>
[...]
